<unk>	0
<s>	0
</s>	0
▁	-2.25189
ការ	-7.30883
សហប្រតិបត្តិការ	-7.57771
គណៈកម្មការ	-8.17127
ធ្វើ	-8.18772
ស្ថានភាព	-8.20472
▁ការ	-8.21761
សេចក្តី	-8.28535
កិច្ច	-8.30497
ដំណើរការ	-8.41521
ប្រតិបត្តិការ	-8.46163
យកចិត្តទុកដាក់	-8.47034
យុទ្ធនាការ	-8.47516
ប្រវត្តិសាស្ត្រ	-8.53648
អ្នក	-8.53847
ខិតខំប្រឹងប្រែង	-8.56702
ប្រដាប់អាវុធ	-8.605
ការណ៍	-8.63868
សម្រេចចិត្ត	-8.64952
ត	-8.65871
វ	-8.81121
ជា	-8.81528
ការសម្លាប់	-8.82377
ប្រើប្រាស់	-8.84266
ការងារ	-8.84495
រង្វាន់	-8.84813
ហ្វឹកហាត់	-8.87648
កញ្ញា	-8.88575
តំរូវការ	-8.89388
ការរស់នៅក្នុង	-8.89567
ស័ក្តិសិទ្ធិ	-8.89637
វាង	-8.89855
អនុវត្តន៍	-8.9012
ទទួលខុសត្រូវ	-8.90513
កិច្ចការ	-8.90845
បដិសណ្ឋារកិច្ច	-8.90876
បង្រ្កាប	-8.91115
បន្ទាប់បន្សំ	-8.91209
ការពារ	-8.91787
ភ្ជាប់ពាក្យ	-8.9188
ចិន	-8.91924
ក្នុង	-8.91991
ប្រឆាំង	-8.92509
ប្រដាល់	-8.92552
វិទ្យាសាស្ត្រ	-8.92553
រចនាសម្ព័ន្ធ	-8.92871
ភវរកម្ម	-8.92887
សម្លាញ់	-8.92887
បញ្ជាក់	-8.93071
អនុវត្ត	-8.93213
ការផ្សព្វផ្សាយ	-8.93293
បោះឆ្នោត	-8.93308
ជាសាធារណៈ	-8.93574
ច្បាស់លាស់	-8.94022
ទុក្ខបុកម្នេញ	-8.94593
តាំងពិព័រណ៍	-8.94892
រីកចម្រើន	-8.94917
ប្រជាជន	-8.95513
ភិបាល	-8.95944
សន្និដ្ឋាន	-8.96235
បង្ក្រាប	-8.96354
គាំទ្រ	-8.96559
ការទូទាត់	-8.96906
មន្ត្រីរាជការ	-8.97038
វិធីសាស្រ្ត	-8.9739
វីនដូរ	-8.98453
ការវិនិច្ឆ័យ	-8.98593
ស	-8.98653
ប	-8.99796
អ្នកទទួលខុសត្រូវ	-8.99939
ព្រលានយន្តហោះ	-9.00026
សេ	-9.00326
បំផ្លិចបំផ្លាញ	-9.01357
ការទទួលខុសត្រូវ	-9.02054
គ្រប់គ្រង	-9.0211
ការិយាល័យ	-9.02117
វាយប្រហារ	-9.02566
ការប្រមូលផ្តុំ	-9.02604
ជាច្រើន	-9.0305
ប្រាស្រ័យទាក់ទង	-9.03668
វាយលុក	-9.03723
ទំនាក់ទំនង	-9.03877
ស្មុគស្មាញ	-9.03891
ព្រឹទ្ធបណ្ឌិត	-9.03972
ចម្រូងចម្រាស	-9.03989
បុរេ	-9.04098
ប្រព្រឹត្ត	-9.04158
អភិវឌ្ឍន៍	-9.04332
សំរេចចិត្ត	-9.05548
ត្រួតពិនិត្យមើល	-9.05694
ឯក	-9.06111
ឈ្លោះប្រកែកគ្នា	-9.06469
ភាពក្រីក្រ	-9.06656
កំលាំង	-9.06668
ចោទប្រកាន់	-9.0787
ឧទ្ធម្ភាគចក្រវាយ	-9.07936
បន្ទាប់	-9.08035
អារាម	-9.08063
ហេដ្ឋា	-9.08426
វិទ្យាសាស្រ្ត	-9.08618
អ	-9.10035
ចូលចិត្ត	-9.10105
សេចក្តីថ្លែង	-9.10424
▁គណៈកម្មការ	-9.1054
អ្នកកាសែត	-9.10655
វត្ថុ	-9.10785
សេចក្ដី	-9.12692
ប្រកួតប្រជែង	-9.13663
ការធ្វើ	-9.13698
ចូលរួម	-9.14267
កែតម្រូវ	-9.14391
ការតាំងចិត្ត	-9.14811
កម្ម	-9.14865
កងកម្លាំង	-9.15579
មិត្ដភក្ដិ	-9.15727
ព្រះអង្គ	-9.16067
តម្រូវ	-9.16095
ហេ	-9.16234
ពាក្យស្លោក	-9.16824
អនុស្សាវរីយ៍	-9.17511
សហប្រតិបតិ្តការ	-9.177
ដ្ឋាន	-9.17767
ប្រធានបទ	-9.17863
ក្រុមប្រឹក្សា	-9.17864
ត្រូវការការ	-9.18836
សេចក្ដីថ្លែង	-9.19065
ក្លែងក្លាយ	-9.20032
ស្វ័យប្រវត្តិ	-9.20507
សន្តិសុខ	-9.20766
ស្នាក់ការ	-9.21078
សន្ធឹកសន្ធាប់	-9.2112
▁ស្ថានភាព	-9.21958
ភក្តី	-9.22109
មន្ត្រី	-9.22657
ប្រហារ	-9.23256
វិបត្ដិ	-9.2336
ប្រជាប្រិយភាព	-9.23824
គណៈកម្មាការ	-9.25142
▁ដំណើរការ	-9.25852
ឧទ្ធម្ភាគចក្រ	-9.26071
និន្នាការ	-9.26419
រ៉ូហ៊ីងយ៉ា	-9.27095
ធ្វើការ	-9.27636
សមត្ថកិច្ច	-9.28451
វិធានការ	-9.28649
រដ្ឋមន្ត្រី	-9.28735
រដ្ឋ	-9.32798
ឃាត់ខ្លួនអ្នក	-9.33067
៨៤	-9.33174
ស្ថាន	-9.33539
យុត្តិធម៌	-9.34025
បែក	-9.34266
គណៈកម្មាធិការ	-9.3449
សមាជិការ	-9.34508
លុក	-9.34561
ដំណើរ	-9.3489
កិច្ចសហ	-9.35015
រដ្ឋលេខាធិការ	-9.35302
ថ្	-9.35625
ការដាក់	-9.35795
ចំណង	-9.36252
ជម្រះ	-9.36258
រយះ	-9.36258
ល្វើយ	-9.36788
ស្ដីពី	-9.36794
ក្រុង	-9.37236
រ៖	-9.37404
២៣	-9.37508
វិធាន	-9.37539
ចាំ	-9.3778
ស៊ី	-9.37785
សះ	-9.37829
ត្ត្រា៖	-9.37844
ប្រផេះ	-9.37844
ច្រេីន	-9.37844
រកូស	-9.37844
ណាសា	-9.37929
ត្រូវ	-9.37934
នាង	-9.38072
គឺ	-9.38267
ប្រមាថ	-9.38787
ចុម	-9.38903
ទេីប	-9.3891
ទាញ	-9.39116
៧៣០	-9.39266
ភក្តិ	-9.39441
ជ្រក	-9.39455
២៥០	-9.39872
៦២៤	-9.39987
គៀង	-9.39988
ឈីលី	-9.39988
ខឺរី	-9.39989
ផូកូនី	-9.39989
អារ័ញ	-9.39989
ឫកពា	-9.39989
ការវេច	-9.40067
នាស់	-9.40227
រំភើប	-9.40323
ជី	-9.40353
ទាំ	-9.40505
ឈឹម	-9.40525
ខិត្ត	-9.40526
តិរវិថី	-9.40532
៤៖០០	-9.40538
វិទ្យា	-9.40562
ផ្សព្វផ្សាយ	-9.40591
នែ	-9.40769
៩១	-9.40777
ប្រជាពល	-9.41049
ប៊ែរឡាំង	-9.41078
លាន់	-9.41078
ឌឿន	-9.41078
វិជ្ជរ៉ា	-9.41078
ឈាង	-9.41084
គូម៉ា	-9.41084
រួមផ្សំ	-9.41085
កម្មការិនី	-9.41087
រួម	-9.41124
ពាណិជ្ជ	-9.41242
ឆាំង	-9.41423
សម្រប	-9.41527
រឹង	-9.41594
ជិតខាង	-9.41609
ឆើត	-9.41614
៥០០០	-9.41615
ឡូត	-9.41621
នំបុ័ង	-9.41628
ល្វ៊ី	-9.41628
កំដរ	-9.41628
ម្ហូប	-9.41628
ង្ស៊ី៖	-9.41628
បន្ទោបង់	-9.41628
ឧបការី	-9.41634
ឬមួយ	-9.41634
ក្បូន	-9.41634
នឹង	-9.4181
ផែនការ	-9.41852
និយ	-9.4187
ឋិត	-9.41899
ណេត	-9.42173
ទុង	-9.42173
បណ្ដោះ	-9.42173
ក្ងោក	-9.4218
សេរ៉ី	-9.4218
ប៊ីល	-9.42186
ស្តាប់៖	-9.42187
អាសត្រូវ	-9.42194
ហ្គេម	-9.42398
ប្រជាពលរដ្ឋ	-9.42445
ជូ	-9.42574
ហភាព	-9.42611
សម្ដែង	-9.42632
ស្ទឹង	-9.42709
ស្នៀត	-9.42729
មុំ	-9.42729
ក្រហម	-9.42734
ម៉ង់ត៍	-9.42735
អ៊ាម	-9.42736
ជាសារវ័ន្ន	-9.42736
ថាន់	-9.42736
ភាន់ច្រឡំ	-9.42736
ចំបង	-9.42741
ឡេីង	-9.42742
វិធីសាស្ត្រ	-9.42743
៧៣៧	-9.4275
ចាប់	-9.42808
ប្រេះឆា	-9.42824
អ៊ី	-9.42829
បែកធ្លាយ	-9.42855
ហាម	-9.42876
រីក	-9.42904
ធំ	-9.42978
ព្នៅ	-9.42982
ទិដ្ឋាកា	-9.4299
ចក	-9.43281
អគ្គ	-9.43288
កុម្ភៈ	-9.43288
ជង្គង់	-9.43294
ក្រើន	-9.43295
ចាប៉ី	-9.43295
បង្គួរ	-9.43295
ប្រពន្ឋ័	-9.43295
កញ្ច្រែង	-9.43295
គូស្នេហ៍	-9.433
យុន	-9.433
ឫក៏	-9.433
សុថាន	-9.43301
បទភ្លេង	-9.43301
ទោល	-9.43302
ថ្លែង	-9.43409
ចបព	-9.43456
ដង្ហែ	-9.4348
ក្លាយ	-9.43537
បន្លំ	-9.43584
នៅ	-9.43633
ការប្រឡង	-9.43652
ល	-9.43833
រោត្តម	-9.43841
មន្ដ្រី	-9.43847
កុប្បត្តិ	-9.43849
របស	-9.43856
បង្អស់	-9.43856
ព្យាណូ	-9.43856
ធម្មា	-9.43856
ប្តី	-9.43856
ពាំនាំ	-9.43856
ពូជពង្ស	-9.43856
មជ្ឈឹម	-9.43856
រវើរវាយ	-9.43856
សម្រែក	-9.43856
ហ្គាស	-9.43856
អាកាស់	-9.43856
កុះកុញ	-9.43856
កេីត	-9.43856
ត្ថុ៖	-9.43856
ប៉ាញ៉ូស	-9.43856
៤១០	-9.43859
ចំតែ	-9.43861
ចម	-9.43862
ព្រះអគ្គ	-9.43863
ការឱប	-9.43942
២០០៦	-9.44057
៥៩៨	-9.44109
អង់	-9.44153
ដួល	-9.44308
ឆ	-9.44382
វីស្គី	-9.44408
ដំបូង	-9.44408
ប៉ៅ	-9.44408
ខួប	-9.44414
វីរៈ	-9.44414
កូឌិ	-9.44414
អ៊ាន	-9.44414
ក្រវាត់	-9.44416
ទីផ្សា	-9.44419
កំពង់ត្រា	-9.44419
ពីមុន	-9.4442
ថ្លឹង	-9.44421
ដាស់	-9.44421
ដំបូល	-9.44421
និទាឃ	-9.44421
មួង	-9.44421
រាហៈ	-9.44421
រ៉ូយ៉ាល់	-9.44421
អានុភាព	-9.44421
កុសម	-9.44421
ជម្មាយុ	-9.44421
ដ្ឌ	-9.44421
អសនៈ	-9.44421
អេះ	-9.44421
២០១២	-9.44425
លំហាត់	-9.44426
រៀបរាប	-9.44426
១៧០០	-9.44427
ទិសដៅ	-9.44427
ម៉ាឡេសុី	-9.44428
ផ្តាច់មុខ	-9.44428
ឯកស័ក	-9.44433
៤០០	-9.44435
អ្នកតា	-9.44492
បរិច្ចាគ	-9.44588
សាម៉ី	-9.44642
បព៌ត	-9.447
ឯកោ	-9.44715
កំណត់	-9.44719
កាមន្ត្រី	-9.44742
រងារ	-9.44888
៧៥០	-9.44954
គ្រាន់	-9.44959
អគ្គិ	-9.44975
ម៉ែន	-9.44979
ដ្ធាន	-9.44982
ជិក	-9.44983
ចំពោះ	-9.44988
ក្បួន	-9.44988
កុន	-9.44989
ឆកនាំ	-9.44989
ទំពែក	-9.44989
បញ្តាញ	-9.44989
ប្លុង	-9.44989
ផ្ទេស	-9.44989
អឌ្ឍ	-9.44989
អន្លូង	-9.44989
មាឌ	-9.4499
រ៉ូហានី	-9.4499
សេហ្វ	-9.4499
ថេប	-9.4499
ចិន៖	-9.44995
ព្រលឹង	-9.44995
សេសរីង	-9.44995
ភពដទៃ	-9.44995
អង្គហេតុ	-9.44995
ទាយ	-9.44996
ជីដូន	-9.44996
នីតិវិធី	-9.44996
ប្រើកម្ម	-9.44998
ថែប	-9.44999
ស៊ាវ	-9.45003
ស៊ីការ	-9.45003
ស៊ីប	-9.45094
ខ្មាស	-9.45242
ចស	-9.45268
៦១	-9.45289
កិន	-9.45432
តម្ចាស់	-9.45483
សាស្រ្ដ	-9.45534
វិន	-9.45535
ហ្កាហ្សា	-9.45553
ស្មោះ	-9.45554
មូយ	-9.45554
ប្រដាប់	-9.45555
ខ្ញុំុំ	-9.45561
ខ្វាវ	-9.45561
ជ្រូក	-9.45561
ថេរ	-9.45561
ប៊ុណ្ណា	-9.45561
ព្រហ្មណ្ឌ	-9.45561
ព្រឺព្រួច	-9.45561
ភ្លៅ	-9.45561
មើល៍	-9.45561
យំ	-9.45561
លន់	-9.45561
សញ្ជាតិ	-9.45561
សិទិ្ធ	-9.45561
អាគ្នេយ	-9.45561
បញ្ជប់	-9.45561
អ៊ែរ	-9.45561
កំណាត់	-9.45567
អាលុយ	-9.45567
ហ៊ីរ៉ូ	-9.45567
កែទម្លាប់	-9.45567
ថ	-9.4568
រញ្ជួយ	-9.45697
ត្រ	-9.45718
ប្រតិបត្តិ	-9.45752
នង	-9.45807
សង្គម	-9.45807
ការបូម	-9.45811
កំដៅ	-9.45822
៤៦០០	-9.45828
១៧០	-9.45838
ឬក៏	-9.45838
ការផ្ដល់	-9.4594
ជ្រុល	-9.45944
របង	-9.45948
វវ	-9.45964
២១៦	-9.4597
អ្នកតាម	-9.45988
នឹក	-9.45992
ធា	-9.46023
មា	-9.4606
ណាស់	-9.46082
១១៧	-9.461
បញ្ចាំង	-9.46109
ស្សី	-9.46122
ហៅ	-9.46122
ក្រវ៉ាត់	-9.46129
ឆ្នាំង	-9.46135
តង្វាយ	-9.46136
បរុស	-9.46136
ផ្ដែ	-9.46136
ពន្ធដារ	-9.46136
មាឡា	-9.46136
ការភ្ជួរ	-9.46136
ចម្អែត	-9.46136
ដំបៅ	-9.46136
ប៊ិច	-9.46136
ព្រៃផ្សៃ	-9.46136
មជ្ឍ	-9.46136
រវីរវល់	-9.46136
វង្វេង	-9.46136
សាក្សី	-9.46136
សិក្ខាម	-9.46136
ស្លេវ	-9.46136
អីឡូវ	-9.46136
០៥៣៥	-9.46142
បុរម	-9.46142
ស្លាបទន់	-9.46142
ខ្ញី	-9.46142
ប៉ាបី	-9.46142
ដៃ៖	-9.46143
ជង	-9.46143
នឹកឃើញ	-9.46143
ថ្កើន	-9.46144
ភាពឯក	-9.46208
ស្រប	-9.46273
យល់	-9.46277
ខុស	-9.46325
ព្រឹក	-9.46341
ប្រសិទ្ធ	-9.46374
នាមជា	-9.46412
ម៉ែត្រ	-9.46417
រក្សារ	-9.46567
ជាតិ	-9.46672
រលាក	-9.46674
នាយក	-9.46677
មែន	-9.46684
ម៉ាស	-9.46688
ទែន	-9.46698
ឱកាស	-9.46703
ស្តីពី	-9.46705
ច្បារ	-9.46706
គន្លឹះ	-9.46706
អុី	-9.46707
ស្វាង	-9.46707
សង្កាត់	-9.46708
ឈ្នាន់	-9.46714
កំណើន	-9.46714
កំរើក	-9.46714
ឈ្នាង	-9.46714
ថេក	-9.46714
ទំហ៊ឹង	-9.46714
ពុម្ភ	-9.46714
សម្ដិល	-9.46714
ខុំ	-9.46714
គុម្ព	-9.46714
បរិការ	-9.46714
បុព្វបុរស	-9.46714
ឡូទុស	-9.46714
កយកា	-9.46714
សារិទ្ធ	-9.46719
វារឡើង	-9.46719
ក្តាម	-9.4672
ដេប៉ូ	-9.4672
កែង	-9.4672
ដឹង៖	-9.4672
កំពត៖	-9.46721
ខ្ចោះ	-9.46721
វរៈ	-9.46721
គូប	-9.46726
អប់រំ	-9.46734
អ្នករចនា	-9.46739
ប្រតិបត្តិការបង់	-9.46752
ចរចា	-9.46781
ការស្តារ	-9.46798
កិច្ចសហប្រតិបត	-9.46839
កម្ចាត់	-9.4687
ដាំ	-9.46889
ជ្រៀត	-9.46897
ស្ម័គ្រ	-9.46941
ចង្អោ	-9.46944
ភ្នំ	-9.46981
នៅព	-9.46983
អាមេ	-9.46998
ការជា	-9.47012
មិន	-9.47015
ការរីកចំរើន	-9.47041
ទីភ្នាក់ងា	-9.47065
ការតវ៉ា	-9.4709
ជួសជុល	-9.47107
ការប្ដឹង	-9.4711
ហើយ	-9.47142
ដីការ	-9.47159
លើស	-9.47159
ច្បាម	-9.47179
បៅ	-9.47184
ផែន	-9.47201
អូរ	-9.47204
ល័យ	-9.47253
សង្ឃ	-9.47268
បា	-9.47278
ឆ្មា	-9.4728
ពាធ	-9.47281
ដង្ហើម	-9.47281
លុះ	-9.47282
ទ្ធី	-9.47287
កង្វល់	-9.47287
សឹក	-9.47287
នះ	-9.47288
ពុករលួយ	-9.47293
ឆន្ទៈ	-9.47295
តិន	-9.47295
បំប៉ោង	-9.47295
ស្នឹម	-9.47295
ស្នំ	-9.47295
ខួយ	-9.47295
ដុក្ស	-9.47295
ឌូបៃ	-9.47295
ភឿយ	-9.47295
ម៉ូត	-9.47295
សំាយ៉ូអែល	-9.47295
ស្រឹង្គារ	-9.47295
ហ្គូហ្គល	-9.47295
ហ្មឺន	-9.47295
បា្លស្ទិក	-9.47295
វិទិកា	-9.47295
អាថ៌	-9.47295
៤២៥៦	-9.473
លីកាដូ	-9.473
បំរើឲ្យ	-9.473
គ្លីនតុន	-9.473
សាមុត	-9.473
នាំគ្នា	-9.47301
ក្រុមទា	-9.47301
ល្បើក	-9.47301
អេស៊ា	-9.47301
១៨៨០	-9.47301
ឧបទ្វីប	-9.47301
ខ្លួនក៍	-9.47301
ស្លែង	-9.47302
ដាប	-9.47305
២៧០	-9.47308
អ្នកចាក់	-9.47317
អ្នកលេង	-9.4732
ខប	-9.47322
និពន្ធ	-9.47416
រួបរួមគ្នា	-9.4743
ជាប់	-9.47456
៥៤	-9.47487
បែរ	-9.47522
វរ	-9.47523
ពិពណ៌	-9.47542
៦០៨	-9.47543
សំរក	-9.47547
បឋ	-9.47552
រក្សា	-9.47554
ស្ទីន	-9.47564
នីឡា	-9.47573
កាស	-9.47574
កង	-9.47575
ស្ថាពរ	-9.4758
ការសម្រក	-9.47598
១០១	-9.47614
សៅរ	-9.47739
ង	-9.47762
ប៉ះពាល់	-9.47778
លែង	-9.47803
ការដាំដុះ	-9.47839
មេ	-9.47849
ទីផ្សារ	-9.47861
ឥដ្ឋ	-9.47866
ផ្ទុយ	-9.47867
សោម	-9.47872
គុន	-9.47872
ក្តាប់	-9.47873
ពិគ្រោះ	-9.47873
សរុប	-9.47873
ឥសូរ	-9.47873
គ្រុន	-9.47873
ណន	-9.47876
វិជ្ជាជីវ	-9.47878
ដូចតទៅ	-9.47878
រតនៈ	-9.47879
កំបុត	-9.4788
ទូរលេខ	-9.4788
បារមី	-9.4788
ប៉ុុន្តែ	-9.4788
ប៊ន	-9.4788
មហិឌុន	-9.4788
រ៉ឺម៉ក	-9.4788
សែង	-9.4788
ស្កូ	-9.4788
កម្ចី	-9.4788
កំលោះ	-9.4788
ក្នាញ់	-9.4788
ក្រែក	-9.4788
ចែម	-9.4788
តេហេរ៉ង់	-9.4788
ធើរីន	-9.4788
បារ៉ែន	-9.4788
ផ្គង់	-9.4788
ភ្លោះ	-9.4788
រង្គោះរង្គើរ	-9.4788
រំភើយ	-9.4788
សម្បូបែប	-9.4788
សំនួរ	-9.4788
ស៊ឹម	-9.4788
ស័ង្កសី	-9.4788
ស្ទូូូូូ	-9.4788
អនុវត្ដន៍	-9.4788
ឧត្តរឌីត	-9.4788
គិលាន	-9.4788
ឋិន	-9.4788
បារ៉ែល	-9.4788
បៀវត្ស	-9.4788
បេថ្លេ	-9.4788
បំណាច់	-9.4788
ផ្ទៀង	-9.4788
ម៉តូ	-9.4788
និរតី	-9.4788
ស៊ីក	-9.47881
សុចាន់	-9.47885
ចូល	-9.47885
ដូណា	-9.47885
រ៉ាឌី	-9.47886
វីឡេ	-9.47886
គីម	-9.47886
ចេង	-9.47886
ខាហ្គិន	-9.47886
វិញ៖	-9.47887
២០២០	-9.47887
កង្វះជាតិ	-9.47887
ហើយក៍	-9.47888
កាត	-9.47889
ពិតជាថ្មី	-9.47891
ដាត	-9.47894
អ្នកបញ្ជា	-9.47905
ទៅជា	-9.47974
នេះ	-9.47998
ផុស	-9.48027
ថយ	-9.48044
សាក់	-9.48048
ទា	-9.4805
បួ	-9.48094
អ្នកធ្វើ	-9.481
ផា	-9.48112
កូនក្តី	-9.48118
ភាពភ្លឺ	-9.4812
ឡាញ	-9.48143
ត៖	-9.48143
ក្បត់	-9.48144
ការពិត	-9.48144
ការេត	-9.48155
មាហ	-9.48169
បន្ដ	-9.48169
ទោ	-9.4818
ទិក	-9.48204
១០០	-9.48239
១៦០០០	-9.48271
ប្រត្តិបត្តិ	-9.48281
ឲ្យនៅ	-9.48382
ខ្មែ	-9.48396
៦៖	-9.48406
បម្រើ	-9.48414
ណៈ	-9.48415
១២៨	-9.48415
នរក	-9.48421
បូរ	-9.48427
ក្រូ	-9.48431
អី្វ	-9.48432
អីុ	-9.48437
ហ្វេស	-9.48439
កេរ្តិ៍	-9.4844
ជ្រ	-9.48441
ប្រាជ្ញ	-9.48442
លេខា	-9.48446
វៃ	-9.48446
ប្រុស	-9.48448
រូបិយ	-9.48451
ម៉ោ	-9.48453
ទន្ទឹម	-9.4846
ដំណឹ	-9.4846
ចំណូល	-9.48461
ប៉ុណ្ណោះ	-9.48461
សុធា	-9.48461
ជឿន	-9.48466
ខំប្រឹង	-9.48468
ជ្រុយ	-9.48468
ផុង	-9.48468
ពេជ	-9.48468
មង់	-9.48468
មន្តី	-9.48468
កុដ្ឋ	-9.48468
ឃោនា	-9.48468
ចឹក	-9.48468
ជំពាក់	-9.48468
ដប់	-9.48468
ទក្ខិណា	-9.48468
ផ្អែម	-9.48468
ពន្លត់	-9.48468
ហិម	-9.48468
គីមីវិទូ	-9.48468
ឆាត់	-9.48468
ឆ្លៀត	-9.48468
បុរោហិត	-9.48468
ភ្ញៀវ	-9.48468
យង់ឃ្នង	-9.48468
វិច្ច័យ	-9.48468
អចលវត្ថុ	-9.48468
ខែមក	-9.48473
១៥៧០០០	-9.48473
អាស៊ាន	-9.48474
ព្រឺ	-9.48474
ឃីង	-9.48474
គោលដៅ	-9.48474
ខនិក	-9.48475
គួរគប្បី	-9.48475
ខ្ពស់	-9.48475
ជាប់ទង	-9.48475
២៥៦១	-9.48475
សិទ្ធិ៖	-9.48475
គឺជាប់	-9.48477
ម៉ែវ	-9.48482
ស្រុត	-9.48482
គ	-9.48497
លទ្ធិភាព	-9.48501
ការទៅ	-9.48514
មី	-9.4852
ផ្តាច់ការ	-9.48578
ទេ	-9.48579
៣១១	-9.48584
កកើត	-9.48639
រំដោះ	-9.48645
មូរ	-9.48659
សាង	-9.48663
តភ្ជាប់	-9.48672
។ល	-9.48672
បង្ខំ	-9.48673
ពពឹស	-9.48707
ពីដើម	-9.48725
សត្រា	-9.48726
ខ្លួនឯង	-9.48734
ហ៊ីកូ	-9.48762
ទៅ	-9.48766
វត្តភ្នំ	-9.48774
គ្រីប	-9.48776
៨៣	-9.48821
ការកែច្នៃ	-9.48822
ការគប់	-9.48844
ការថ្លែង	-9.48874
៧	-9.48887
សង	-9.48941
បី	-9.48944
ពីរ	-9.48984
ឃើញ	-9.48996
ឆ្នោត	-9.49031
ដើម្បី	-9.49033
ពន្ធ័	-9.4904
កំណើត	-9.49042
និតិ	-9.49043
ន័រ	-9.49046
ក្រឡា	-9.49047
ឡែក	-9.49047
កាន	-9.49049
ហោរា	-9.49051
ទ្រាំ	-9.49052
ស្តាយ	-9.49052
ស្ដាំ	-9.49052
ចរិត	-9.49053
ណៅ	-9.49053
ឮ	-9.49053
ស្អែក	-9.49053
ថ្កោល	-9.49053
ដុង	-9.49053
ឃាត់ខ្លួន	-9.49059
ធើ្វ	-9.4906
ពលិកម្ម	-9.4906
អបរំ	-9.4906
ក្វាន	-9.4906
ខៀន	-9.4906
ដើពីមុខ	-9.4906
តើ	-9.4906
បង្គោល	-9.4906
ប្រយត្ន័	-9.4906
សុវណ្ណ	-9.4906
ហូជិមិញ	-9.4906
អាធ្រាត	-9.4906
គជប	-9.4906
ចំរេះ	-9.4906
ជោក	-9.4906
តំបូង	-9.4906
ទាក់ទិន	-9.4906
បង្កេីត	-9.4906
ផ្លាហ្សា	-9.4906
ផ្អូម	-9.4906
ម្លប់	-9.4906
យឿន	-9.4906
រាសី	-9.4906
ស្មៅ	-9.4906
ស្វយ័ត	-9.4906
ហូជីមិញ	-9.4906
ហ៊្សូ	-9.4906
អាល្លឹ	-9.4906
៧៩២	-9.4906
អធីបតី	-9.4906
មេដឹក	-9.4906
ថៃ៖	-9.49065
រូបឧត្តម	-9.49066
ហូក	-9.49066
រយៈការសុំ	-9.49066
២៦៤៧	-9.49066
រឹតតែ	-9.49066
ក្អម	-9.49066
នៅតែ	-9.49067
បង្កង	-9.49067
ស៊ាង	-9.49067
ចាង	-9.49067
ម៉ាល័យ	-9.49067
គន្លឹះ៖	-9.49067
៣៤៥	-9.49072
កម្មវ	-9.49073
សួត	-9.49074
លីត	-9.49076
កាត់	-9.49076
អ្នកគ្រប់	-9.49076
គិតគូរ	-9.49122
ការកក់	-9.49141
២០៨	-9.49144
ការដោះ	-9.49202
លិប	-9.49241
ការរួច	-9.49265
ឧប	-9.4927
សម្រាម	-9.49284
កាក់	-9.49303
អំពើ	-9.49309
កក្រើក	-9.49316
បូន	-9.49321
ឯង	-9.49333
នាំអោយ	-9.49335
ពស	-9.49342
ពន្ធនា	-9.49343
សង្គ	-9.49349
អាសុី	-9.49351
ឬ	-9.49354
នៅលើក	-9.49355
ក្រាប	-9.49379
ប្រតិបតិ្តការ	-9.4941
សង្គ្រោះ	-9.49419
នៅជា	-9.49429
អភិវឌ្ឍ	-9.49435
ខកចិត្ត	-9.49567
បាល	-9.49607
វិបត្តិ	-9.49612
ស្វាយ	-9.49615
តង់	-9.49634
ចុង	-9.49635
រោល	-9.49641
ឈប់	-9.49642
ពិពិធ	-9.49644
ជំហរ	-9.49648
ណាល	-9.49648
ភ្លេង	-9.49648
ក្រោល	-9.49654
រួចទៅ	-9.49654
គេច	-9.49654
កំពត	-9.49655
ធ្វើតេស្ដ	-9.49655
ប៉ុម	-9.49655
ម៉ូថេ	-9.49655
ម្សិលម្ង៉ៃ	-9.49655
កត្ដា	-9.49655
ជួង	-9.49655
ទម្លាយ	-9.49655
ទឿង	-9.49655
ទំនាក់ទំទ្វេ	-9.49655
បំពង	-9.49655
ពំ	-9.49655
ភូតភរ	-9.49655
មូស្គូ	-9.49655
ម្លំាង	-9.49655
យេ៉ន	-9.49655
លែរី	-9.49655
សន្និសិទ	-9.49655
ហត់	-9.49655
ហ្វ្រ៊ី	-9.49655
អុំ	-9.49655
កេសី	-9.49655
ត្រណាប់	-9.49655
បរិយាប័ន្ន	-9.49655
បរិវេណ	-9.49655
បាវិត	-9.49655
ព្រួត	-9.49655
រ៉យទ័រ	-9.49655
ស្រួច	-9.49655
ផ្តូ	-9.49655
សវនាការ	-9.49655
ទីនោះ	-9.49656
កេត	-9.49657
សេវា	-9.49657
កប	-9.49659
ឃំុតា	-9.4966
ផ្ទះល្វែង	-9.4966
សុទ្ធតែ	-9.4966
ចាន	-9.49661
ទឹកដី	-9.49661
លំហរ	-9.49661
ប្រាបាង	-9.49661
ទោសៈ	-9.49661
ល្បាយ	-9.49661
រាជធាន	-9.49661
វីដី	-9.49661
ព្រះច័ន្ទ៖	-9.49662
ល្អី	-9.49662
សុធី	-9.49662
ឥដ្ឋលម្អ	-9.49662
ប្ដេជ្ញាចិត្ត	-9.49662
សង្វែក	-9.49662
ដងផ្លូវ	-9.49662
ក្រវ៉ាត់ក	-9.49662
៦៧៩	-9.49663
ជាសះ	-9.49672
អ្នករៀបចំ	-9.49679
អាហ្សង់	-9.49681
អ្នកអនុវត្ត	-9.49703
តួអក្សរ	-9.49738
ធម្ម	-9.49797
តស៊ូ	-9.4981
១៣១	-9.49831
តក់	-9.49855
អង្	-9.49857
ក៖	-9.49872
ហិកតា	-9.49905
ក្រពើ	-9.49914
ដឹកនាំ	-9.49922
កម្ចេច	-9.49925
ដូរ	-9.49926
គ្រូបង្ខំ	-9.49938
ហ៊ូស	-9.49951
អសកម្ម	-9.49954
ស្លាក	-9.49954
ធំមក	-9.49958
វ៉េដ	-9.49965
កោរ	-9.49965
មិត្ដ	-9.49982
ការខឹង	-9.50006
ការគេ	-9.50023
៦០០០	-9.50046
ចូលភាព	-9.5008
ប្រារព្ធ	-9.50103
៦៨៣	-9.50129
ភាព	-9.50136
ភាពខ្លាំង	-9.50205
យេ	-9.50212
២៧	-9.50216
ត្រូ	-9.50217
ទឹកចិត្ត	-9.50227
ឪ	-9.50233
សិស្ស	-9.50234
១៨៣	-9.5024
៨០០	-9.50245
លីហ្សា	-9.50246
តួនាទី	-9.50246
សម្បា	-9.50246
ហ្វីលីពីន	-9.50247
សីមា	-9.50247
ស្ទាន	-9.50247
ទំនប់	-9.50247
ជរា	-9.50248
នួន	-9.50248
ថ្ងៃចន្ទ័	-9.50254
ទន់ភ្លន់	-9.50254
ប្លែស	-9.50254
ចរន្ត	-9.50254
ចរិយា	-9.50254
ជម្រិត	-9.50254
ដឹដង	-9.50254
ត្រើយ	-9.50254
ទំនាយ	-9.50254
បច្ច័យ	-9.50254
បរិបូរ	-9.50254
បុត្រា	-9.50254
បុស្ត៍	-9.50254
បំនិន	-9.50254
ប្រត្ដ	-9.50254
ផៃ	-9.50254
ព្រលឹត	-9.50254
ភ្នែង	-9.50254
មីក្រូហ្វូន	-9.50254
មោង	-9.50254
ម៉ឺន	-9.50254
យួន	-9.50254
រុក្ខា	-9.50254
វង្វែង	-9.50254
សតវត្សរ៍	-9.50254
សន្និបាទ	-9.50254
សោភា	-9.50254
ស្បៀង	-9.50254
ស្ពែត្រូ	-9.50254
ស្រ្តី	-9.50254
ហិហិ	-9.50254
ហុន	-9.50254
ឡិច	-9.50254
ឧកញា	-9.50254
យស់	-9.50254
វរ្ម័ន	-9.50254
អាវ	-9.50254
តោន	-9.50259
សារី	-9.50259
ពណ	-9.50259
មហាជន	-9.50259
ចោរប្លន់	-9.50259
ថែរ	-9.5026
ទួទាំង	-9.5026
ឈប់ឈរ	-9.5026
យានយន្ត	-9.5026
៥៣	-9.5026
អំពុក	-9.5026
ថន	-9.5026
ប្រល័យ	-9.5026
ល្ងីល្ងើ៖	-9.5026
សួរលី	-9.5026
ដូណាត់	-9.50261
ត្រូរងចាំ	-9.50261
ព្រួញ	-9.50261
តៃវ៉ាន់	-9.50261
អូតូ	-9.50261
ជូបប្រទះ	-9.50261
សំបូរ	-9.50261
ព្រះនឹង	-9.50261
ថក	-9.50261
ដល	-9.50261
ខ្នង	-9.50262
អាការឈឺ	-9.50264
២៦៥	-9.50267
ទស	-9.50267
សុធាវី	-9.50267
១៥១	-9.50267
ដើមត	-9.5027
ចុះ	-9.50292
៣១	-9.50296
ការបង្ខំឱ្យ	-9.50334
ការដើរ	-9.50354
ការបំពុល	-9.50358
ភារៈ	-9.50364
ឦសាន្ត	-9.50372
ណាហ្ស៊ីហ្វ	-9.50372
បន្ថែម	-9.50393
កេង	-9.50396
ថែទាំ	-9.50405
▁សេចក្តី	-9.50405
រំលោភ	-9.50416
១៨០	-9.50423
នីតិ	-9.50424
សូវ	-9.5043
តម្រូវការ	-9.50443
សម្បុរ	-9.50458
រាំង	-9.50472
មប្រើ	-9.50473
១៣៨	-9.50494
គីរី	-9.50507
អូឡាំ	-9.5052
កាំង	-9.50528
ផ្លូវ	-9.50529
ការផ្ញើរ	-9.5053
យ៉ាន	-9.50532
១៩៥២	-9.50535
រេ	-9.50539
៣១៥	-9.5054
ភាពលាក់	-9.50542
គខប	-9.50557
១១០០	-9.50558
៨៣០	-9.50571
អង់ទី	-9.50574
ចាយវាយ	-9.5059
ឃ្លាន	-9.50599
នី	-9.5061
កែប	-9.50619
ការជួប	-9.50676
ជាអាទិ៍	-9.50685
១២៖	-9.50685
ចែក	-9.50714
បុក	-9.50718
ដូល្លារ	-9.50752
គិត	-9.50755
ត្រេកអរ	-9.50755
ដៃ	-9.50777
៨០០០	-9.50785
៣៧	-9.50789
ទុកដាក់	-9.508
អតីត	-9.508
សហ	-9.50809
១៦០	-9.50812
រាយ	-9.50825
ក៍	-9.50828
៣៨	-9.50828
និរទេស	-9.50839
រឹត	-9.50843
៨០៣	-9.50847
ព្យុងយ៉ា	-9.50848
និវត្ត	-9.50849
០៦០០	-9.50849
ថ្នូរ	-9.50849
ឆៃ	-9.50849
ហើរ	-9.50849
ថេត	-9.50849
ធ្ងន់	-9.50849
រួញ	-9.5085
មូរ៉ៃ	-9.5085
អេប៊ី	-9.50853
រូម	-9.50855
រូបរាង	-9.50856
ឌូហា	-9.50856
ងួន	-9.50856
ចាច់	-9.50856
ទគ្គកម្ម	-9.50856
ផ្ទប់	-9.50856
ភ្លែត	-9.50856
ម្សៅ	-9.50856
រោទ៍	-9.50856
រំងាប់	-9.50856
ស៊ន	-9.50856
អណ្តែត	-9.50856
អាណោធ	-9.50856
កុក	-9.50856
កួច	-9.50856
ខួរជា	-9.50856
ខែវិចិ្ឆ	-9.50856
ខ្លន	-9.50856
គណី	-9.50856
គំនាប	-9.50856
ដំដែក	-9.50856
ថ្ងូរ	-9.50856
ទាំំង	-9.50856
ទិន្នផល	-9.50856
ទីធ្លា	-9.50856
ទំពុន	-9.50856
និមន្ត	-9.50856
បញ្ញវន្ត	-9.50856
បន្ដឹង	-9.50856
ពន្ធុ	-9.50856
ពិស្ដារ	-9.50856
ព័ទ្ធ	-9.50856
លាយឡំ	-9.50856
លះបង	-9.50856
វាស្រ័យ	-9.50856
វិក័យប័ត្រ	-9.50856
សណ្ឋិត	-9.50856
សីុសីុ	-9.50856
សុភ័ក្ត្រ	-9.50856
ស្ដារ	-9.50856
ស្ត្រា	-9.50856
ស្មារតី	-9.50856
ហីខ	-9.50856
អាត្លង់ទិក	-9.50856
អាន់	-9.50856
ឥណ្ឌា	-9.50856
ខ្សឺត	-9.50856
លោភៈ	-9.50856
សូល៍	-9.50856
អុិន	-9.50856
ម្មង	-9.50857
ក្ដីរីករាយ	-9.50861
ប្រជាមតិ	-9.50862
ឱន	-9.50862
អោន	-9.50862
ជីវពល	-9.50862
ក្លាក	-9.50862
មេជើង	-9.50862
ចៃតោង	-9.50863
នីតិបុគ្គល	-9.50863
ក្រាម	-9.50863
គួរនាំ	-9.50863
គ្រីស្ទាន	-9.50863
ព្រះពុទ្ធរូប	-9.50863
និតីវិធី	-9.50863
មុខរបួស	-9.50863
អីុរ៉ង់	-9.50863
អ៊ីចឹង	-9.50864
បាឡែន	-9.50864
ភេរវកម្ម	-9.50866
តូប	-9.50868
តៃវ៉ាន	-9.50868
ការរត់	-9.50877
អ្នកស្រី	-9.50878
អ្នកច្បាប់	-9.50881
ការបេះ	-9.50888
អលង្ការ	-9.50892
ការលេងសើច	-9.50914
ស្រែរ	-9.50917
បែបផែន	-9.50923
ណែនាំឲ្យ	-9.50953
ការចម្រូងចម្រាស់	-9.50966
ត្រួតត្រា	-9.50997
កើត	-9.51009
យីស	-9.51039
នសល់	-9.51049
ស៊ីធី	-9.51053
ដុល្លា	-9.51077
តំ	-9.5108
រវាង	-9.51088
វ៉េ	-9.51102
៤៖	-9.51112
ផ្លាស់ទី	-9.51113
នោះ	-9.51115
មុខងារ	-9.51135
ស៊ីនឿន	-9.5114
លំហូ	-9.51143
ការចលនា	-9.51147
ក្លែង	-9.51157
ក្រាដ	-9.51158
ចាត់តាំង	-9.51175
ចង្វារ	-9.5118
ការសន្មត់	-9.51191
ការរៀបចំ	-9.51192
ស៊ើបសួ	-9.51199
ប្រមូលផ្តុំ	-9.51254
ចងក្រង	-9.51309
៨	-9.51328
២៨	-9.51367
៦៧	-9.5137
ភ្នែក	-9.51422
ពោះ	-9.51428
ទ្រព្យ	-9.51434
៦៩	-9.51435
រោង	-9.51442
ប្ញ	-9.51447
វ័ន្ត	-9.51448
សាមញ្ញ	-9.51448
ប្ដេជ្ញា	-9.51448
ចៀស	-9.51449
ម៉ាស់	-9.51449
សាកល	-9.51452
៥២	-9.51453
ផ្តួល	-9.51454
លួន	-9.51455
លួង	-9.51455
រៃ	-9.51455
រុំ	-9.51455
ហ្គិន	-9.51455
ពន្លឺ	-9.51456
សាំង	-9.51456
ចេស្តា	-9.51461
ផ្កាក	-9.51461
បង្ហាញ់	-9.51462
សន្តិវិធី	-9.51462
ការណ៌	-9.51462
គី្គ	-9.51462
គំនុំ	-9.51462
ជំវិញ	-9.51462
ពាក់់	-9.51462
រូហានី	-9.51462
សន្ធឹក	-9.51462
ស្ទាំង	-9.51462
ហេីយ	-9.51462
អណ្ដូង	-9.51462
អាក់អន់	-9.51462
អាទ៍	-9.51462
ការផ្ដាំផ្ញើ	-9.51462
កំប៉ុង	-9.51462
ក្រោន	-9.51462
ខាស្ទេន	-9.51462
ខុសឆ្គង	-9.51462
ខេត្ដ	-9.51462
ខ្ជិល	-9.51462
គីទ្បូម៉ែត្រ	-9.51462
ចម្រុះ	-9.51462
ត្រៃ	-9.51462
ថ្ងាស	-9.51462
ទន្ទ្រាន	-9.51462
ទំនស់	-9.51462
នីញ៉ា	-9.51462
បាញឲ្យ	-9.51462
បំបង្វែង	-9.51462
ផូបឺរ	-9.51462
ផោម	-9.51462
ផ្នូរ	-9.51462
មរតក	-9.51462
រីរធាតុ	-9.51462
រំលើង	-9.51462
វីរល	-9.51462
សន្ធៅ	-9.51462
សាអ៊ូឌីត	-9.51462
ស្ត្រី	-9.51462
ឡារ៉ា	-9.51462
អប្បបរមា	-9.51462
អោភៀ	-9.51462
កម្ពុជ	-9.51462
ថាច់	-9.51462
ម៉ុងហ្គោលី	-9.51462
ស្វិត	-9.51462
ហ្វីជី	-9.51462
អូសទាញ	-9.51464
តារ័ត្ន	-9.51468
ប្រហុក	-9.51468
បោះពុម្ព	-9.51468
យ៉េន	-9.51468
៦៦៦០	-9.51468
ចងក	-9.51468
ឯណា	-9.51468
ប៊ូទិច	-9.51468
គួរឲ្យ	-9.51468
កាពារ	-9.51469
ជប៉ុន៖	-9.51469
វីម៉ាន់	-9.51469
អេស៊ីព្ទ	-9.51469
អេធី	-9.51469
ជ្រក់	-9.51469
គូដ	-9.51469
អង្កាម	-9.51469
កាណាដា៖	-9.5147
អំបុក	-9.5147
ទ្រូងផ្លូវ	-9.5147
ក្រង	-9.5147
នាថ	-9.5147
ប៉ុណ្ណោះ៖	-9.5147
៣២៥៤	-9.5147
បាត់ដំបងៈ	-9.5147
ជីប	-9.5147
ម៉ែនទែន	-9.51471
អ្នកនាំ	-9.51473
តម្រូវឲ្យ	-9.51474
១៩៥៨	-9.51475
តុន៖	-9.51475
សេវ៉ា	-9.51476
ព្រឹត្តិការណ៍	-9.51477
ឃ្លាត	-9.51478
សន្ធិដ្ឋិភាព	-9.51481
រហាម	-9.51484
ថាមពល	-9.51488
ជាទូ	-9.51534
កាន់	-9.51549
ការប្រកួត	-9.51555
ចប	-9.51557
ៈ	-9.51558
ការឆ្លង	-9.51559
២០	-9.51564
ការពន្យល់	-9.51572
ការចន្លោះ	-9.51573
ខ	-9.51577
សិក្សា	-9.51593
ប្រគល់ឲ្យ	-9.51601
១៦៤	-9.51637
គារ	-9.51669
លីកា	-9.51691
យូណេស្កូ	-9.51692
១២០	-9.51693
៧៧	-9.51694
ចារ	-9.51702
បណ្តាញ	-9.51725
អូ	-9.51726
ប្រទះ	-9.51734
ទ្វេ	-9.51736
កាម៉ារី	-9.51743
បីបាច់	-9.51744
តៃ	-9.51746
ស្មា	-9.51748
ស៊ីណូ	-9.51749
វីដា	-9.51757
អេហ្គោ	-9.51761
លុះត្រាតែ	-9.51764
អតី	-9.51765
អំពើរ	-9.51775
សសៃ	-9.51804
ការជាប់	-9.51808
ស្នងការ	-9.51821
រៀបចំ	-9.51827
ពី	-9.51841
ការថយចុះ	-9.51858
គណៈ	-9.51867
១១	-9.51923
កៀប	-9.51935
ប្រមូល	-9.51936
ភារៈកិច្ច	-9.51946
ឃុំ	-9.51952
បំពុល	-9.51967
អម	-9.51974
ទ្វា	-9.51975
សៀម	-9.51984
១៦៨	-9.51985
១៩៤១	-9.5199
សាស្ត្រ	-9.51992
ហ៊ូវ	-9.52022
ផលិតភាព	-9.52023
អូស	-9.52026
ជំនួញ	-9.52026
សិទ្ធិ	-9.52027
មនុស្ស	-9.52036
កត់	-9.52038
ត៍	-9.52039
ខិត	-9.52052
មាន់	-9.52058
ច្រឡំ	-9.52059
០៦	-9.52059
សាខា	-9.52062
ស្រវឹង	-9.52065
តម្រង	-9.52065
ដួង	-9.52065
អាណិត	-9.52065
ភី	-9.52065
ថ្វីដ្បិត	-9.52065
ជំរើស	-9.52065
ខ្មេះ	-9.52066
ប័ុង	-9.52066
ប៖	-9.52067
គីស្ថាន	-9.52067
អរ	-9.52071
ចំរៀង	-9.52071
សុទ្ធសឹង	-9.52071
ខ្ទម	-9.52072
នេត	-9.52072
ចរណៃ	-9.52072
ឈឿន	-9.52072
ដំឡូង	-9.52072
ថ្នម	-9.52072
ទសវត្សរ៍	-9.52072
ទូរសព្ទ័	-9.52072
បញ្ចាល់	-9.52072
បំពង្រង	-9.52072
ប្រាស័្រយ	-9.52072
ផ្ជាប់	-9.52072
ផ្ដិច	-9.52072
ព្រិច	-9.52072
ព្រីមស៍	-9.52072
ភរិយា	-9.52072
យេីង	-9.52072
វត្តី	-9.52072
សីលំ	-9.52072
សុទ្ឋ	-9.52072
ស្តី្រ	-9.52072
ស្វឹន	-9.52072
ហ្វ៊ីលីពីន	-9.52072
អ៊ីណុក	-9.52072
អ៊ុន	-9.52072
កម្តៅ	-9.52072
ខ្វាត់	-9.52072
គីឡួ	-9.52072
ជ្រាប	-9.52072
ដិកា	-9.52072
ដ្យេ	-9.52072
ណេង	-9.52072
និន្ទេស	-9.52072
បំបុក	-9.52072
ប្រោស	-9.52072
ពាណិ	-9.52072
មាតិកា	-9.52072
រឿប	-9.52072
សណ្ថាន	-9.52072
សម្រក់	-9.52072
សឹម	-9.52072
សេតវិមាន	-9.52072
៛	-9.52072
ខេមរៈ	-9.52072
ស្លាបព្រា	-9.52072
កតោក	-9.52072
២៦៣០	-9.52073
កាស៊ី	-9.52074
សានគរ	-9.52076
វត្ដមាន	-9.52077
ដុសខាត់	-9.52077
លីបង់	-9.52078
ចំនី	-9.52078
នគរវត្ត	-9.52078
ប៉ាហ៊ី	-9.52078
បង្កហេតុ	-9.52078
ពពក	-9.52078
គូភាគី	-9.52078
ព្រិទ្ធ	-9.52078
សំឡេង	-9.52078
គ្រឿងយន្ត	-9.52079
ម៉ត់ចត់	-9.52079
ខោល	-9.52079
ម៉ារ៉ាតុង	-9.52079
ផលិតករ	-9.52079
ពីក្រោម	-9.52079
ឆាក	-9.52079
បងប្អូន	-9.52079
កូរ៉េក	-9.52079
សំភារៈ	-9.52079
គក	-9.52079
ឥឡូវនេះ	-9.52079
កាត់ថ្លៃ	-9.5208
សងសឹក	-9.5208
រដ្ឋអំណាច	-9.5208
២៤	-9.52091
អ្នកខិតខំ	-9.52092
ជំនុំនៅ	-9.52098
សង្ហា	-9.52101
ខ្	-9.5212
៣១៣៦	-9.52137
០៩	-9.52157
អាន	-9.52166
ការស្អប់	-9.52182
ខាង	-9.52188
៩	-9.52189
ការចូល	-9.52212
ពុល	-9.52231
លើកកម្ពស់	-9.5224
កជើង	-9.52283
មនា	-9.52285
អាមេរិកាំង	-9.52296
អរិយធម៌	-9.52296
ព្រះដែល	-9.52302
ព្រះ។	-9.5232
ការនាំ	-9.52323
បក	-9.52324
ឲ្យបាន	-9.5233
កំទី	-9.52333
តឹង	-9.52334
បញ្ចុះ	-9.52344
១១៨រូប	-9.52354
របាំង	-9.52364
ជាល	-9.52389
ណាក់	-9.52402
ហូម	-9.52403
អោយ	-9.52405
៣៨០ម	-9.52405
សរសេរ	-9.52409
វេ	-9.52415
ជួល	-9.52421
ខម	-9.52423
ការស្លាប់	-9.52431
ជូត	-9.5244
ទុក្ខ	-9.52443
យស	-9.52445
ការដាំ	-9.52466
សមស្រប	-9.5251
រៀន	-9.52512
ផ្តាច់	-9.5252
ព្យាយាម	-9.52521
០២	-9.5253
អ្នកចាត់	-9.52553
២៩៩	-9.52558
ផ្គត់ផ្គង់	-9.52567
វិវឌ្ឍ	-9.52574
សម្ព័ន្ធមិត្ដ	-9.52582
ជ	-9.52588
ស្ញើច	-9.52591
ពន្លឿន	-9.52592
កំពង់	-9.52603
ខឹងសម្បារ	-9.5261
សុី	-9.52614
របើក	-9.52617
ឈឺចាប់	-9.5262
បង្កា	-9.52621
ការខិតខំ	-9.52626
តួ	-9.52631
យុ	-9.52641
ក្រា	-9.52643
២២៨	-9.52647
ការឆេះ	-9.52648
ឡែន	-9.52657
បណ្តា	-9.52657
បក្ស	-9.52658
៧៨	-9.52659
ក្តី	-9.52662
សាស	-9.52668
សាំ	-9.52671
បម្រុង	-9.52672
ខ្សោយ	-9.52676
វែក	-9.52677
ក្បាច់	-9.52678
ពាំង	-9.52678
ក្តោប	-9.52678
ចប់	-9.52678
ឆ័ត្រ	-9.52678
រទេះ	-9.52678
នើ	-9.52678
ស្លឹក	-9.52678
ប្បន្ន	-9.52679
ផ្តាំ	-9.52679
ស្ដែង	-9.52679
ក្រូចឆ្មារ	-9.52679
រយន្ត	-9.5268
វោហារ	-9.5268
រ៉ាន់	-9.5268
ពួន	-9.52684
ខេម	-9.52684
ក្រវាញ	-9.52686
ចាប់ឳ	-9.52686
ញួរ	-9.52686
ដុន	-9.52686
ដំកើង	-9.52686
បំរាម	-9.52686
ប៉កស័រ	-9.52686
វិរៈ	-9.52686
វុត្ថា	-9.52686
សាយហ្គន	-9.52686
ស៊ិប	-9.52686
ស្តម្ភ	-9.52686
ស្ថាប័ន	-9.52686
អូហ៍	-9.52686
ការបទេស	-9.52686
ការបំផ្ទះ	-9.52686
ការប៉ះពាស់	-9.52686
កុមារ	-9.52686
កេះ	-9.52686
ក័	-9.52686
ក្រេម	-9.52686
ខ្លះ	-9.52686
ឃឺដ	-9.52686
ច្បាន់	-9.52686
ជាបណ្តុំ	-9.52686
ណា៎	-9.52686
តំាង	-9.52686
ធឿន	-9.52686
នឹម	-9.52686
នេាះ	-9.52686
ប៊ូអីង	-9.52686
ពុត	-9.52686
ភុវ	-9.52686
មេត្រី	-9.52686
ម៉ូស្លីម	-9.52686
រ័ក្រវាយប្រហារ	-9.52686
សេហ្គូ	-9.52686
សំណួរ	-9.52686
ស្ថានីយ៍	-9.52686
ស្នប់	-9.52686
ស្រវ៉ាំង	-9.52686
អាហ្រ្គោ	-9.52686
អ៊ីស្លាម	-9.52686
អ៊ុង	-9.52686
ឧត្ដរ	-9.52686
១៩៩៨	-9.52686
ការ៉ាវ៉ាង	-9.52686
កា្រម	-9.52686
ដមរមនា	-9.52686
បង្វេច	-9.52686
រ៉ាំរ៉ៃ	-9.52686
យុទ្ធជន	-9.5269
សាណា	-9.5269
ចំអិន	-9.52691
សារតបត	-9.52691
ព្យុះភ្លៀង	-9.52691
ម៉ីន	-9.52691
សុំឲ្យ	-9.52691
ណូន	-9.52691
ចរិក	-9.52692
ជ្រោយពេជ្រ	-9.52692
ដាក់បន្ទុក	-9.52692
ពួគេ	-9.52692
រថភ្លើង	-9.52692
គីវា	-9.52692
គេ៖	-9.52692
មេន	-9.52692
សូវ៉ាន់	-9.52692
អូស្មាន	-9.52692
អើពើ	-9.52692
១៩៨៧	-9.52692
កាលពី	-9.52692
ប្រពន្ធ័	-9.52692
ចំលើយ	-9.52692
ពិការ៖	-9.52693
សំរាមក	-9.52693
នីតិទី	-9.52693
១០៖	-9.52693
វីដេអូហ	-9.52693
សំកាំង	-9.52693
នីកូល	-9.52693
ទូង	-9.52693
ឆើតៈ	-9.52694
ចូលនេះ	-9.52694
វរជន	-9.52696
ខែកញ្ញា	-9.52698
សត្រូវ	-9.52706
អ្នកបង្ក	-9.5271
ការជាវ	-9.5271
ថវិការ	-9.52713
អ្នកប្រយុទ្ធ	-9.52713
រាវ	-9.52714
បញ្ចូល	-9.52758
ការបង្ខំ	-9.52762
គ្មាន	-9.52775
ពន្យារ	-9.52801
កូយ	-9.5281
០១	-9.52816
លួច	-9.52856
ល្អិត	-9.52858
ខាស	-9.52863
លេចធ្លោ	-9.52868
អនុម័ត	-9.52883
បង្ខិត	-9.52892
គម្រាម	-9.52897
ស្ទង់	-9.52897
អន្តរ	-9.52922
ដូ	-9.52927
ខ្នារ	-9.52929
ថ្លៃ	-9.5294
ឈ្នះ	-9.52944
ម៉ាស៊ី	-9.52948
អនុញ្ញាតិ	-9.5295
ស៊ីម៉ាក់	-9.52958
សិប្បករ	-9.52962
ខំខ	-9.52969
កាន់ត	-9.52973
កាត់ស៊ូ	-9.52982
ព្រះមាន	-9.52983
ប៊ូសនា	-9.52986
ឆាត	-9.52989
ឯ	-9.52991
វីតា	-9.52997
អូសក	-9.53006
ម្តេច	-9.53014
បញ្ជា	-9.5302
ច	-9.53062
ងារ	-9.53084
ទិវា	-9.53087
ទុក	-9.53092
យី	-9.53095
៧៥	-9.5311
៣៥	-9.53117
ការចងចាំ	-9.53138
ទត	-9.53145
រូប	-9.53178
ស៖	-9.53207
ផ្តោត	-9.53213
ប្រហារជីវិត	-9.53216
អង្គុយ	-9.53216
ជំទាស់	-9.53219
វីដេអូ	-9.53225
តួអក្ស	-9.53231
១៧៨	-9.53232
វត្តមាន	-9.53255
លុយ	-9.5326
១០៤	-9.53262
ហ	-9.53266
អី	-9.53276
សាន្ត	-9.53282
ទម្លាប់	-9.53282
អេត	-9.53285
បេក្ខ	-9.53288
វិស័យ	-9.53289
រវល់	-9.53289
ឌុប	-9.53289
ភ្ញាក់	-9.53289
ហ្សាក់	-9.53289
រដូវកាល	-9.53295
ជនរងគ្រោះ	-9.53295
បំភ័ន្ត	-9.53295
ផុល	-9.53295
ចោះ	-9.53296
ត្រចៀ	-9.53296
ជម្នះ	-9.53296
អឹម	-9.53297
កូដ	-9.53299
សួន	-9.533
ក្រែម	-9.53303
ខ្វល់	-9.53303
តុយនុយ	-9.53303
ល្អូកល្អឺន	-9.53303
សំលៀង	-9.53303
សំអឿន	-9.53303
អាធម	-9.53303
ឧទ្ទាម	-9.53303
កុហុក	-9.53303
គន្លង	-9.53303
ឃ៍	-9.53303
ច្បាប	-9.53303
ជិតស្និទ	-9.53303
ញៀត	-9.53303
ដំបែរ	-9.53303
ឌូប៉ៃ	-9.53303
តឺ	-9.53303
នីការ៉ាហ្គ័រ	-9.53303
បង្ហាប់	-9.53303
បណ្តែត	-9.53303
ផ្តៅ	-9.53303
ផ្លូវកាស៊ូ	-9.53303
ផ្សែង	-9.53303
ពាក្ស	-9.53303
ព្រីនស៍	-9.53303
មីស៊ីល	-9.53303
យ៉ត	-9.53303
យ៉ូស្ស៊ី	-9.53303
រងើម	-9.53303
រដូវស្សា	-9.53303
រដ្ឋសម្បូរសប្បាយ	-9.53303
រ៉ែ	-9.53303
វិសុទ្ធ	-9.53303
សែ្សល	-9.53303
ហិណ្ឌូ	-9.53303
អដ្ឋិ	-9.53303
អាតេវ	-9.53303
អិដ្ឋ	-9.53303
ឧបសគ្គ	-9.53303
១៩៩៧	-9.53303
ខួង	-9.53303
ជម្ពូរ	-9.53303
ឈីហ្គិន	-9.53303
ញ៉ាញ់	-9.53303
តម្រង់	-9.53303
នុ៎ះន៍	-9.53303
បរិវា	-9.53303
បុប្ផា	-9.53303
ព្រាហ្មណ៍	-9.53303
មន្រី	-9.53303
មា្នក់	-9.53303
រង្សី	-9.53303
វិភាជន៍	-9.53303
សក្ដានុពល	-9.53303
ស្គ្រីប	-9.53303
ហ្កាស	-9.53303
ហ្វេក	-9.53303
ឡូតូ	-9.53303
អចិន្ទ្រៃ	-9.53303
អាហ្វហ្កានីស្ថាន	-9.53303
ស្រទាប់	-9.53303
អសប	-9.53307
៤៦០	-9.53308
ទីប្រឹក្សា	-9.53308
ព្រះពុទ្ធិ	-9.53308
ជ្រើសយក	-9.53308
ប្រតាយ	-9.53308
សម្រាប់	-9.53308
ដិតដល់	-9.53309
ពួកគេ	-9.53309
រាប់បញ្ចូល	-9.53309
ឡូឡារ	-9.53309
សួនាំ	-9.53309
សំអាង	-9.53309
ជំរំស្ថិត	-9.53309
ទីស្នាក់ការស្ថិត	-9.53309
ទូរសាក់	-9.53309
រត់ចោល	-9.53309
ឡេមមី	-9.53309
អំប្រ៊ី	-9.53309
ចក្រី	-9.53309
ប្រិយមិត្ត	-9.53309
ពិរុទ្ធជន	-9.53309
លីគទី	-9.53309
ផ្ទៃ៖	-9.53309
មាត្រា	-9.53309
ផេង	-9.5331
សម្រុក	-9.5331
ជ័យជម្នះ	-9.5331
ថ្ងៃសុក្រ	-9.5331
ប្រជាតិ	-9.5331
១៧ៈ	-9.5331
១៩៥៧	-9.5331
លើល	-9.5331
វតក	-9.5331
ស្លែកាន់	-9.5331
ជនដៃ	-9.5331
ថ្នាក់រៀន	-9.5331
និតិវិធី	-9.5331
ខាងស្ដាំ	-9.53311
ខ្មាន់	-9.53311
ប្រាំង	-9.53311
លូមេ	-9.53311
កូដកម្ម	-9.53314
លេប	-9.53314
ក្រុមកាន់តែ	-9.53316
វ៉ាវ	-9.53316
ទ្វេរ	-9.53316
កាវ	-9.53318
ធ្វើអី្វ	-9.53335
របន្ទាប់	-9.53366
៣៦៦	-9.53374
ការបិទ	-9.53398
ការរំខាន	-9.53406
ប្រជុំ	-9.53416
ភាពថ្លៃថ្នូរ	-9.53434
ទិ	-9.53435
ចាប់ដៃ	-9.53439
កំចាត់	-9.53453
រត់ការ	-9.53466
លីវ	-9.53468
ហៀរ	-9.53477
ជជែក	-9.53481
រលប់	-9.53484
តាង	-9.53487
ធ្វើតេស្ត	-9.53533
បញ្ជូល	-9.53535
ការគិតគូ	-9.53562
សាល	-9.53567
លំដាប់	-9.53569
ជាទូក	-9.53574
រថយន្ត	-9.53583
ធានី	-9.53583
ការគេង	-9.53583
តូច	-9.5359
ធន	-9.53597
សើម	-9.536
បង្កឡើង	-9.536
ការដឹងគុណ	-9.53604
កៀស	-9.53606
ជាយូរ	-9.5361
ក្រយា	-9.53612
ចង្វាក់	-9.53614
សរ	-9.53619
ស្មាត	-9.53626
ណាន	-9.53629
ខ្សែករ	-9.53669
ការបង់	-9.53677
ព្រឹត្តិការ	-9.53681
បបទ	-9.53683
ការឆ្លើយ	-9.53684
១៣៥	-9.53703
ធ្លាយ	-9.53722
ប្រាំ	-9.53735
ហា	-9.53739
ដុះ	-9.53741
ថ្នាក់	-9.53753
អត់	-9.53779
ដ	-9.53786
ដេក	-9.53796
ប្រសិទ្ធិ	-9.53808
ពួ	-9.5382
សរសើរ	-9.53822
វាស់វែង	-9.53823
ជាមួយ	-9.53823
ក្នុ	-9.53838
អិល	-9.53858
ប្រស្នា	-9.53859
អង់កា	-9.5386
ទៀ	-9.53865
រឿង	-9.53868
ដណ្តើម	-9.53879
វែង	-9.53891
របប	-9.53896
ចង្វា	-9.53901
ង្វៀន	-9.53902
លេខ	-9.53903
ជំនឿ	-9.53903
វង្ស	-9.53904
៤៧	-9.53905
៦៨៥	-9.53905
ស៉ី	-9.53909
ដែរ	-9.53909
ប៉ុន	-9.5391
នោម	-9.5391
សំណុំ	-9.5391
ទន់	-9.5391
ក្សត្រ	-9.5391
ហុង	-9.53911
កូ	-9.53914
គណះ	-9.53916
ហឹង្សា	-9.53916
ឥលូវ	-9.53916
ឆ្មក់	-9.53916
ត្បិត	-9.53917
ម៉ារ៉ា	-9.53917
ស៊ុយ	-9.53917
ផ្សង	-9.53917
ឃុប	-9.53917
រំកិល	-9.53917
ល្ងាច	-9.53917
ម៉ត់	-9.53918
យាន្ត	-9.53918
ញាប់	-9.53918
រុន	-9.53918
ហ៊	-9.53918
ខ្ព	-9.53919
បំផ្លាញ	-9.53921
ខែង	-9.53923
ណ៍៖	-9.53924
ជឹង	-9.53924
ភុក	-9.53924
មា្ចស់	-9.53924
ម៌៖	-9.53924
យ៉ង់	-9.53924
វុទ្ធី	-9.53924
ស្អី	-9.53924
ហ៉ាង	-9.53924
ឥគិត	-9.53924
កំព្រា	-9.53924
ខេមរាតរី	-9.53924
ខះ	-9.53924
គតិយុត្ត	-9.53924
គ្រឺស័រ	-9.53924
ង្វៀង	-9.53924
ឈុំ	-9.53924
ញ៉ូយ៉ក	-9.53924
ដង្កូវ	-9.53924
តូប្រួក	-9.53924
ថុង	-9.53924
ថ្នាល់	-9.53924
ធញ្ញជាតិ	-9.53924
បុរថយន្ត	-9.53924
បំផ្លាយ	-9.53924
ប៉ែក	-9.53924
ផូង	-9.53924
ផ្គរ	-9.53924
ផ្តិត	-9.53924
ពតិ	-9.53924
ពោធិសាត់	-9.53924
ព្រហ្វែ	-9.53924
មមែ	-9.53924
ម៉ុច	-9.53924
វីរុស	-9.53924
សក្កាដា	-9.53924
សក្ដាភាព	-9.53924
សម្ផស្ស	-9.53924
សំពត់	-9.53924
ស្រ៊ីម	-9.53924
អ៊ីនធើណា	-9.53924
ក្រេន	-9.53924
ច្រឡឹង	-9.53924
តិចតួច	-9.53924
ទិត្យា	-9.53924
ធ្លាបល	-9.53924
បំប្លែង	-9.53924
ប៉ើង	-9.53924
ភឿន	-9.53924
ម៉េ្តច	-9.53924
យ៉ន់	-9.53924
រ៉ាប់រយ	-9.53924
រ៉ូម៉ាំង	-9.53924
វណ្ណី	-9.53924
ស៊ង	-9.53924
ស្ថិតិ	-9.53924
ស្ទ័រ	-9.53924
ប្រចណ្ឌ	-9.53924
ម៉ូសេ	-9.53924
មាក់	-9.53924
ក្ដីសប្បាយរីករាយ	-9.53928
សាវក	-9.53929
តេក្វាន់	-9.53929
បាត	-9.53929
ឡាំបៀរ	-9.53929
ក្ដីជូន	-9.53929
ខ្សាច់	-9.53929
ផ្លូវការជុំ	-9.53929
សាវា	-9.53929
ល្ហឹម	-9.5393
ចំបាំង	-9.5393
បន្ទប់ទឹក	-9.5393
ទក់	-9.5393
ឡើងជិះ	-9.5393
រឿងក្ដី	-9.5393
សម្អាង	-9.5393
ជូប	-9.5393
អង់ការ៉ា	-9.5393
ខេក	-9.5393
បេតុង	-9.5393
១៩៧៦	-9.5393
ខាញ	-9.5393
ជេរ	-9.53931
ពិសាច្រឡំ	-9.53931
កំពង	-9.53931
ចាវីស	-9.53931
រន្ធៈ	-9.53931
សៅរិទ្ធ	-9.53931
ចេះដឹង	-9.53931
ឆក់	-9.53931
ទាសករ	-9.53931
អន្តរធាន	-9.53931
ទាហ៊ាន	-9.53931
ភាស៊ី	-9.53931
២០១៨	-9.53931
យល់ច្រឡំ	-9.53931
បាលី	-9.53931
ត្រសរ	-9.53932
ប្ញទ្ធី	-9.53932
សៀមរាប	-9.53935
រក្សាទុកឲ្យ	-9.53937
បូករួមទាំង	-9.53937
ដោត	-9.53939
ប្រយុទ្ធ	-9.53943
ឯកសារ៖	-9.53943
២	-9.53943
សសេនីយ៍	-9.53946
បន្លាចត	-9.53947
អ្នកដ៍	-9.53948
ការគួរ	-9.53997
ការជាតិ	-9.54039
ព្រួយ	-9.54043
៣៖	-9.54062
ប្រាកដ	-9.54062
ចន	-9.54087
ទ	-9.54098
៣០០	-9.54106
ស្កេន	-9.54115
សុខទុក្ខ	-9.54131
ឆ្លើយ	-9.54132
៖	-9.54154
ស៊ូ	-9.54159
បំរើការ	-9.54162
គុយបា	-9.54165
គ្រឿង	-9.54179
វារ	-9.54187
ចាត់ទុក	-9.54193
លីត្រ	-9.54193
បន្ទាន់	-9.54193
ដំណើ	-9.54197
ទេវក	-9.5421
ស្តីទី	-9.54212
អង្ករ	-9.54216
អង្គភាព	-9.5422
មីក្រូ	-9.54225
មីចាឡាក់	-9.54229
ពោល	-9.54231
ឆែ	-9.54234
ដេី	-9.54235
សាមគ្គី	-9.54245
បេឡា	-9.54245
ឯករាជ្យ	-9.54247
ល់៖	-9.5425
ដឹងគុណ	-9.54256
បម្រាម	-9.54267
សហគមន៌	-9.54272
ហ៊ីម	-9.54274
សាបា	-9.54275
យុត្តិ	-9.54275
រថយ	-9.54281
ទីស្នាក់ការ	-9.54287
ការទុក	-9.54287
ខ្នា	-9.54298
គោល	-9.54314
១៤០	-9.54329
ការជួយ	-9.54334
ទុតិយភូម	-9.54347
យ៉ូសែប	-9.54347
បែងចែក	-9.54367
ដឹក	-9.5437
វត	-9.54415
សស	-9.54433
អនុគ្រោះ	-9.54461
កាត់ផ្តាច់	-9.54462
អាហារ	-9.54474
ស្រូប	-9.54477
ព្រះរា	-9.54486
បង្ខំឱ្យ	-9.54486
៨២	-9.54495
សន្ទនា	-9.54511
៦៥១១	-9.54518
ប្រិយ	-9.54521
ថវិកា	-9.54521
នីយ៍	-9.54527
លឹង	-9.54527
ប៉ូ	-9.54527
ម៉ានី	-9.54528
ដាច់ខាត	-9.5453
លីន	-9.54534
ទើប	-9.54534
ជំហាន	-9.54535
វិហារ	-9.54536
ស៊ីណា	-9.54539
ទម្លាក់	-9.5454
ភ្នំពេញ	-9.54541
ភោ	-9.54541
ណោះ	-9.54542
៩៤	-9.54542
ស្សន	-9.54542
ម៉ាក	-9.54542
ល្វាឯ	-9.54542
ពុះ	-9.54542
វិច	-9.54542
ស្និទ្ធ	-9.54543
ពេជ្រ	-9.54543
ការនាំយក	-9.54546
រួចរាល់	-9.54547
អំពូល	-9.54549
កណ្ណ	-9.54549
កន្រ្ទាក់	-9.54549
គ្លីនិក	-9.54549
ដំណេក	-9.54549
ទោម្នេញ	-9.54549
ន័រវែស	-9.54549
បម្រះ	-9.54549
ប្រពភពី	-9.54549
ប្រឹម	-9.54549
រ៉ូប៊ឺត	-9.54549
ស៉ើប	-9.54549
ស៊ុមី	-9.54549
ហ៊ិល្លារី	-9.54549
ហ៊ឹង	-9.54549
ឡាញ៉	-9.54549
អ្នកទំលាប់	-9.54549
ឥស្លាម	-9.54549
ឧទ្យាន	-9.54549
កុយ	-9.54549
ក្ដាប់	-9.54549
គគីរ	-9.54549
ឃ្លាំង	-9.54549
ងើប	-9.54549
ចាស្មីន	-9.54549
ឆើយ	-9.54549
ត៎	-9.54549
នារឹក	-9.54549
ន៏	-9.54549
បញ្ជ្រាប	-9.54549
បន្សាយ	-9.54549
បឺរី	-9.54549
យ៏	-9.54549
រចនាបថ	-9.54549
រ៉ូប៊ត	-9.54549
វាយតប់	-9.54549
វិមាន	-9.54549
សម្រន់	-9.54549
សូរិយា	-9.54549
សេដ្ឋវិទូ	-9.54549
ស៑ុយ	-9.54549
ស្ពាយ	-9.54549
ស្រឡៅ	-9.54549
ហុយ	-9.54549
អចលទ្រព្យ	-9.54549
អណ្ដែក	-9.54549
អាឡែហ្ស៊ី	-9.54549
អូលីវីយ៉េ	-9.54549
អូសមង	-9.54549
អេក្វាទ័រ	-9.54549
អេនឌូ	-9.54549
ឧបរណ៍	-9.54549
ចិន្តា	-9.54549
ជ៉ំ	-9.54549
ឈុន	-9.54549
ត្រុន	-9.54549
មូឌ	-9.54549
អឺរ៉ុប	-9.54552
ការដាក់ពង្រាយ	-9.54553
ខ្សែភ្លើង	-9.54554
ទាំងអត្ថប្រយោជន៍	-9.54554
ទោះលូន	-9.54554
វីណា	-9.54554
លំផាត់	-9.54555
ស្ថិតមាត់	-9.54555
ក្រាំងលាវ	-9.54555
១៩២២	-9.54555
ដេប៊ី	-9.54555
ប្រមួល	-9.54555
វត្ថា	-9.54555
ព្រះស៊ីសុវត្ថិ	-9.54555
គួច	-9.54555
ស្រេង៖	-9.54555
តាំងលម្អ	-9.54555
ពពួក	-9.54555
សិល្បៈ	-9.54555
ត្រៀមទុក	-9.54555
ផ្ទៃដី	-9.54555
ឌឹម	-9.54556
ទេន	-9.54556
ព្រះអាច	-9.54556
ក្បាច់លម្អ	-9.54556
វីរិទ្ធិ	-9.54556
ឌីម៉ង់	-9.54556
រត់ពន្ធ	-9.54556
៥៦៨	-9.54556
គគ្នា	-9.54556
ដីការថា៖	-9.54556
បេក	-9.54556
១៩៩៤	-9.54556
ខ្សឹប	-9.54556
ប៊ូយ	-9.54556
កេរ្តិ៍ខ្មាស់	-9.54556
ហុងកុង	-9.54556
ហើយក៏	-9.54556
ស៊ីប៊ី	-9.54557
ចំណែកឯ	-9.54557
នៅក្រោម	-9.54557
ព្រះនាង	-9.54557
យេរេ	-9.54557
៧៥៧	-9.54557
អ៊ីមេល	-9.54557
ម៉ោង	-9.54557
មេក្រូ	-9.54557
សុីល	-9.54557
កេរ្តិ៍ខ្មាស	-9.54557
ខាងល	-9.54557
ស៊ីវិល	-9.54557
ដឹកនាង	-9.54558
ថ្លឹងថ្លែង	-9.54558
៣៩០០	-9.5456
បន្លាស	-9.54562
១០៥	-9.54562
ទៀវ	-9.54564
សេក្តី	-9.54565
អ្នកថែទាំ	-9.54577
សេចក្តីសុខ	-9.54585
យុទ្ធនាការការទូត	-9.54588
ចាត់ការ	-9.54595
វិលត្រឡប់	-9.54597
រកស៊ី	-9.54623
ទៅក្តី	-9.54623
ទះ	-9.54664
ស្នើ	-9.54665
រី	-9.54688
បោះ	-9.54692
វះយក	-9.54703
ជាវ	-9.5472
ស្ងោរ	-9.54733
តុ	-9.54734
ដូចជា	-9.54742
ទំនើប	-9.54748
១៩៤៦	-9.54753
កម្រ	-9.54763
៧៦៨	-9.5477
វិល	-9.54777
ឡាន	-9.54777
បាស	-9.54782
ខឹង	-9.54793
ខ្លួនខ្ញុំ	-9.54801
ប៊ូ	-9.54802
ក្លូ	-9.54802
ង៖	-9.54805
គុណភាព	-9.5481
ទទឹក	-9.54817
ធូរធា	-9.54817
ប៊ិន	-9.54818
៩៦៧	-9.54822
ផាន	-9.54829
សាធារណ	-9.5483
ដាន	-9.54837
សួរ	-9.54837
គូស	-9.54841
ខាក់	-9.54844
កូឡាប	-9.54851
ពត	-9.54853
២០០៤	-9.54857
ខាល	-9.54857
បាំង	-9.5486
១៥៦	-9.54863
ស៊ីស្ទីម	-9.54866
៦២០	-9.54882
អនុ	-9.54882
២០៩	-9.54888
មាន៖	-9.54888
ហាវ	-9.54896
ឯកភាព	-9.54905
ក្រើក	-9.54907
ទទួលបាន	-9.54918
សមរភូមិ	-9.54945
៨៣៥	-9.54945
ពួយ	-9.54948
៩៩	-9.54977
សណ្តាប់	-9.54984
ព្រហ្មវិហារ	-9.5499
ជន	-9.54991
សំណើ	-9.54991
លូ	-9.54993
ហ៊ី	-9.54995
ការរួមគ្នា	-9.55008
ស្នង	-9.55031
បាន	-9.55035
រាំងស្ទះ	-9.55036
អចេតនា	-9.55036
ការចិន	-9.55053
ការស្គាល់	-9.55065
អំ	-9.5509
បំផ្ទុះ	-9.55096
យូរ	-9.55098
ស្រាត	-9.55104
សម្ភាស	-9.55116
ឆា	-9.55127
ការប្រយុទ្ធ	-9.55131
ធម៌	-9.55131
កុង	-9.55143
ចំនួន	-9.55147
បូក	-9.55148
តស៊ូរ	-9.5515
ចេះ	-9.5515
កម្រិត	-9.55153
ការដល់	-9.55154
អុកស៊ី	-9.55162
ប័ន	-9.55163
ត្រូពិច	-9.55164
ស្តែង	-9.55164
ប្អូន	-9.55164
ស័ក្តិ	-9.55164
ទូរសា	-9.55164
បង្រៀន	-9.55165
បុរ	-9.55167
១៩៦២	-9.55167
ខឹងសម្បា	-9.55168
ប្រព័ន្ធ	-9.55168
ក្រប	-9.55169
ទ្រូង	-9.55169
វែរ	-9.5517
កន្លែ	-9.5517
បញ្ជី	-9.5517
ប្រឆាំ	-9.5517
ស្យុង	-9.5517
ប្រ៊ុ	-9.55171
លិច	-9.55171
គីណាហ្វា	-9.55171
បណ្ដែត	-9.55171
ឆាប់	-9.55172
រំលេច	-9.55172
ជិះ	-9.55172
មុត	-9.55172
ត្រាស់	-9.55173
ជីវកម្ម	-9.55176
ដក់	-9.55176
ង់៖	-9.55177
សម្លរ	-9.55178
កន្ត្រាក់	-9.55178
កំពង់រោទិ៍	-9.55178
កំហូច	-9.55178
ក្រិត្យ	-9.55178
គំា	-9.55178
គ្រួច	-9.55178
ចម្បាំង	-9.55178
ចិត្រ	-9.55178
ឆ្ងាញ	-9.55178
ឆ្អិន	-9.55178
ជំនន់	-9.55178
ជំលោះ	-9.55178
ដើម្បិ	-9.55178
ដំណក	-9.55178
ណ្ធ	-9.55178
ថ្ងៃព្រហស្បត្តិ៍	-9.55178
ទង់ដែង	-9.55178
ទម្ងន់	-9.55178
ធារុណ	-9.55178
និញ	-9.55178
បង្កោង	-9.55178
ប្រសុត	-9.55178
ប្រើការបាន	-9.55178
មហេសី	-9.55178
មេគង្គ	-9.55178
មេឌៀ	-9.55178
យូដាន់	-9.55178
រចនាសម្ព័	-9.55178
រុស្សុី	-9.55178
វិន័យ	-9.55178
សូហ្វីយ៉ា	-9.55178
ស្រវាំង	-9.55178
ហ្វ្រង់ស័រ	-9.55178
អំណត់	-9.55178
អ៊ីតាលី	-9.55178
ឧបត្តម្ភ	-9.55178
ឧស្ម័ន	-9.55178
ការរបឹង	-9.55178
ក្ដុល	-9.55178
ខេត្កណ្តាល	-9.55178
គូស្នេហ៏	-9.55178
គ្រើម	-9.55178
ចលករ	-9.55178
ចំនូល	-9.55178
ឆ្នៃ	-9.55178
ដ្រេហ្គន	-9.55178
តេជោ	-9.55178
ទង្វើ	-9.55178
ធុល	-9.55178
បំលាស	-9.55178
ប្រូម៉ូសិន	-9.55178
ផ្លេច	-9.55178
ពិន្ទុ	-9.55178
ព្រាល	-9.55178
ព្រិត	-9.55178
ភារកិច្ច	-9.55178
ភិកចំនួ៤៤	-9.55178
ភូមិន្ទ	-9.55178
ភ្លាម់	-9.55178
មើស៍	-9.55178
មេីល	-9.55178
រីយ៉ូ	-9.55178
វឌ្ឍនៈ	-9.55178
សុរិន្ទ	-9.55178
ស្ថារ	-9.55178
ស្រទន់	-9.55178
ឡេះ	-9.55178
អាយុុ	-9.55178
ឱរ៉ាល់	-9.55178
កមន្សាន្ត	-9.55178
ការវា់	-9.55178
កេរ្តី៍	-9.55178
ជីរវភាព	-9.55178
ណ៏	-9.55178
ភូថង	-9.55178
សំាង	-9.55178
កាជីម៉ា	-9.55178
អយ្យការ	-9.55179
នៅជាប់	-9.55179
ស្ថិតន	-9.55183
រ៉ាដា	-9.55184
បោកបក់	-9.55184
កាកស្ករ	-9.55184
យ៉ាហ	-9.55184
តាម៉ាក់	-9.55184
ក៏ដោយ	-9.55184
ខ្សែក្រវ៉ាត់	-9.55184
តាខ្មៅ	-9.55184
សប្បុរសធម៌	-9.55184
គឹម	-9.55184
ណូលី	-9.55184
បើករណី	-9.55184
សំយ៉ាប	-9.55184
ជជាយ	-9.55184
កាំភ្លើង	-9.55185
គយគន់	-9.55185
វាយតំលៃ	-9.55185
ប៊ូតុង	-9.55185
ព្រះធម៌	-9.55185
វ៉ានី	-9.55185
ចាស់ជរា	-9.55185
ក្លូបល់	-9.55185
ជវា	-9.55185
រាជិនីយ	-9.55185
សំពត	-9.55185
កងទ័ព	-9.55185
គង់វង្ស	-9.55185
ដាក់ចូល	-9.55185
កៅស៊ូ	-9.55185
ដែក	-9.55185
ផេកៈ	-9.55185
ត្រជុំ	-9.55185
សម្រាំង	-9.55185
រីឯ	-9.55185
អូយ	-9.55186
ជីក្រែង	-9.55186
នៅមុន	-9.55186
ហ៊ីង	-9.55186
បុរសជាតិ	-9.55186
នៅពេក	-9.55186
ហាវៃ	-9.55186
មិត្ដប្រុស	-9.55186
ខល	-9.55186
តឹងរឹង	-9.55186
រូបវិទ្យា	-9.55186
បទដ្ឋាន	-9.55188
រដ្ឋប្រហារ	-9.5519
ក្វាង	-9.55191
នីស	-9.55192
ស្តីពី៖	-9.55192
ព្រីត	-9.55192
សេម	-9.55192
សេកុង	-9.55193
វ៉ត	-9.55195
ការកោះហៅ	-9.55219
ចិត្ត	-9.55225
ការលូក	-9.55275
ការបំពេញ	-9.55276
សូមឲ្យ	-9.55286
មកល	-9.553
សៅ	-9.55308
ក	-9.55348
ប្រាទ	-9.55364
សុក្រ	-9.55368
១២	-9.55378
សម័យ	-9.55389
វិធី	-9.55394
កា	-9.55411
៣២	-9.5543
បន់	-9.55451
១៩៨៥	-9.55452
ពណ៌	-9.55457
១៧៩	-9.5546
ក្រោយមក	-9.55462
ស្ស៊ី	-9.55465
កូរ៉េ	-9.55465
ច្រៀង	-9.55466
សម្តេច	-9.55466
គូទ	-9.55467
ជាទី	-9.55467
ការវិល	-9.5547
ទ្រា	-9.55472
អ៊ីស្រា	-9.55472
កប៉ាល់	-9.55475
ឌឺរ	-9.55484
រើ	-9.55487
នាគ	-9.55487
ចា	-9.55489
ការបង្ការក	-9.55495
គំរូរ	-9.55496
ខំ	-9.55499
១០	-9.55503
ច៖	-9.55519
ការច្រៀង	-9.55521
៦១០	-9.55523
សហប្រធាន	-9.55535
កេ	-9.5556
១០០០	-9.55561
ការហែរ	-9.55569
មុខ	-9.55573
ការសុំ	-9.55597
អាច	-9.55606
កើន	-9.55617
រាជានិយម	-9.55661
វិបសាយ	-9.55668
ស្វាគមន៍	-9.55695
ញុះ	-9.55702
បំពាន	-9.55703
គួរអោយ	-9.55716
ហូបចុក	-9.55721
ម៉ា	-9.55722
១៩៦	-9.55738
វិញ	-9.55744
រំលឹក	-9.55751
ប្រែ	-9.55752
សាស្រ្ត	-9.55758
ដែ	-9.55768
ឡាក់	-9.55779
មុជ	-9.5578
សោក	-9.55783
ពិការ	-9.55783
ប្រក	-9.55792
ច្រក	-9.55794
រសៀល	-9.55796
រិទ្ធិ	-9.55797
អៀ	-9.55797
កាច់	-9.55798
ប្រតិភូ	-9.55799
វីធី	-9.558
ទាប	-9.55802
លឿន	-9.55803
ប្រជាប្រីយ៍	-9.55803
និស្សិត	-9.55803
សំណព្វ	-9.55803
ក្រឹត្យ	-9.55804
ណាយ	-9.55804
រាជិនី	-9.55804
គប្បី	-9.55804
បិត	-9.55804
ជ្រៃ	-9.55804
ខ្ចី	-9.55804
ហ៊ោ	-9.55804
ដង	-9.55804
សុវណ្ណា	-9.55804
ប្រាម	-9.55809
អាយ៉ង	-9.55809
ចំលើ	-9.55809
តែសោះ	-9.5581
អគារ	-9.5581
បត្តិការ	-9.5581
ប៉ុល	-9.55811
ផល្លា	-9.55811
ពឺ	-9.55811
ពោធិ៍លង្កា	-9.55811
កាកាប	-9.55811
កំា	-9.55811
ខាប់	-9.55811
ខឹម	-9.55811
គ្រលុំ	-9.55811
ចម្បង	-9.55811
ឈន់	-9.55811
ដូចេ្នះ	-9.55811
ដេននី	-9.55811
ណូហារ៉ា	-9.55811
ត្រួស	-9.55811
ទំលាក់	-9.55811
ទ្រឹស្តី	-9.55811
ធ្ងន់ធ្ងរ	-9.55811
បាតុភូត	-9.55811
បិត្ដ	-9.55811
ប៉ុស្តិ	-9.55811
ប៊ែក	-9.55811
ប្រឹស	-9.55811
ពីរោះ	-9.55811
មន្ទិល	-9.55811
មហេន្ទ្រ	-9.55811
ម៉ូតូ	-9.55811
ម្នាក	-9.55811
យុវជន	-9.55811
យូស្តន់	-9.55811
រមែង	-9.55811
រ៉ាំង	-9.55811
សន្ទរកថា	-9.55811
សារ៉ាត់	-9.55811
ស្បថ	-9.55811
ស្បៃ	-9.55811
ស្ពៃ	-9.55811
ហឹរ	-9.55811
ឡាហ្កាដ	-9.55811
អណ្តូង	-9.55811
អាយត្តត	-9.55811
អេស្តូនី	-9.55811
អ៊ន	-9.55811
អ៊ែត	-9.55811
ឥសាន្ត	-9.55811
ខើច	-9.55811
ចម្ងាយ	-9.55811
ចំណុះ	-9.55811
ឈុត	-9.55811
ទំហំ	-9.55811
ធម័	-9.55811
ធ្នឹម	-9.55811
បំពាក់	-9.55811
ផ្តត់	-9.55811
ផ្ទា	-9.55811
ពាម	-9.55811
មែលប៊ន	-9.55811
រំលំ	-9.55811
វាក្យស៍	-9.55811
សន្លាក់	-9.55811
សម្ព័ន្ឋ	-9.55811
សំរិត	-9.55811
ស្ចិម	-9.55811
ស្ម	-9.55811
ហ្ស័ក	-9.55811
ឡូវែល	-9.55811
អាណិក	-9.55811
អឺរ៉ូ	-9.55811
អុីតាលី	-9.55811
១៩៧១	-9.55811
ផុយ	-9.55811
អើង	-9.55811
ត្របក	-9.55812
ទៀង	-9.55812
ភក្ដី	-9.55816
កក់ក្ដៅ	-9.55816
ដូនពេញ	-9.55816
តាក្វាន់	-9.55816
សូកូឡា	-9.55816
៧០០	-9.55816
ដូនតា	-9.55817
រាងរាល់	-9.55817
លង់ទឹក	-9.55817
ចេញមុខ	-9.55817
ធម្មសភា	-9.55817
ស្លាយ	-9.55817
ខ្ទិច	-9.55817
ចំឡែក	-9.55817
សិល្បករ	-9.55817
អំឡុង	-9.55817
កែរាង	-9.55817
វេន	-9.55817
អិន៖	-9.55817
កំសាក	-9.55817
ទាំងអស់៖	-9.55817
ឧហ	-9.55818
ខ្លង	-9.55818
កាពិត	-9.55818
ជនល្មើស	-9.55818
ចញ	-9.55818
ញ្ច្រក	-9.55818
សុឡាក់	-9.55818
ខ្លី	-9.55818
១៩៩៩	-9.55818
អសោចជូរ	-9.55818
អង្គប្រជុំ	-9.55818
ល្បី	-9.55818
លេខ៖	-9.55818
ដដៃ	-9.55819
ធម្មវ័ន្ត	-9.55819
ធំធេង	-9.55819
២០១១	-9.55819
១៩៩១	-9.55819
ថ្កូវ	-9.55819
ជីដែរ	-9.55819
ថ្ពង	-9.55819
គ្រឹះដ្ឋាន	-9.5582
អមិត្ត	-9.55823
លំហូរ	-9.55824
១៩៤៩	-9.55824
នានាទី	-9.55824
៦៦៧	-9.55825
ជំរំពី	-9.55825
១០២	-9.55825
ចាប់ពីរ	-9.55826
ហត	-9.55828
ការេ	-9.55831
៣៥២	-9.55832
១៥៣	-9.55844
វិបត្តិការ	-9.55856
០០២	-9.55906
ការជម្រុះ	-9.55918
ចេត	-9.55938
បង្វិល	-9.55944
សនី	-9.55949
រចូលរួម	-9.55967
ចិញ្ចឹម	-9.55977
ការចោទប្រកាន់	-9.55984
ភាពខ្វះខាត	-9.55987
ចម្អិន	-9.55991
ជ្រើសរើស	-9.55991
កម្សាន្ត	-9.55992
ផ្ដល់	-9.56006
សង្	-9.56021
ចូលចិត្ដ	-9.56025
ស្លាប់	-9.56034
សម្	-9.56046
ស្រស់	-9.56055
ព្រាត	-9.56077
ស្លែ	-9.56082
ជំងឺ	-9.56087
ណែនាំ	-9.5609
ការង់ចាំ	-9.56102
ជាវរជន	-9.56106
ទាស	-9.56113
លាំង	-9.5612
វីដេ	-9.56121
ត្រជាក់	-9.56123
សូម្បី	-9.56126
រូបថ	-9.56127
ការប្តេជ្ញាចិត្ត	-9.56135
នរ	-9.56137
តារាង	-9.56138
លូស	-9.56149
ជាលំដាប់	-9.5615
ស្ទុះ	-9.56152
៥៖	-9.56153
ឈូស	-9.56157
មមី	-9.56169
ការបំបែក	-9.56175
បុរស	-9.56207
ជំនុំជម្រះ	-9.5621
រ	-9.56213
ការរិៈគន់	-9.56234
របស់់	-9.56255
ជាជា	-9.56257
ការស៊ុត	-9.56261
គោះ	-9.5628
សមាគន៍	-9.56283
បាញ់	-9.56294
ការពង្រីក	-9.56317
អស់ចិត្ត	-9.56325
ច្បាំង	-9.5633
ចោរ	-9.56331
ដេញ	-9.5634
រំលែក	-9.5634
ស្អប់ខ្ពើម	-9.56353
ធី	-9.56369
សំបួរ	-9.56375
៣០	-9.56387
លោ	-9.56394
តំណរ	-9.56394
ស៊ា	-9.564
ជំរំ	-9.56407
ផ្លាស់	-9.56408
ព៌ណស	-9.56408
ត្រី	-9.56413
បាត់	-9.56415
សង្កេត	-9.56417
ប្រាប់	-9.56421
ស្រុក	-9.56422
ប្រាស់	-9.56422
ខាត	-9.56425
ទៀត	-9.56426
គុយ	-9.56426
៧៣	-9.56426
រចនា	-9.56431
ព្រី	-9.56433
ញ្	-9.56433
ផ្តើម	-9.56433
កង្វះ	-9.56433
តិភូ	-9.56433
រំពឹង	-9.56433
ពៅ	-9.56434
ផ្លាក	-9.56434
ហែក	-9.56434
ចៃ	-9.56434
ប្រួល	-9.56434
ពិក	-9.56434
ស្រោម	-9.56434
ទ្រង់	-9.56434
ផ្ដាច់	-9.56435
ជ្រាវ	-9.56435
ស្លង់	-9.5644
ភ្លើ	-9.5644
ស្រណោះ	-9.5644
បួន	-9.5644
ជំរាប	-9.5644
រឹប	-9.5644
អាចារ្យ	-9.56441
ឌឹ	-9.56441
អំណោយ	-9.56441
ប្រកែក	-9.56441
ជួន	-9.56441
សុភា	-9.56441
បង្ករ	-9.56442
២៤២	-9.56442
ខ្លោច	-9.56442
ក្រែន	-9.56442
ដុំ	-9.56442
ហេតុផល	-9.56446
អាសូរ	-9.56446
សហភា	-9.56447
សំរាម	-9.56447
ធនញ្ជ័យ	-9.56448
ការីប៊ីន	-9.56448
ចិញ្ច្រាំ	-9.56448
ចំណុច	-9.56448
ន័រវេស៍	-9.56448
ប៉ូលីស	-9.56448
ផោន	-9.56448
ព្រះគាថា	-9.56448
ភ្នំរលា	-9.56448
ម៉ូដែល	-9.56448
យូថូប	-9.56448
វាំង	-9.56448
វ៉ច្ឆ	-9.56448
ហិន	-9.56448
ឡុត	-9.56448
ការផ្តេីម	-9.56448
កី	-9.56448
កុំព្យូទ័រ	-9.56448
កូរ៉ូឡា	-9.56448
កំបាំងមុខ	-9.56448
ក្លែម	-9.56448
ក្ស័យ	-9.56448
ខារ៍	-9.56448
ខែពិសាខ	-9.56448
គហទំព័រ	-9.56448
គ្រញូង	-9.56448
ឃោរឃៅ	-9.56448
ចង្ហាន់	-9.56448
ចាបុី	-9.56448
ចំរុះ	-9.56448
ឆេង	-9.56448
ជញ្ជក់	-9.56448
ញែក	-9.56448
ដើយ	-9.56448
ត្មាត	-9.56448
ទីប្រជុំជន	-9.56448
ទើស	-9.56448
ធូប	-9.56448
នំា	-9.56448
បរិញ្ញាប័ត្រ	-9.56448
បរិហារិះគន់	-9.56448
ប្រតិកម្ម	-9.56448
ប្រេី	-9.56448
ផឹង	-9.56448
ពញា	-9.56448
ពោប	-9.56448
ព្រះនង្គ័ល	-9.56448
ម៉ាស៊ូត	-9.56448
ម៉ូនីកា	-9.56448
ម្ទេស	-9.56448
យេនឌ័រ	-9.56448
ល៉ា	-9.56448
ល្បាប់	-9.56448
វិដេអូ	-9.56448
វិសាមញ្ញ	-9.56448
វីរបុរស	-9.56448
សម្ញែង	-9.56448
សាម៉ុន	-9.56448
សារ៉ែន	-9.56448
សុរិន្រ្ទ	-9.56448
សូរ៉ាប	-9.56448
សំពះ	-9.56448
ស៊ល្យ	-9.56448
ស្ដើង	-9.56448
ហហហហ	-9.56448
ហីល	-9.56448
ហ្មត់ចត់	-9.56448
ហ្វឹសប៊ុក	-9.56448
អក្សរសិល្ប៍	-9.56448
អាបូូ	-9.56448
ឥណ្ឌូឆៃ	-9.56448
៧៨០ម	-9.56448
កម្រាល	-9.56448
ឃឺត	-9.56448
ជំទប់	-9.56448
ដណ្តប់	-9.56448
បង្គប់	-9.56448
បង្ហុយ	-9.56448
បូរ៉ាត	-9.56448
ប្រារព្ឋ	-9.56448
ពុំ	-9.56448
មន្ត	-9.56448
រសាត់	-9.56448
វ៉ែនតា	-9.56448
ស្វាគម៍	-9.56448
ឡាស់៖	-9.56448
ប៉ង	-9.56448
ស់៖	-9.56448
៣៥០	-9.56448
ថ្ងៃណូ	-9.56449
យុង	-9.56449
ក្រមុំ	-9.56449
ដេរ	-9.5645
ជល	-9.5645
១៨២	-9.56452
ក្ដីបារម្ភ	-9.56452
គ្រាក់	-9.56453
ប្រភេទ	-9.56453
គួរំឭក	-9.56453
សាវ៉េត	-9.56453
សឹងអស់	-9.56453
កូនក្មេង	-9.56454
ក្រិក	-9.56454
សមយុទ្ធ	-9.56454
ណាតូ	-9.56454
ទៀន	-9.56454
ឆាប	-9.56454
តិចណូ	-9.56454
ទាន់លប់	-9.56454
ធុរៈ	-9.56454
សាវតារ	-9.56454
អតិថិជន	-9.56454
ត្រឹមតែ	-9.56454
បង្កបង្កើន	-9.56454
ប៉ះពារ	-9.56454
មរក	-9.56454
ឆ្លើយតម	-9.56454
ស្នើឲ្យ	-9.56454
វ៉ាដ	-9.56454
ទ្រហ៊ោ	-9.56454
យន្ដហោះ	-9.56454
កោះស៊ូ	-9.56455
ខ្ញុំបម្រើ	-9.56455
ឈើឆ្កាង	-9.56455
ថ្ងៃសៅរ៍	-9.56455
ឃាត់ទុក	-9.56455
លើសលុប	-9.56455
មួយ៖	-9.56455
សុគន្ធា	-9.56455
អ៊ីម៉ែលៈ	-9.56455
កំណត់ត្រា	-9.56455
រួមភេទ	-9.56455
ប្រាំបួន	-9.56455
សហប៉ុស្តិ៍	-9.56455
សាកលលោក	-9.56455
អែត	-9.56455
ប្រ៊ុច	-9.56455
តួលេខ	-9.56455
ប៉ៅរ៉េ	-9.56455
ផែនទី	-9.56455
អំពើបាប	-9.56455
កាសាង	-9.56456
ជាអាទិ៍៖	-9.56456
ឈូង	-9.56456
អនុលេខា	-9.56456
សម្ពាធ	-9.56456
៥៣២	-9.56456
អនុគណៈកម្មាធិការ	-9.56456
ចាប់បញ្ចាំង	-9.56457
ដើម	-9.56458
សេវាកម្ម	-9.56459
៣០០០	-9.56459
សេចក្ដីជូនដំណឹង៖	-9.5646
ដប	-9.5646
ព្រលប់	-9.5646
អោ	-9.56461
ហូវ	-9.56462
នៅជាយ	-9.56462
សៀមរាប៖	-9.56462
យូរ៖	-9.56463
សេស	-9.56465
ដាំត	-9.56467
សមត្ថកិច្ចសង្ស័យ	-9.56468
ទៅកាន់	-9.56472
០៧៣	-9.56472
អ្នកជក់	-9.56473
៤៩	-9.56475
អ្នករបួស	-9.56476
អ្នកឯង	-9.56478
អ្នកបន្ថែម	-9.56479
អ្នកមុជទឹក	-9.5648
ព៌ណ	-9.56487
សកម្ម	-9.5652
ជំនួយ	-9.56534
ការដឹក	-9.56538
ការមើល	-9.56542
ខែស្រា	-9.56546
ការស្ទះ	-9.56549
អង្គ	-9.5655
លាយ	-9.56557
ការបៅ	-9.56562
ប្រឡង	-9.56606
បំផុស	-9.56613
សុ	-9.56613
អាល់កៃដា	-9.56632
នៅឡើ	-9.56653
ករ	-9.56664
ចាស	-9.56682
ជាៈ	-9.5669
ហោះហើរ	-9.56706
នាវ	-9.5671
សំរិទ្ធ	-9.56721
ក្នង	-9.56727
ណូរី	-9.56727
១០៦	-9.56727
បរិក្ខា	-9.56733
៤៤	-9.56738
សូម	-9.56746
លាំ	-9.56748
ភោគផល	-9.56751
តាស្រី	-9.56751
ស្មាច់	-9.56754
១៣៧	-9.56754
ការចុក	-9.56754
អេន	-9.56754
ឱក	-9.56756
ចេញពី	-9.56757
ការបន្លំ	-9.56758
ចុក	-9.56761
សព្ទ	-9.56763
ភ័យ	-9.56763
បែត	-9.5677
នារី	-9.56771
ឌឺ	-9.56777
បន	-9.56777
បញ្ជារ	-9.56784
រូបថត	-9.56784
វេទិកា	-9.56784
នាវា	-9.56789
រាជធានី	-9.56791
បំផុត	-9.56792
សក់	-9.56793
ហាប	-9.56793
ស៊ូជី	-9.56795
ស្មើរ	-9.56798
តូន	-9.56799
៨៩៥	-9.56802
ធ្វើ៖	-9.56802
១១៨	-9.56807
ត្រាំ	-9.56818
ការចរចារ	-9.56818
អក្ស	-9.5682
ចេស	-9.56822
ធ្វើឲ្យ	-9.56823
ការបង្ខំឲ្យ	-9.56829
ទួរ	-9.5683
ការជក់	-9.56838
សសរ	-9.56849
ការធ្វើឱ្យ	-9.56849
រយ	-9.56869
នា	-9.56874
ភាពល្អ	-9.56876
កាប់	-9.56897
តែង	-9.56934
សមត្ត	-9.5694
ដូមីនិក	-9.56945
យ	-9.56964
ទាស់	-9.56986
ស្រេក	-9.56987
ពឹងពាក់	-9.57
ពាក្យ	-9.57008
តូ	-9.57011
៩១១	-9.57012
ឌី	-9.57015
ឈូ	-9.57021
ថើប	-9.57027
ដ៍	-9.5703
បរ	-9.57032
ក់៖	-9.57039
ទស្សន	-9.57051
ញ៉ូ	-9.57051
ការចាប់	-9.57058
រាប	-9.57061
ភេរវ	-9.57064
វ៉	-9.57064
៤១	-9.57065
វ៉ាន់	-9.57067
សូត	-9.5707
កៅ	-9.57074
សីលធម៌	-9.57075
រុក	-9.57075
ពលករ	-9.57076
ស្ថិរភាព	-9.57076
ផ្សឹក	-9.5708
កណ្តា	-9.57081
មេរេា	-9.57081
តែម្ដ	-9.57081
នាំឲ្យ	-9.57081
ស្ន	-9.57081
យើ	-9.57081
រួន	-9.57081
ឆន្ទ	-9.57081
ឃិត	-9.57082
ថ្ងែ	-9.57082
វណ្ណា	-9.57082
គន្ធា	-9.57082
បតី	-9.57082
រិយោដី	-9.57082
គយ	-9.57082
ករុណា	-9.57082
ហប់	-9.57082
បន្ទោរបង់	-9.57082
ធឺណេត	-9.57083
ផ្កា	-9.57083
ខ្លឹម	-9.57084
សំរាប់	-9.57084
គម្រោង	-9.57085
ន៖	-9.57086
ព្រោះតែ	-9.57087
យោបល់	-9.57088
ត្រែង	-9.57088
ឧសភា	-9.57088
កំលាំ	-9.57088
មុនីវង្ស	-9.57088
លីដា	-9.57088
ពង្រឹក	-9.57089
កង់	-9.57089
កប់	-9.57089
កាំមេរ៉ា	-9.57089
ក្រាស់	-9.57089
ក្លរ៉ូហ្វម	-9.57089
ខ្ពង់ខ្ពស់	-9.57089
គភ៌	-9.57089
គ្រុប	-9.57089
ឆ្នំា	-9.57089
ជែល	-9.57089
ឈីស	-9.57089
ឈេះ	-9.57089
ឈ្លប	-9.57089
ដកស្រង	-9.57089
ដឹកម្មករ	-9.57089
ត្ថា៖	-9.57089
ទូរទស្សន៍	-9.57089
បុយ	-9.57089
បូរិទ្ធ	-9.57089
ប៊ែលហ្សិក	-9.57089
ប្រពភព	-9.57089
ផ្គង	-9.57089
ផ្ដូល	-9.57089
ផ្ដេក	-9.57089
ភារម្យ	-9.57089
លោហៈ	-9.57089
វិនាទី	-9.57089
វិមាត្រ	-9.57089
សង្វេគ	-9.57089
សាក្ស៊ី	-9.57089
សុទិន	-9.57089
សំរាល	-9.57089
សំអុល	-9.57089
ស៊ូណាមី	-9.57089
ស្ងាត់	-9.57089
ស្ថិន	-9.57089
ស្រឺត	-9.57089
ឱរាដែរ	-9.57089
ឳ្យ	-9.57089
កំប្លែង	-9.57089
កំសត់	-9.57089
ខូអិលធីឌី	-9.57089
ខ្សែកាប	-9.57089
គេហដ្ឋាន	-9.57089
ចៀន	-9.57089
ជៀន	-9.57089
ជំទង់	-9.57089
តឿ	-9.57089
ថ្នំញៀន	-9.57089
ទុរយស	-9.57089
នាវឹក	-9.57089
នីរទេស	-9.57089
បណ្តុ	-9.57089
បំណុល	-9.57089
ប្រណិប័តន៍	-9.57089
ផ្លែនណូ	-9.57089
ម៉ៃ	-9.57089
ម្យាង	-9.57089
រួចស្រេច	-9.57089
រំដួល	-9.57089
វិបត្ត	-9.57089
វិស្វកម្ម	-9.57089
សម្ភាស៍	-9.57089
សុខភារី	-9.57089
ហិរញ្ញវ	-9.57089
ហេព្រើរ	-9.57089
ហ្វូង	-9.57089
អ៊ិស្លាម	-9.57089
អ៊ីស្គែន	-9.57089
ឳឡឹក	-9.57089
ខ្លំាង	-9.57089
ជន្នាយុ	-9.57089
តម្កល់	-9.57089
ផៈយ៉ៅ	-9.57089
ព្រះឥន្ទ	-9.57089
ស្តើង	-9.57089
មេល	-9.57089
យ៖	-9.5709
នៅឯ	-9.5709
១៥៧	-9.5709
ថល	-9.57092
អាឡាំង	-9.57094
ម៉ឺងម៉ាត់	-9.57094
ក្រៅតែ	-9.57094
ចំលង	-9.57094
នគរវត្ដ	-9.57094
សៀងហៃ	-9.57094
ណាត	-9.57095
ទំនើងចិត្ត	-9.57095
ជោគជាំ	-9.57095
ខកខាន	-9.57095
ជឿរលើ	-9.57095
ជំរំទទួល	-9.57095
ប្រពន្ធ	-9.57095
ក្តីសប្បាយ	-9.57095
ដាក់ចេញ	-9.57095
បើកបង្កើត	-9.57095
មកស្តាប់	-9.57095
ដាវី	-9.57095
អាសូត	-9.57095
ទីលំនៅ	-9.57095
ទួញ	-9.57095
២០១៤	-9.57095
ជលផល	-9.57095
ខ្លូន	-9.57096
មុខរបរ	-9.57096
ថសីល	-9.57096
អត្ថបទ៖	-9.57096
ខគម្ពីរ	-9.57096
ពេជ្ជរិទ្ធ	-9.57096
រាត្រី	-9.57096
ស្លុតចិត្ត	-9.57096
អាទំនប់	-9.57096
ខ្មួល	-9.57096
ប៉ូតុង	-9.57096
ហ៊ុយ	-9.57096
គ្រែង	-9.57096
ផង៖	-9.57096
លំនឹង	-9.57096
ឯណោះ	-9.57096
ក្មេងស្រី	-9.57096
ផ្ញើល	-9.57096
ខ្នោះ	-9.57097
កា៥៤	-9.57097
ចាប់ផ្ដើម	-9.57097
មេដៃ	-9.57097
ចាប់ផ្តួល	-9.57097
នៅតស៊ូ	-9.57097
២០០១៦	-9.57101
៩៣១៤	-9.57101
ប៉ាវ	-9.57102
៣៦៧	-9.57103
រហែក	-9.57103
កែប៖	-9.57103
ជ្រីវ	-9.57104
ញ៉ូវ	-9.57104
៥០០	-9.5711
អ្នកចង់	-9.57114
អ្នកតស៊ូ	-9.57118
អ្នកជំនួញ	-9.57118
សំ	-9.57121
របួស	-9.57164
អ្នកប្រើប្រាស់	-9.57168
្តិការបច្ចេកទេស	-9.57183
ការកំទេច	-9.57186
ខ្វះ	-9.57197
ការញុះ	-9.57199
ការអាក្រាត	-9.572
អស	-9.57208
ប៉ាន់ស្មាន	-9.57214
ការដួល	-9.57218
បាន៖	-9.57251
មាស	-9.57263
សន្យា	-9.57281
។	-9.57281
ត្រាវ	-9.57296
ភិតភ័យ	-9.57323
សម្រាល	-9.57325
បាមក	-9.57361
ហាប់	-9.57362
វៀង	-9.57366
អធិការ	-9.5737
បៀ	-9.57372
ម៉ក	-9.57373
ពេជ្ជ	-9.57375
ជាដើម	-9.57375
ដឹង	-9.57377
៣១២	-9.57378
កាន់ជើង	-9.57379
ជាជាង	-9.5738
យ៉ាងណា	-9.57382
សម្បទា	-9.57383
រដ្ឋមក	-9.57383
ម៉ែ	-9.57384
ក្រូម	-9.57386
រង្គ	-9.57387
ទៃ	-9.57388
ព្រលាន	-9.57388
សើ	-9.5739
តាឡង់	-9.57392
ជាដៃគូ	-9.57395
បាប	-9.57396
ក្របី	-9.57397
មីនា	-9.57398
កគ្នា	-9.57404
យ៉ុង	-9.57404
ការលេច	-9.57408
ពិតជា	-9.5741
មេដាយ	-9.57412
ទីបំផុត	-9.57412
គង	-9.57418
អេស៊ីប	-9.57427
បឋម	-9.57427
ក្រាស	-9.57428
អ្នកណា	-9.5743
ភាពតក់	-9.57435
ម៉ាតា	-9.57442
រត់	-9.57445
វរស	-9.57446
អ៊ីម	-9.5745
ដំា	-9.57462
ជំនួស	-9.57488
ដេញថ្លៃ	-9.57504
តានតឹង	-9.57515
សេនា	-9.5752
ស្ម័គ្រចិត្ត	-9.57525
ការកម្សាន្ត	-9.57526
ការប្ដេជ្ញាចិត្ដ	-9.57552
កំ	-9.57555
៤៨	-9.57557
បែកចិត្ត	-9.57594
ការដក	-9.57594
ការសេព	-9.57607
ចន្លោះ	-9.57611
បង	-9.57614
តាម	-9.5763
បែប	-9.57636
ជន្លៀស	-9.57639
ស្គាល់	-9.5764
ជំរុញឱ្យ	-9.57645
ទំនុកបម្រុង	-9.57651
នគ	-9.5766
ស្ថានី	-9.57662
សម្ភាសន៍	-9.57681
ឡានពេទ្យ	-9.57684
ភូ	-9.57688
ត្រង់	-9.57689
មុយ	-9.57692
ការិនី	-9.57699
ការអនុវត្ត	-9.57701
ពើ	-9.57701
រដ្ឋា	-9.57707
ដូចតទៅ៖	-9.57709
១០០០០	-9.57709
ជារឿយ	-9.5771
បណ្ដា	-9.57712
សាន់	-9.57713
គតិ	-9.57714
គិរី	-9.57714
ព្រម	-9.57716
ពេក	-9.57719
កន្លែង	-9.57719
ឋាន	-9.5772
ម៉ង់	-9.5772
ប៊ុល	-9.5772
ស័ក	-9.57721
ចេញមក	-9.57725
ឈ្វេង	-9.57725
ណូអែល	-9.57725
ធេង	-9.57726
ឥឡូវ	-9.57726
វិទ្យុ	-9.57727
ហ៊ាង	-9.57727
និតី	-9.57727
ចុច	-9.57727
ចេតីយ	-9.57727
ការអះ	-9.57727
ថៅ	-9.57727
វិថី	-9.57728
ឧស្សា	-9.57728
ដេាយ	-9.57728
កល្ប	-9.57728
តួយ៉ា	-9.57732
ការ៉ូ	-9.57733
ចាម	-9.57733
ណារិទ្ធ	-9.57734
ការ៉ាស់	-9.57734
ទែម	-9.57734
ព្រេច៖	-9.57734
ស្រដៀង	-9.57734
ស្រ្តា	-9.57734
ហ្គាដិន	-9.57734
កំពិង	-9.57734
ឃួង	-9.57734
ឆ្អន់	-9.57734
ជណ្តេី	-9.57734
ជនរងះ	-9.57734
ជម្រាប	-9.57734
ទូលបង្គំ	-9.57734
ធ្យូង	-9.57734
បញ្ជល់	-9.57734
បុគ្គលិក	-9.57734
ប៉ាឡែម	-9.57734
ប៉ិច	-9.57734
ប្រ៊ែ	-9.57734
ផុន	-9.57734
ពាណិជ្ជម្ម	-9.57734
ភិច	-9.57734
រំរលោភ	-9.57734
វិបផត	-9.57734
វ៉ែត	-9.57734
សង្ហារឹម	-9.57734
សុគុន្ធ	-9.57734
ស្រៈ	-9.57734
ហ៊ិន	-9.57734
អត្ថិពល	-9.57734
អន្ទ្រង	-9.57734
អួរ	-9.57734
ការរចែក	-9.57734
គម្លាត	-9.57734
គាប់	-9.57734
គាំពារ	-9.57734
ឃិន	-9.57734
ចំណិត	-9.57734
ចំនុច	-9.57734
ឆៅ	-9.57734
ជញ្ជីង	-9.57734
ជម្រក	-9.57734
តូណី	-9.57734
ថាំ	-9.57734
ថុនា	-9.57734
ធ្លុង	-9.57734
បង្អួត	-9.57734
បញ្ចាក	-9.57734
បរិស័ទ	-9.57734
បូរី	-9.57734
ប្រតិបិត្ត	-9.57734
ព្រុច	-9.57734
ភ្លេីង	-9.57734
មូជទឹក	-9.57734
យុវសិស្ស	-9.57734
រងូ	-9.57734
រមួត	-9.57734
ល្បួង	-9.57734
វិវាទ	-9.57734
សម្ងំ	-9.57734
សម្រន	-9.57734
សិក្ខាស្ដីពី	-9.57734
សីហមុនី	-9.57734
សុក្រិដ្ឋ	-9.57734
ស្នោរ	-9.57734
ហត់នឿយ	-9.57734
ហ័ង	-9.57734
ហ្គាំ	-9.57734
ហ្វែក	-9.57734
ឡាទីន	-9.57734
ឡឺត	-9.57734
អគ្គីនី	-9.57734
អនេក	-9.57734
អាមរិក	-9.57734
ទំនាស់	-9.57734
បល្ល័ង្គ	-9.57734
មុនីរ៉េត	-9.57734
រដ្ឋកាឡី	-9.57734
អាផេល	-9.57734
ភាពចុះ	-9.57735
ធនធា	-9.57736
ប៉េងប៉ោះ	-9.57739
គណនា	-9.5774
យុទ្ធភណ្ឌ	-9.5774
គណបក្ស	-9.5774
ពពេញ	-9.5774
លំចង់	-9.5774
សំហេង	-9.5774
កំឡុង	-9.5774
ក្រឡេច	-9.5774
ទីទ័ល	-9.5774
ទួលលំនៅ	-9.5774
យកដាយ	-9.5774
របស់របរ	-9.5774
ក្រៅពី	-9.5774
ខ្សែក្រវាត់	-9.5774
រាជបុត្រ	-9.5774
ៗ៖	-9.5774
សំឡី	-9.57741
មាក់ងាយ	-9.57741
មុខវិជ្ជា	-9.57741
សំចត	-9.57741
អ៊ូច	-9.57741
កំចាយ	-9.57741
ភូមិសាស្រ្ត	-9.57741
ថ្វីត្បិតែ	-9.57741
ន័រវេស	-9.57741
មេផ្ទះ	-9.57741
ខ្ទង់	-9.57741
ធីរិទ្ធ	-9.57741
យេរ៉ូ	-9.57741
រាធានី	-9.57741
សហរ	-9.57741
ខាងមុន	-9.57741
ទីត្រេកអរ	-9.57741
ទាំងនោះ	-9.57741
ដឹកនារី	-9.57741
ត្រចៀក	-9.57741
កស្តែង	-9.57742
ឥដ្ឋការ៉ូ	-9.57742
កូ៖	-9.57742
ចូលកាប់	-9.57742
ជីទឹក	-9.57742
សម្លែង	-9.57742
អំបូរ	-9.57742
អង់សាន	-9.57742
ស៊ីហ្គេមស៍	-9.57742
និយយ	-9.57742
មីង	-9.57742
យេម៉ែន	-9.57742
ជាទូទៅ	-9.57743
ត្រូវ៖	-9.57743
រួមបញ្ចូល	-9.57743
ទាមទារកម្មសិទ្ធិ	-9.57743
រ៉ាត	-9.57744
ដើម្ប	-9.57745
២៩០	-9.57746
ពានរង្វាន់	-9.57748
ស្ទីវ	-9.57748
វាយ	-9.5775
សេសាន	-9.57751
អ្នកលើក	-9.57752
អ្នកថត	-9.57757
១១៦០	-9.57758
ការធ្វើឲ្យ	-9.57759
ធ្វើត្រាប់	-9.57766
បណ្ដាល	-9.57771
រូបភាព	-9.57778
ការប្រើ	-9.57818
ការពាក់	-9.57828
កុសុម៉ា	-9.57831
បេ៉ណាល់	-9.57831
ការសម្ងាត់	-9.57836
ស្ពឹកមុខ	-9.57838
សំអន	-9.57838
ការប្តូរ	-9.57839
តំកើន	-9.57839
ខ្លួនអ្នក	-9.5785
ការប្រកប	-9.57896
សមត្ថ	-9.57904
ការគំរាម	-9.57954
រា	-9.57961
លេង	-9.57976
សំឡាញ់	-9.57995
រាក់	-9.57998
យោល	-9.58006
ជាបន្សុទ្ធកម្ម	-9.58016
គមន៍	-9.58028
ការតាំង	-9.58035
សាខុន	-9.58041
បតេយ្យ	-9.58043
ម្រេច	-9.58049
រិទ្ធ	-9.58051
២០២២	-9.58051
ប្រឡាក់	-9.58054
ដេីម	-9.58059
ពូ	-9.58059
ែ	-9.58062
៦២៧	-9.58067
លទ្ធ	-9.58069
១៣៣	-9.5807
ចលនា	-9.58071
អូស្មាច់	-9.58072
ការទូត	-9.58079
ទីង	-9.58091
ខន	-9.58092
ហ៊ីត	-9.58093
ពង	-9.58096
ប្រជា	-9.58098
៨៧	-9.58101
ពិសេស	-9.58102
ជាបន្ទាន់	-9.58102
អន	-9.58107
តុបតែង	-9.58131
២៖	-9.58138
ការទម្រង់	-9.58139
ណាត់	-9.58185
លាស់	-9.58194
សបញ្ជាក់	-9.58201
ថ្ងៃណូអែល	-9.58205
ការសាង	-9.58219
ប្រកួត	-9.58244
សម្រាក	-9.58255
ឃ្លាំមើល	-9.58265
របាយ	-9.58267
ទូ	-9.58277
ផ្ទេរ	-9.58278
ដណ្ដើម	-9.58282
ទទួលយក	-9.58288
ពង្រីក	-9.58289
ស្មើ	-9.583
ផង	-9.58321
ល។	-9.58326
របាយការណ៍	-9.58336
ភាសា	-9.58339
ក្រុមហា	-9.5834
គី	-9.58348
ចម្លង	-9.58352
ហោះ	-9.58355
អេស៊ីលីដា	-9.58356
បន្ថយ	-9.58357
ឧក្រិដ្ឋ	-9.58358
ត្រឹម	-9.58361
រើស	-9.58364
ទីន	-9.58366
សាន	-9.58368
កាម	-9.58369
រឹទ្ធ	-9.58369
គង់	-9.5837
ឈ្លោះ	-9.58371
អាត	-9.58372
ធាត់	-9.58375
ប៊ុន	-9.58376
សេពសន្ថវ	-9.58376
រស្មី	-9.58376
ស្វ័យ	-9.58376
វ៉ាត់	-9.58377
ច្បង	-9.58377
រលួយ	-9.58377
ស្វះស្វែង	-9.58377
ស្រម	-9.58377
ឡាអេ	-9.58377
ស្ពត	-9.58377
វិច្ឆិកា	-9.58377
វ៉ាន	-9.58382
យុទ្ទជន	-9.58382
គ្រូបង្វឹក	-9.58383
ម៉ាឡេ	-9.58383
មឹន	-9.58383
រង្ស៊ី	-9.58383
សិទ៉្ធិ	-9.58383
ហ្គ្រុ	-9.58383
កង្វាល់	-9.58383
កណ្ដៀង	-9.58383
កិរិយា	-9.58383
គំនិផ្តួចផ្តើម	-9.58383
ងិត	-9.58383
ង៉ាវ	-9.58383
ចក្តិសម្រេចចិត្ត	-9.58383
ចង្កូម	-9.58383
ចៀម	-9.58383
ឆ្នុក	-9.58383
ឆ្លលង	-9.58383
ជាស្រេច	-9.58383
ដង់	-9.58383
ដំបូក	-9.58383
តួកគី	-9.58383
ថ្ងៃបដិសន្ធិ	-9.58383
ទស្សា	-9.58383
ទេចរណ៍	-9.58383
នប់	-9.58383
ប៉ុស្ដិ	-9.58383
ប្រទីប	-9.58383
ប្រយោជន៏	-9.58383
ប្លែន	-9.58383
ប្លោក	-9.58383
ផ្លុង	-9.58383
ពពួកភាវៈ	-9.58383
ពិភប	-9.58383
ពេជ្យ	-9.58383
ព្រេល	-9.58383
មិកស៊ី	-9.58383
មើម	-9.58383
ម៉ូដ	-9.58383
យុត្តិធម៍	-9.58383
រ៉ូឡែត	-9.58383
សស្រុត្ថ	-9.58383
សៀរ	-9.58383
សំរែ	-9.58383
ស្ទូឌីយូ	-9.58383
ហើល	-9.58383
អាធ័ម	-9.58383
អ៊ិក	-9.58383
ឥវ៉ាន់	-9.58383
កង្វក់	-9.58383
ការផ្ស៊ាំ	-9.58383
កាល់ម៉ែត្រ	-9.58383
ក្រឡឹង	-9.58383
ក្វាម	-9.58383
ខ្កួន	-9.58383
គីមូរ៉ា	-9.58383
គៀត	-9.58383
គៀន	-9.58383
គំហុគ	-9.58383
ឃ្លៃ	-9.58383
ចម្លើយបស់	-9.58383
ច្រត់	-9.58383
ច្រំដែល	-9.58383
ឆ្នៀត	-9.58383
ជ័រ	-9.58383
ឈ្លី	-9.58383
ញាក់	-9.58383
ញ្ខាំង	-9.58383
តូក្យូ	-9.58383
ទណ្ឌិត	-9.58383
ធុញ	-9.58383
នុះ	-9.58383
បោកប្រាស	-9.58383
ប្រ៊េស៊ីល	-9.58383
ពត៍មាន	-9.58383
ព្រះភក្ត្រ	-9.58383
មីល្លី	-9.58383
មុនី្ន	-9.58383
ម្គាន	-9.58383
រដ្ឋមន្រី្ត	-9.58383
រណប	-9.58383
ស៊ុុំ	-9.58383
ស្ទូច	-9.58383
ស្មូម	-9.58383
អាមីណូ	-9.58383
អារម្ម	-9.58383
អាស៉ីត	-9.58383
អីុតាលី	-9.58383
អូឌីយ៉ូ	-9.58383
អ៊ែរ៉ូ	-9.58383
ខូខយ	-9.58383
គម្រប់	-9.58383
ចម្ការ	-9.58383
និម្មិត	-9.58383
បីតក	-9.58383
ប្រគេន	-9.58383
ផ្អៀង	-9.58383
ភុល	-9.58383
មេរិក	-9.58383
វន្ថា	-9.58383
មាណ	-9.58384
លីគ	-9.58384
ត្រង់នេះ	-9.58384
ជនជាប់	-9.58384
មាតា	-9.58385
នៅមុខ	-9.58385
ចេញទុន	-9.58389
ភា៖	-9.58389
កំអែល	-9.58389
ខ្ជប់	-9.58389
ឯកជន	-9.58389
ប្រោះព្រំ	-9.58389
សក្ការៈបូជា	-9.58389
អារក្ស	-9.58389
អ៊ុយរ៉ាញ៉ូម	-9.58389
ចង់តែ	-9.58389
ព្រះបរម	-9.58389
សាមូរ៉ៃ	-9.58389
ប៉េហ្ស៊ី	-9.5839
ពួកវា	-9.5839
ព្រះដ៏	-9.5839
សួយ	-9.5839
អាលី	-9.5839
ថាមវន្ត	-9.5839
រាំងស្ងួត	-9.5839
ព្រលែង	-9.5839
ល្វាឯម	-9.5839
សុគន្ធ	-9.5839
១៧១០	-9.5839
គួរសង្ស័យ	-9.5839
ហង់រី	-9.5839
ផ្កាយ	-9.5839
ព្រុំ	-9.58391
ខេមរា	-9.58391
នាក	-9.58391
ពេលហោរា	-9.58391
ការដាក់ទុន	-9.58391
ឆែក	-9.58391
ត្រូវតែ	-9.58391
នៅរស់	-9.58391
យីឌុប	-9.58391
មារ	-9.58391
សម្ពន្ធ័	-9.58391
ក្រចក	-9.58391
ប្រគំសម្ដែង	-9.58391
ជីបាន	-9.58392
ពិធីកម្ម	-9.58393
នៅនឹង	-9.58393
តូរដ្ឋ	-9.58393
ប្រតិភូកម្ម	-9.58394
ស្រាប	-9.58395
១៥៤	-9.58397
លេស	-9.58397
៦៧៥	-9.58398
មេរេាគ	-9.58399
ស្គី	-9.58399
ទ្រាំង	-9.58399
អើត	-9.584
ការបង្ហោះ	-9.58401
តតាំង	-9.58406
អ្នកម្តាយ	-9.58407
សរអា	-9.58409
អ្នកជូយ	-9.5841
អ្នកត្បាញ	-9.58411
អ្នកស្តាប់	-9.58411
១៥៣២	-9.58417
ធ្វើឡើង	-9.58421
រាជសម្បត្តិ	-9.58422
សង្ស័យ	-9.58424
មេផលិត	-9.58424
ការមាន	-9.58424
សន្តិវង្សា	-9.58455
លំហែរ	-9.58466
សម្រិត	-9.58467
ការជួបជុំ	-9.58477
ការឃាត់	-9.5848
ការសើរ	-9.58484
ការយឺតយ៉ាវ	-9.58486
ពាក់ព័ន្ធ	-9.58489
ការស៊ុំ	-9.5849
នាំ	-9.58492
ការចែចង់	-9.58493
ឫ	-9.58497
រាជ	-9.58498
ព	-9.5851
ឯករាជ	-9.58513
ជ្រើស	-9.58541
១១៤៩	-9.58548
បកស្រាយ	-9.58553
បង្កាត់	-9.58556
ប្រមូលផ្ដុំ	-9.58564
ប្រកាស	-9.58568
ទាត់	-9.58578
ថ្ងៃ	-9.58586
ការធានា	-9.58588
ភាក	-9.58591
ក្រុមកាន់	-9.58595
ប៉ះ	-9.58599
រិៈគន់	-9.58602
វៀត	-9.58604
រឹតត្បិត	-9.58622
ទូត	-9.58623
១៨១៤	-9.58623
ប្រញ៉ាប់	-9.58627
លេ	-9.58633
បញ្ចេញ	-9.58639
មន្ទីរ	-9.58639
ទោះបី	-9.58657
ថ្លា	-9.58669
លាចាក	-9.58672
ថ្វីត្បិត	-9.58677
ខែម	-9.5868
ថាន	-9.58685
ឃាតករ	-9.58688
ហរ័	-9.5869
ផលិត	-9.58696
គួរ	-9.58698
៥៤៣	-9.58699
ផងដែ	-9.58701
ត្រលប់	-9.58703
ម្ដង	-9.58705
ត្រឹមត្រូវ	-9.58708
នេះ៖	-9.58709
ជីវ	-9.58713
០៤	-9.58727
សត	-9.5873
ពិភព	-9.58735
ទៅដល់	-9.58752
កម្មការ	-9.58756
ការបង្ការ	-9.58756
ដូច	-9.58765
លាក់	-9.58769
ការយល់	-9.58774
ដីកា	-9.58797
ការប្រកាស	-9.58811
ធានា	-9.58819
ការទាត់	-9.5882
គ្រោង	-9.58825
២១	-9.58833
ស្តាប់	-9.5885
បង្ហាត់	-9.58895
ដើរ	-9.58899
ឫសគល់	-9.58909
លា	-9.58911
ស្អប់	-9.58919
សំអាត	-9.58922
កាត់បន្ថយ	-9.58932
ស្ពឹក	-9.58936
សំខាន់	-9.58937
បដិសណ្ឋារៈ	-9.5895
ពិត	-9.58953
ណូ	-9.58962
សំបក	-9.58989
៧២	-9.58993
ឈើ	-9.59001
រងរបួស	-9.59002
ទាន់	-9.59003
ច្រើន	-9.59007
រលាយ	-9.59008
លំនៅ	-9.59014
ឡេលាយ	-9.59015
គូរ	-9.59015
ព្រេង	-9.59016
ឧត្ដម	-9.59016
បល់	-9.59017
ស្រួល	-9.59017
ពង្រាយ	-9.59021
ជ្រី	-9.59022
ផ្តុំ	-9.59023
ហ្ស៊ិក	-9.59024
លិខិត	-9.59025
ប្រមាណ	-9.59029
មមាញឹក	-9.59029
ដូច្នេះ	-9.59029
រុងរឿង	-9.59029
លក្ខណះ	-9.59029
បន្សល់	-9.5903
ឆ្ងាញ់	-9.5903
ជែក	-9.5903
ស៊ុង	-9.5903
ឃុំឃាំង	-9.5903
លោះ	-9.5903
ពិសី	-9.5903
បណ្តោះ	-9.5903
ក្រោះ	-9.5903
សឹង្ហ	-9.5903
ខ្មៅ	-9.59031
ជ្រៅ	-9.59031
យ៉េ	-9.59031
អាយុ	-9.59031
សារភាព	-9.59036
ជារៀង	-9.59036
លីប៊ី	-9.59036
សម្គាល់	-9.59036
ឧស្សាហកម្ម	-9.59037
គំនូស	-9.59037
ឆ្កែ	-9.59037
ជេដ្ឋ	-9.59037
ថ្វីបើ	-9.59037
ធុញទ្រាន់	-9.59037
នរិន្ទ្រន៍	-9.59037
បង្អួច	-9.59037
បង្អែក	-9.59037
បណ្ឌិត្យ	-9.59037
ផ្ដើុម	-9.59037
ភ្ជាក់	-9.59037
មច្ឆា	-9.59037
មុឹង	-9.59037
សន្និសិទ្ធិ	-9.59037
សម័កាល	-9.59037
សំងួត	-9.59037
សំឡាប់	-9.59037
ស៊ូឌាន	-9.59037
ឡាក	-9.59037
អក	-9.59037
អរម៉ូន	-9.59037
អីុរ៉ាក់	-9.59037
អេឡូឌី	-9.59037
កាល់ស្យូម	-9.59037
កាស្យា	-9.59037
កុះករ	-9.59037
កោដិ	-9.59037
ក្រខ្វក់	-9.59037
ខូយ	-9.59037
ខ័ន្ទ	-9.59037
ខ្មាញ	-9.59037
គំហុក	-9.59037
ចេតិយ	-9.59037
ឆ្ងល់	-9.59037
ជុន	-9.59037
ដូច្នោះ	-9.59037
ដំណក់	-9.59037
តណ្ហា	-9.59037
តំកើង	-9.59037
ត្មះ	-9.59037
ត្រល់	-9.59037
ត្លុក	-9.59037
ត្អូញ	-9.59037
ត្អូញត្អែរ	-9.59037
ទន់ជ្រាយ	-9.59037
ទារិកា	-9.59037
ទិតៀន	-9.59037
និកាយ	-9.59037
នំបញ្ចុក	-9.59037
បង្អង់	-9.59037
បនែ្ថម	-9.59037
បរិញ្ញាបត្រ	-9.59037
បិជ	-9.59037
ប៊ុត	-9.59037
ប្តឹង	-9.59037
ព័ត៍មាន	-9.59037
ព្រះទ័យ	-9.59037
រញ៉េរញ៉ៃ	-9.59037
រិះរក	-9.59037
រុស្ស៊ី	-9.59037
រំពេច	-9.59037
ល្ងើ	-9.59037
វ៉ាយរីង	-9.59037
វ័យ	-9.59037
សង្រ្គាម	-9.59037
សារាចរ	-9.59037
សាឡាត់	-9.59037
ស៊ិន	-9.59037
ស៊ុប	-9.59037
ស្រមើ	-9.59037
ស្លូវ៉ាគី	-9.59037
ឡៅ	-9.59037
អណោច	-9.59037
អាត់	-9.59037
ឩបាយកល	-9.59037
ចូរ	-9.59037
ចូវ	-9.59037
ជំនុំជ្រះ	-9.59037
ឈ័ង	-9.59037
ដិន	-9.59037
បន្ដួច	-9.59037
ពាលី	-9.59037
ម៉ាទ្បេ	-9.59037
ម៉ឹង	-9.59037
សម្ពោធ	-9.59037
សារិកា	-9.59037
ស្ទាវ	-9.59037
ឧកញ៉ា	-9.59037
ង្ក្រ	-9.59037
ថែមទាំ	-9.59037
អទិភាព	-9.59037
ទីស្តីការ	-9.59037
វាល	-9.59037
សូម៉ា	-9.59037
បន្លាច	-9.59039
វិទ្យាស្ថាន	-9.5904
ក្ដីសង្ឈឹម	-9.59041
អាស	-9.59041
ទទួឡ	-9.59042
ខែកុម្ភះ	-9.59042
ដោន	-9.59042
ខិតខំយក	-9.59043
បង់ឱ្យ	-9.59043
ប៉ប្រក់	-9.59043
ផ្គើន	-9.59043
អាត្រា	-9.59043
ច្របាច់	-9.59043
ខែសីហា	-9.59043
ណាជីប	-9.59043
មកច្នៃ	-9.59043
សាប៊ូ	-9.59043
ខែតុលា	-9.59043
ថ្ងៃចន្ទ	-9.59043
កំពង់ស៊ឺមី	-9.59044
ឃ្លំាង	-9.59044
សែម	-9.59044
អាយ	-9.59044
ចេក	-9.59044
ឆាក់	-9.59044
យូរ៉ូ	-9.59044
វីអូអេ	-9.59044
ពិសារ	-9.59044
យុត្តិធ	-9.59044
អ្នង	-9.59044
ការបង្ក	-9.59044
ដើរលេង	-9.59044
បង្កក	-9.59044
បក្សពួក	-9.59044
ស្វាយលើ	-9.59044
បេយ	-9.59044
ម៉ាហ្ស៊ិក	-9.59044
កំពិត	-9.59044
ភាសា៖	-9.59044
ម្នាក់ឯង	-9.59044
ផ្ទៃក្រឡា	-9.59044
កាប៊ុល	-9.59044
ឃុបឃិត	-9.59044
ដើរតួ	-9.59044
ភេរវជន	-9.59044
ជីវ៉ៃ	-9.59044
អាល័យ	-9.59044
ទម្លាប់៖	-9.59045
យាង	-9.59045
យូមែន	-9.59045
ឯទៀត	-9.59045
ឆ្ពោះទៅ	-9.59045
ម៉ោ៥៖	-9.59045
អូលីវ	-9.59045
កូរ	-9.59045
ស្ទឹងត្រង់	-9.59045
វ៉េង	-9.59045
អ៊ីស្លង់	-9.59045
កម្មសិក្សា	-9.59048
ឯកតា	-9.59049
ខ្លោងទ្វារ	-9.59049
ស្រុស	-9.59049
សែប	-9.59049
អចល័ត	-9.59049
១៩០៨	-9.5905
១៩៥៦	-9.5905
សេដា	-9.59051
ត្រូវការចង់	-9.59052
ជាបទ	-9.59052
ជាមុន	-9.59052
៧២៩	-9.59052
១២២	-9.59055
អ្នកក្រៅ	-9.59058
ភាពរឹង	-9.59069
ត្រូវការ	-9.59069
ធ្វើជូន	-9.59069
ក្	-9.5907
រនាម	-9.5908
ការមក	-9.59085
តាំង	-9.5909
១៩៦៧	-9.59098
២០០០	-9.59108
២៨១	-9.59108
ស្ថានីយ	-9.59109
ស្រស់បំព្រង	-9.59117
ការរង	-9.59123
ម៊ែរកិល	-9.59125
ការឃុំ	-9.59143
ការអត់	-9.59157
ការសង	-9.59159
អាម៉ាប៉ា	-9.59162
ក្តីកង្វល់	-9.59171
២១៨	-9.592
ញ	-9.59218
៦២	-9.59233
កោសលុប	-9.59238
សម្រេច	-9.59241
ប្រហាល	-9.59248
រុករក	-9.59258
កម្សាន្ដ	-9.59269
រគាំង	-9.59272
លឹម	-9.59276
ព្	-9.59278
ដំណើរការអនុញ្ញាត	-9.5928
បេ	-9.59281
កម្មសិទ្ធ	-9.59282
១៩	-9.59289
ជាធម្មតា	-9.5929
កោ	-9.59292
យា	-9.59298
តម្លើង	-9.59311
រដ្ឋសភា	-9.59312
សេនីយ៍	-9.59319
រលីង	-9.5932
នាទី	-9.59322
រស់រវើក	-9.59327
កៀរ	-9.59333
ស្វែង	-9.59334
អធិ	-9.59335
ច្របល់	-9.59342
ពោលគឺ	-9.59349
៦០០	-9.59351
ថ្ងៃអង្គារ	-9.59351
១១៩	-9.59353
សម្ពន្ធភាព	-9.59356
ស្លាកស្នាម	-9.59356
រកា	-9.59359
សើច	-9.59359
ព្ទ	-9.59371
១២៧	-9.59377
សុខា	-9.59385
លៀ	-9.59386
នឿន	-9.59386
២៥១០	-9.59386
៦៨០	-9.59393
ចរ	-9.59393
សខា	-9.59395
៦	-9.59404
១៩៨០	-9.59407
ការប្រុងប្រយ័ត្ន	-9.59408
ការប្រឹក្សា	-9.59418
ចំការ	-9.59425
សាប	-9.59434
ក្តីរំភើប	-9.59443
ទេសភាព	-9.59445
ការឲ្យដឹង	-9.5945
ភ័យខ្លាច	-9.59452
៥២០	-9.59482
សៃ	-9.59484
ការថែទាំ	-9.59499
ការផ្តល់	-9.59507
សវ	-9.5951
២០១៥	-9.59532
ការប្រកាន់	-9.5954
ក្បាល	-9.59553
៣១៣	-9.59559
ស្ទះ	-9.59569
វី	-9.59582
បួស	-9.59584
បំភ្លឺ	-9.59586
ការង	-9.59588
រឹបអូស	-9.59597
ចាប់អារម្មណ៍	-9.59605
តទល់	-9.5961
គូ	-9.59615
ក៏	-9.59631
ជំនុំ	-9.59637
ខុនដូរ	-9.59639
កម្មសិទ្ធិ	-9.59657
មវន្ត	-9.59658
កាំ	-9.59659
ពន្ធ	-9.5966
មេត្តា	-9.59662
ប្រវត្តិ	-9.59663
១៨	-9.59664
ហាក	-9.59666
ទ្	-9.59667
កែវ	-9.59668
បាច់	-9.59671
ហូរហៀរ	-9.59673
សង់	-9.59673
ធឺណែត	-9.59675
សង្ហារ	-9.59678
អំណាច	-9.59678
៤២២	-9.59679
ម៉ិច	-9.59679
ចឹង	-9.5968
ពស់	-9.5968
ប្ដូរ	-9.5968
ខាន់	-9.59681
គាល់	-9.59681
ញាំ	-9.59681
ចរាចរ	-9.59681
ចំណេះ	-9.59681
ហៃ	-9.59682
សក្ការៈ	-9.59682
ផុត	-9.59682
ឯកទេស	-9.59684
ខក	-9.59686
ភ្លាត់	-9.59686
ផ្ដើម	-9.59687
ចិញ្ចើម	-9.59687
ការផ្តេក	-9.59687
រដ្ឋាភិ	-9.59687
រុក្ខ	-9.59687
សោភ័ណ្ឌ	-9.59687
ឆ្ពោះ	-9.59687
ប៉ុស្តិ៍	-9.59687
សម្រុង	-9.59687
ស្រក	-9.59687
ខួរក្បាល	-9.59687
ណឹង	-9.59687
ឆ្វេង	-9.59688
ភាគី	-9.59688
ស្ដាយ	-9.59688
ភ្នាក់ងារ	-9.59688
អនាធិ	-9.59688
កុងតឺន័រ	-9.59688
ភាពវឹកវរ	-9.59688
រះ	-9.59688
ប៉ុន្តែ	-9.59688
កម្ទេច	-9.59688
យមរាជ	-9.59688
យាយ	-9.59688
ឥន្ទ្រ	-9.59688
សិង្ហ	-9.59688
អាម្មណ៍	-9.59689
ស្ទើរ	-9.59689
បរទេ	-9.59689
ភាពយន្ត	-9.59689
៤៣២	-9.59689
ការពន្យា	-9.59693
ពួកគាត់	-9.59694
ទុយោ	-9.59695
នុត	-9.59695
នេស៊ី	-9.59695
មវ័ន្	-9.59695
ម៊ឺន	-9.59695
ស្ទឹងត្រែ	-9.59695
កង្វល	-9.59695
កត្តិ	-9.59695
កេរ្ត៏	-9.59695
កំញម	-9.59695
ក០១៩ារ	-9.59695
ខ្យង	-9.59695
ខ្លាញ់	-9.59695
គៀរ	-9.59695
ចចារត	-9.59695
ចម្ងល់	-9.59695
ចំរាស់	-9.59695
ជម្ងឺ	-9.59695
ជីនៀ	-9.59695
ជីប៊ូទី	-9.59695
តារ៉ូត	-9.59695
ទំនោរ	-9.59695
នញ្ច	-9.59695
ប៉ារីស	-9.59695
ប្រជាមានិត	-9.59695
ប្រតិទិន	-9.59695
ប្រូស្តាត	-9.59695
ផែកដី	-9.59695
ផ្ចិត	-9.59695
ពង្សាវ	-9.59695
ពួកចាម្យ	-9.59695
ពោធ៍	-9.59695
ភិស្នុ	-9.59695
ភីណាង	-9.59695
ភ័ស្តុតាង	-9.59695
ម៉ូស្លិម	-9.59695
ម្តងម្កាល	-9.59695
យិន	-9.59695
យៀន	-9.59695
លម្ហែ	-9.59695
វិញ្ញាណ	-9.59695
វិញ្ញាប័ណ្ណ	-9.59695
សច្ចំ	-9.59695
សន្លប់	-9.59695
សម្ងួត	-9.59695
សុរាម្រឹត	-9.59695
សូហ្វ	-9.59695
សេដ្ឋា	-9.59695
សំបើម	-9.59695
ស្ដោះ	-9.59695
ស្តេច	-9.59695
ហ្វូលឺ	-9.59695
អតិបរមា	-9.59695
អន្ដរាយ	-9.59695
អាការះ	-9.59695
អាក្វ	-9.59695
អាជីកម្ម	-9.59695
កំប៉េះ	-9.59695
ខែកមរា	-9.59695
គាត	-9.59695
ឃោឃៅ	-9.59695
ច្រាំង	-9.59695
ជីវភាពធូធា	-9.59695
ឈឹង	-9.59695
ឈៀង	-9.59695
ណ័រ	-9.59695
ទើត្រឹម	-9.59695
ទំាង	-9.59695
ធុរេន	-9.59695
បណ្ឌិតា	-9.59695
បទបញ្ញត្តិ	-9.59695
បរមាណូ	-9.59695
ប៉ូលីស្ត	-9.59695
ប្រតប់	-9.59695
ផ្ងារ	-9.59695
ពន្លូត	-9.59695
ព្រះពិធូរ	-9.59695
ភ្ជង់	-9.59695
ភ្លក់	-9.59695
មុល	-9.59695
មូស្លីម	-9.59695
មេមត់	-9.59695
រដ្ធ	-9.59695
រន្ទះ	-9.59695
រាម្មា	-9.59695
រុញ	-9.59695
សន្ទុក	-9.59695
សម្ដី	-9.59695
សាប់	-9.59695
សឺន	-9.59695
សូលីម៉ាន់	-9.59695
សំនៀង	-9.59695
សំនេរ	-9.59695
ហុល្លង់	-9.59695
ហេរ៉ូឌ	-9.59695
ហ៊ីល្លីរី	-9.59695
ហ្គ័រ	-9.59695
អភ័ព្ធ	-9.59695
អាថឺ	-9.59695
អាមេរិច	-9.59695
អូប៉ាម៉ា៖	-9.59695
អូស្ការ	-9.59695
អួង	-9.59695
អ៉ិន	-9.59695
អ៊ិនធឺណិត	-9.59695
៥៥	-9.59695
ខ្មោច	-9.59695
ញ៉ុង	-9.59695
ម៉ូស្គូ	-9.59695
ម្ខាង	-9.59695
យជ្ញវ	-9.59695
រំលង	-9.59695
ស្ដង់	-9.59695
ព្រះសង្ឃ	-9.59695
រែរ	-9.59695
ហ្វាយ	-9.59695
កងពល	-9.59695
ប្រសាស	-9.59696
បីដូច	-9.59696
ក្ដៅ	-9.59696
ទៅនឹង	-9.59696
កាង	-9.59697
ផេក	-9.59698
រៀបអាពាហ៍ពិពាហ៍	-9.59699
ប្រធាតុ	-9.597
ក្ដីសង្ឃឹម	-9.597
ក្រុមហ៊ុន	-9.597
ព្រះនេត្រ	-9.597
ម៉ាណែត	-9.597
ហូរហែរ	-9.597
ធាន	-9.59701
រាំរ៉ៃ	-9.59701
មូលធន	-9.59701
ខែធ្នូ	-9.59701
បេន	-9.59701
ស្រាបៀរ	-9.59701
ខ្លោចផ្សា	-9.59701
តំណ៖	-9.59701
គ្រាំទ្រ	-9.59701
ដាដ	-9.59701
ច្បាស់លា	-9.59701
យីហោ	-9.59701
ព្រះភ្លើង	-9.59702
ម៉ារិន	-9.59702
សមធម៌	-9.59702
អូន	-9.59702
ចំការចន្ទី	-9.59702
ទើបតែ	-9.59702
ប៉េអឹម	-9.59702
ទទូល	-9.59702
អាម៉ាស់	-9.59702
ទឹកខ្មេះ	-9.59702
កំបីជរា	-9.59702
គូសន្ទនា	-9.59702
ផ្ទៃពោះ	-9.59702
ពន្ធ័ករណី	-9.59702
សម្លេង	-9.59702
បន្សល់ទុក	-9.59702
ទុក្ខសោក	-9.59702
សង្ខាង	-9.59702
សំណើច	-9.59702
ឧបករ	-9.59702
តង់ស្យុង	-9.59703
តំពោះ	-9.59703
បេល	-9.59703
មុននឹង	-9.59703
បានជាប់	-9.59703
ខ្លែង	-9.59703
វែរកិន	-9.59703
ទឹកស៊ី	-9.59704
ស៊ីឡាក់	-9.59704
ទាល	-9.59704
កម្មករ	-9.59706
ចារកម្ម	-9.59706
នាយកដ្ឋាន	-9.59707
ត្រាស	-9.59707
វៀតណាម	-9.59707
៤០៨	-9.59708
១៩៦០	-9.59708
មើលទៅកាន់	-9.5971
អធិបតេយ្យ	-9.59712
អ្នកអស់	-9.59717
អ្នកដឹង	-9.59722
ឃាត់ខ្លួនអ្នកលក់	-9.59723
កិច្ចពិភាក្សា	-9.59725
រងា	-9.59729
កិច្ចសន្យា	-9.59731
លាយល័ក្ខ	-9.59732
សៀមរា	-9.59734
ធិបតី	-9.59738
អ្នកបើកបរ	-9.59742
លូរ	-9.59763
អធិស្ឋាន	-9.59771
អាជីវកម្ម	-9.59772
នៅឡើយ	-9.59776
ជោគវាសនា	-9.59781
ការជៀស	-9.59792
ការរាប់	-9.59797
ការសម្តែង	-9.59801
ការអត់ធ្មត់	-9.59803
ការបំភ្លឺ	-9.59804
ការបាញ់	-9.5981
ការបំផ្លាញ	-9.59822
ការច្បាម	-9.59827
ខែភទ្របទ	-9.5984
គួអោយ	-9.59847
ព្រះលាន	-9.59847
បង្ហាញ	-9.59855
៥	-9.59857
ចលាចល	-9.59861
ការញ័រ	-9.59865
បើ	-9.59867
មហិច្ឆតា	-9.59876
សេចក្ដីដូច	-9.59887
ភ្ជាប់	-9.59888
៣៨០	-9.59891
អះអាង	-9.59894
ចិត្ដ	-9.59896
លេខាធិការដ្ឋាន	-9.59906
ត្បៀតទង	-9.59914
ធ្លុះផ្សាយ	-9.59914
ទូរស័ព្ទ	-9.59915
ខុសគ្នា	-9.59936
ល្	-9.59938
ការឧបត្ថម្ភ	-9.59938
គោរព	-9.59942
ថ្លើម	-9.59956
នីតិសាស្ដ្រ	-9.59956
សំណេះ	-9.59957
ព្រមយក	-9.59962
ប្រសើរ	-9.59962
ការផ្ដល់ឲ្យ	-9.59963
០០១	-9.59964
០០២៤	-9.59966
៣៦៥២	-9.5997
តុង	-9.59974
អ្នកវិញ	-9.59976
អ្នករៀន	-9.59977
ពងទឹក	-9.59978
សែ	-9.59979
ធាក់ស៊ី	-9.59981
បាយ	-9.59988
រលូន	-9.5999
៣៤	-9.5999
៩៥	-9.59992
ទំនង	-9.59993
លេី	-9.59997
គែ	-9.59998
វេល	-9.59999
៧៩៣	-9.60001
ទប់ទឹក	-9.60002
សុទិដ្ឋ	-9.60004
ជើងទឹក	-9.60008
សមាជី	-9.6001
ទារ	-9.60022
ណាចិត្ត	-9.60022
អង្គរវត្ត	-9.60028
ចុះលើ	-9.60029
៣៤០០	-9.60029
រ៉េប	-9.6003
ទិស	-9.60032
សូម្បីតែ	-9.60034
ហូវ៉ៃ	-9.60046
ដារង្គ	-9.60049
បែរជា	-9.6005
ក៏អោយ	-9.60051
រង់ចាំ	-9.60053
ស៊ីម	-9.60055
ព្រះមហា	-9.60061
អ្នកជំងឺ	-9.60069
ហាហា	-9.6007
តឡាន	-9.60091
សិទ្ធ	-9.60103
គំរាម	-9.6012
ជាប្រចាំ	-9.60146
ការល្អិត	-9.60171
ការអប់រំ	-9.60172
ការស្និទ្ធស្នាល	-9.60196
ជួញដូរ	-9.60196
ផ្តល់	-9.60205
ស្នើរ	-9.60205
ពញ្ញាក់	-9.60211
គណៈប្រ	-9.60214
បំពេញ	-9.60215
ជៀស	-9.60231
ពន្យល់	-9.60238
យក	-9.60246
ការគោរព	-9.60247
វីឡា	-9.60249
ទាំង	-9.6025
ឆ្លាក់	-9.60263
ការល្មើស	-9.60264
កាប់បំផ្លាញ	-9.60269
ការក្លាយជា	-9.60272
នាម	-9.60288
អើ	-9.60318
ក្រោម	-9.60326
នីស៊ី	-9.60326
ព្រៃ	-9.60327
រ៉ង់	-9.60327
ត្បាញ	-9.60329
អោប	-9.60329
វត្ត	-9.60333
គោ	-9.60335
ស្លុត	-9.60336
បោស	-9.60337
គម	-9.60337
លក់ដូរ	-9.6034
ដំណាំ	-9.60341
ប្រេង	-9.60342
ដាល់	-9.60343
រេាគ	-9.60343
ណាចក្រ	-9.60343
ពាល់	-9.60344
បដិ	-9.60344
ហ៊ាន	-9.60344
វិជ្ជមាន	-9.60344
សីហា	-9.60344
ម៉េល	-9.60349
គុក	-9.60349
របាំ	-9.60349
ត្យ	-9.6035
ឃាត់ខ្លួ	-9.6035
វាស់	-9.6035
ហ្សេ	-9.6035
គន្ធ	-9.6035
ចន្ទី	-9.6035
បូឌីយ៉ាណា	-9.6035
ឆ្កាង	-9.6035
ទំនាក់	-9.6035
សៅរ៍	-9.6035
កុល	-9.6035
នានា	-9.6035
ឫស្សី	-9.6035
ជុល	-9.60351
ធ្នូ	-9.60351
ហ្ស៊ី	-9.60351
ជែង	-9.60351
ពញ្ញា	-9.60351
២០០៣	-9.60351
វ៉ុល	-9.60351
ថ្នាំ	-9.60351
រក្សាទុក	-9.60353
យោធា	-9.60353
ជ័យ	-9.60354
លាប	-9.60355
ខ្លឹមសា	-9.60356
ជាប់គាំង	-9.60357
កណ្ឌ	-9.60357
ក្រួស	-9.60357
វ័ន	-9.60357
ហួស	-9.60357
ការផ្ងំ	-9.60357
ខ្វៀន	-9.60357
គ្រះ	-9.60357
ចតុមុខ	-9.60357
ឆោឡោ	-9.60357
ជៀង	-9.60357
ដីធ្លី	-9.60357
ដីឡូតិ៍	-9.60357
ធិន	-9.60357
ធ្លាប់	-9.60357
និយោជិក	-9.60357
ន់៖	-9.60357
បណ្ណ	-9.60357
បទុម	-9.60357
បុព្វការី	-9.60357
ប្រច៍ន្ទ	-9.60357
ព្រះគោក្នុង	-9.60357
ភ្លាម	-9.60357
មឿង	-9.60357
រ៉ុក្កែត	-9.60357
វុន	-9.60357
សន្និសីត	-9.60357
សិប្បកម្ម	-9.60357
ស្ថេរភាព	-9.60357
ស្នូក	-9.60357
ស្បាយ	-9.60357
ហុច	-9.60357
អញ្ចឹង	-9.60357
អុង	-9.60357
អុបទិច	-9.60357
អេក្រង់	-9.60357
អ៊ុក	-9.60357
ឧទ្ធម	-9.60357
កូឡុំប៊ី	-9.60357
ខឹន	-9.60357
គិន	-9.60357
ឃឹត	-9.60357
ឃើល	-9.60357
ជគត	-9.60357
ជំហ៊ាន	-9.60357
ឈ្ន	-9.60357
ដំណុំ	-9.60357
ដំណំ	-9.60357
ដ្នាន	-9.60357
តុស្ស	-9.60357
ត្រកូល	-9.60357
ថ័រ	-9.60357
ថ្នាក់់	-9.60357
ធិការហរិញ្ញវត្ថុ	-9.60357
ធ្វ្វើ	-9.60357
បង្គង	-9.60357
បង្គន់	-9.60357
បង្វែរ	-9.60357
បដិវត្ដន៍	-9.60357
បាក់តេរី	-9.60357
បំណិន	-9.60357
ប្រេកង់	-9.60357
ផសស	-9.60357
ផ្តួចផ្ដើម	-9.60357
ពឹប	-9.60357
ព្រះមហាក្សត្រិយ៍	-9.60357
ភិក	-9.60357
ភិសេក	-9.60357
ម្ដាយ	-9.60357
យុត្ថា	-9.60357
រូច	-9.60357
លិង្គ	-9.60357
វង្សី	-9.60357
សច្ចៈ	-9.60357
សន្ដិភាព	-9.60357
សារាវ៉ា	-9.60357
សិទ្ឋិ	-9.60357
សំទ្បេង	-9.60357
សំពៀត	-9.60357
ស្កុត	-9.60357
ស្ដង់ដារ	-9.60357
ស្ទួន	-9.60357
ស្វុី	-9.60357
ហើង	-9.60357
ហេស្វរៈ	-9.60357
ហ្វេន	-9.60357
ហ្សកស៊ឺ	-9.60357
ឡាតាំង	-9.60357
ឡោ	-9.60357
អណិក	-9.60357
អណ្តាត	-9.60357
អាគ្នេយ៍	-9.60357
អូដ្ឋ	-9.60357
ឧប្បត្ថម្ភ	-9.60357
១៣៩៩៩	-9.60357
កង្ហាល់	-9.60357
កុរ	-9.60357
ខាញ់	-9.60357
ខ្ទាត	-9.60357
ឃើរ	-9.60357
ជង្រុះ	-9.60357
បំភ័ណ្ឌ	-9.60357
ប្រិមប្រិយ	-9.60357
ផ្តេសផ្តាស់	-9.60357
ភេវរកម្ម	-9.60357
រីវ៉ូ	-9.60357
វិបាន	-9.60357
ស្ថាបណ្ណ័	-9.60357
ហ៊ុំព័ទ្ធ	-9.60357
អុជ	-9.60357
៥៤៦០៧	-9.60357
៦៦៨	-9.60357
យោង	-9.60357
អង្គារ	-9.60359
ដំណឹង	-9.60359
កក់ក្តៅ	-9.60362
ពិធីសារ	-9.60362
ព្រោះរាស្រ្ត	-9.60363
បង្កឡើយ	-9.60363
ដេឡុង	-9.60363
ហូឡង់	-9.60363
កូកាអ៊ីន	-9.60363
ក្រុម៖	-9.60363
ចាស់ទុំ	-9.60363
ចំលាស់	-9.60363
បានជាសារពាង្គកាយ	-9.60363
ភារុន	-9.60363
ការ៉េម	-9.60363
ប៉ោម	-9.60363
ក្រគរ	-9.60363
តាណូ	-9.60363
ទល់មុខ	-9.60363
សង្សារ	-9.60363
ចំនេះ	-9.60364
យូរយារ	-9.60364
ពាក្យសម្តី	-9.60364
កៀង	-9.60364
តែងតែ	-9.60364
សូម៉ាលីៈ	-9.60364
ជជីក	-9.60364
ដងទន្លេ	-9.60364
ផ្លូវថ្នល់	-9.60364
ជាក់ស្តែង	-9.60364
ព្រះម៉ែ	-9.60364
ស៊ីរី៖	-9.60364
កាបូប	-9.60364
កំសាន	-9.60364
ខាងស្តាំ	-9.60364
ឆាណែល	-9.60364
ជំរំលីប៊ី	-9.60364
ក្រោយពី	-9.60364
៥៧២	-9.60364
សុរិយោដី	-9.60364
ជ្រលង	-9.60364
ល្វេ	-9.60364
សំគាល់ៈ	-9.60365
តំណឹង	-9.60365
ខិត្តប័ណ្ណ	-9.60365
មេភូមិ	-9.60365
សម្បក	-9.60365
តំបន់	-9.60365
ភ្លឺស្វាង	-9.60365
សុចរិត	-9.60365
ខោអាវធំ	-9.60365
មកកាន់ៈ	-9.60365
មាលា	-9.60365
បម្រុងទុក	-9.60365
ឆាង	-9.60365
ត្រូវចិត្ដ	-9.60365
មេបក្ស	-9.60365
ទៅដក់	-9.60365
លោល	-9.60365
មេឃុំ	-9.60366
បាកាន	-9.60366
ប្រមុខរដ្ឋ	-9.60367
ខា	-9.60368
នាំចេញមក	-9.6037
ផ្ទៃក្នុង	-9.6037
គ្រាន់ត	-9.6037
បន្ទាប់មក	-9.60371
រូម៉ានី៖	-9.60371
តួយ៉ាង	-9.60372
ផាន៖	-9.60372
បាញ់ត	-9.60373
សេចក្ដីថ្លៃថ្នូរ	-9.60373
បារាំង	-9.60373
២០១៦	-9.60373
អ្នកវិភាគ	-9.60374
៤៤៣	-9.6038
សេង៖	-9.60381
សកម្រិត	-9.60384
អ្នកវិន	-9.60387
មនុស្សជាតិ	-9.60396
បែ	-9.60405
៣៧៣	-9.60405
ប្រតិបត្តិការងារ	-9.60414
អាថ៌កំបាំង	-9.6043
កត់សម្គាល់	-9.60454
ការឯកភាព	-9.60464
ការបំរើ	-9.60465
លក់	-9.60468
តែម្តង	-9.60477
ការបម្រើ	-9.60496
មង្គល	-9.60499
៤០	-9.60503
ចង់	-9.60522
ត្រកាល	-9.60534
ទី	-9.60536
សុំ	-9.60541
រាថ	-9.60541
និយាយ	-9.60548
រកបាន	-9.60557
បរិភោគ	-9.60562
រទះ	-9.60574
គប់	-9.60593
ណេប៉ាល់	-9.60595
លី	-9.60595
ការរក្សា	-9.60599
រើសសភា	-9.60602
បង្ក	-9.60604
ការលាង	-9.60607
ប្រគល់	-9.60611
នៅក្បែរ	-9.60616
មូលហេតុ	-9.60625
នារ	-9.60625
បង្ខំឲ្យ	-9.6064
ហួ	-9.60652
កាយ	-9.60655
ល្មើស	-9.60656
ការប្តេជ្ញា	-9.60661
ឦសាន	-9.60665
ត្រឡាច	-9.60666
៥២៩	-9.60672
កំណាច	-9.60674
ក្លឿរ	-9.60675
ជឿជាក់	-9.60679
នគរបាក	-9.6068
យុទ្ធសាស្រ្ត	-9.60681
សើរើ	-9.60683
៦២៦	-9.60686
បន្ដរ	-9.60686
រអ៊ូរ	-9.60688
១៣០០	-9.60692
ស្ទីម	-9.60693
ឆាវ	-9.60693
កក	-9.60694
នៅបៀរ	-9.60694
សុមេដា	-9.60696
៨៩	-9.60696
រទិញ	-9.60696
ធ្វើដំណើ	-9.60702
អង្គរ	-9.60702
ភូមា	-9.60712
ឃ្លី	-9.60718
ការខ្មាស	-9.60718
ពេជ្ជតា	-9.6072
កាបូន	-9.60722
មីយ៉ាន	-9.60726
តបន់	-9.60727
វីអូ	-9.60728
ម៉ាក់	-9.60729
ត្រូវការធ្វើ	-9.6073
៤៩២	-9.60742
ជូរ	-9.6077
ការប្រសិទ្ធិ	-9.60788
ក្រ	-9.60806
ជៀសវាង	-9.60817
២០៥០	-9.60819
មាសំ	-9.60833
វះ	-9.60838
រង	-9.60842
ជាពិស	-9.60844
សម្លាប់	-9.60854
ការកំចាត់	-9.60868
ឲ្យដឹង	-9.60881
ចេញថ្លៃ	-9.60888
ច្របូកច្របល់	-9.60891
ឆ្លង	-9.60894
បាត់បង់	-9.60897
ព្រំដែន	-9.60906
ប្រគំ	-9.60921
ប្រការ	-9.60924
ចាប់ផ្តើម	-9.60937
សាលា	-9.60951
ស្តា	-9.60963
២០២៣	-9.60963
នេសាទ	-9.60975
បន្លា	-9.60983
ពេទ្យ	-9.60988
ភ្លើង	-9.60993
ច្បាប់	-9.60996
រយៈ	-9.60997
លៃ	-9.61001
ហ៊ុ	-9.61002
ឡើងវិញ	-9.61004
ខ្លួនអ្នកណា	-9.61004
បណ្តុះ	-9.61005
ណល់	-9.6101
ស្កាត់	-9.6101
យន្ដ	-9.6101
សាធារ	-9.6101
អ៉ី	-9.6101
ស្តង់	-9.6101
ឡាយ	-9.6101
មកពី	-9.61014
សាយ	-9.61015
អុីនធើ	-9.61015
ដើមហេតុ	-9.61016
បច្ចុ	-9.61016
ស្បូន	-9.61016
សឹប	-9.61016
បូប	-9.61017
សូន្យ	-9.61017
ពន់	-9.61017
អវកាស	-9.61017
ន័យ	-9.61017
ស៊ាន	-9.61017
កំហុស	-9.61017
របស់	-9.61017
ស៊ែប	-9.61017
កក្កដា	-9.61017
វិច្ចិ	-9.61017
ជិកា	-9.61018
កញ្ញ	-9.61018
តុការ	-9.61018
គ្រួរ	-9.61018
ហុងដា	-9.61018
ប្រមុខ	-9.61021
កម្មង់	-9.61022
តុភូមិ	-9.61023
ព្រះច័ន្ទ	-9.61023
រូម៉ានី	-9.61023
រកមើល	-9.61023
ទស្សន៍	-9.61024
ស្ថន	-9.61024
កាលប្បប្រវត្តិ	-9.61024
គ្រៀល	-9.61024
ចឺ	-9.61024
ជាយ៉ូ	-9.61024
ជាលាយលក្ខណ៍អក្សរ	-9.61024
ធម្មយុត	-9.61024
បន្ទះ	-9.61024
បារ៉ាក់	-9.61024
ផ្ទាំង	-9.61024
វីស្តុន	-9.61024
សម្តៅ	-9.61024
សហស្សវ	-9.61024
សុន	-9.61024
សំកុស	-9.61024
អ៊ូហ្កាន់	-9.61024
កាឡៃ	-9.61024
កិច្វ	-9.61024
កំណក	-9.61024
ក្រម៉	-9.61024
ខូត	-9.61024
គ្របង្វឹក	-9.61024
គ្រិស្ត	-9.61024
ឃ្វីន	-9.61024
ចិន្ដា	-9.61024
ចំរាញ់	-9.61024
ឆ្កឹះ	-9.61024
ជនន់	-9.61024
ជម្លោះ	-9.61024
ជំនិត	-9.61024
ឈិន	-9.61024
ឈ្នោះ	-9.61024
ឈ្លើយ	-9.61024
ដង្កោ	-9.61024
តឹងរ៉ឹង	-9.61024
ត្រឡិន	-9.61024
ត្អួញត្អែរ	-9.61024
ទំព័រ	-9.61024
ធឿត	-9.61024
បរិទេវ	-9.61024
បំណែក	-9.61024
ប្រុ៊ច	-9.61024
ផ្លែ	-9.61024
ផ្សព្	-9.61024
ពិរោះ	-9.61024
ពោធិ៍	-9.61024
ព្រូន	-9.61024
ព្រះកុសុមៈ	-9.61024
មុឺង	-9.61024
លាហ្វ	-9.61024
វិចិត្រា	-9.61024
សម្បថ	-9.61024
សុឃី	-9.61024
សុជីវ័ន្ដ	-9.61024
សូប្លាតុង	-9.61024
សំនូក	-9.61024
សំផន	-9.61024
ស្កែន	-9.61024
ស្រក់	-9.61024
ហិតា	-9.61024
ហ្សូរី	-9.61024
ឡុក	-9.61024
អង់តែន	-9.61024
អង្គាស	-9.61024
អរូបី	-9.61024
អឺរុប	-9.61024
អូតាវ៉ៅ	-9.61024
អ៊ាវ	-9.61024
ឥត	-9.61024
កំសាន្ដ	-9.61024
ខេត្ត	-9.61024
ខ្ជាប់ខ្ជួន	-9.61024
ជ្រងោ	-9.61024
ឈ្នួញ	-9.61024
ដុំកំភួន	-9.61024
ទម្រាំ	-9.61024
ទំហឹង	-9.61024
ធ្នើ	-9.61024
នីហ្សេរីយ៉ា	-9.61024
បម្រង	-9.61024
បូម៉ន់	-9.61024
ពុះឡូត៍	-9.61024
ពេត្រុស	-9.61024
ព្រិល	-9.61024
មហេន្រ្ទ	-9.61024
មិត្តភក្ដិ	-9.61024
មួរម៉ៅ	-9.61024
យ៉ូហាន	-9.61024
រល៉ើង	-9.61024
រំដេង	-9.61024
សត្វ	-9.61024
ស្មាតហ្វូន	-9.61024
ស្រមោល	-9.61024
ស្រល់	-9.61024
ហង្ស	-9.61024
ហូល្លង់	-9.61024
ហ្កេក	-9.61024
ហ្កេតស៍	-9.61024
ហ្វ្រាំង	-9.61024
សូដ្យូម	-9.61024
តំលៃ	-9.61024
ពូក	-9.61024
បក់	-9.61025
ថ្ម	-9.61025
បូករួម	-9.61026
១៦០១	-9.61026
ក្រសួង	-9.61029
យ៉ាទី	-9.61029
ចំងាយ	-9.61029
សាច់ដុំ	-9.61029
កន្លងមក	-9.61029
កោងកាង	-9.61029
គ្រួរសារ	-9.6103
ឌីណា	-9.6103
ទ្រនំ	-9.6103
អាងម	-9.6103
ដោបញ្ញា	-9.6103
កីឡាករ	-9.6103
ខ្លាញី	-9.6103
ប៉ាណូ	-9.6103
រ៉ូបឺត	-9.6103
ស័ក្ដិសម	-9.6103
ខ្អស់	-9.6103
ទីពឹង	-9.6103
ល្អាង	-9.6103
អូបាម៉ាមួយ	-9.6103
ស្វាយជ្រុំ	-9.6103
ចំរើន៖	-9.6103
អ៉ីរ៉ង់	-9.6103
កូនប្រុស	-9.61031
គ្រីក	-9.61031
ទឹកមុខ	-9.61031
បន្ទាយមាស	-9.61031
បារូ	-9.61031
គងពិសី	-9.61031
គួរសកម្ម	-9.61031
ជាទីគោរព	-9.61031
ម៉ារា	-9.61031
ពូជ្រៃ	-9.61031
ជីស្ងួត	-9.61031
រាជវង្ស	-9.61031
ជំនឿចិត្ត	-9.61031
ឋានៈ	-9.61031
បូរម	-9.61031
សំអាន	-9.61031
ជាប់កក	-9.61032
ឈើង	-9.61032
សូល	-9.61032
២០២១	-9.61032
ផែនដី	-9.61032
ត្រូវបាត់បង់	-9.61032
រដ្ឋអំពី	-9.61032
អ៊ីដាល់	-9.61032
ត្រក	-9.61032
៧៖	-9.61032
មីឡាន	-9.61032
វេង	-9.61032
សួនច្បារ	-9.61032
ហ៊ីល	-9.61032
ចូលនិវត្ត	-9.61032
ត្រូង	-9.61032
មាច	-9.61032
អ៊ីង	-9.61033
អ៊ីល	-9.61033
ទំនើបកម្ម	-9.61035
ស៊ីស៊ី	-9.61035
លោត	-9.61035
ព្រលឹម	-9.61036
ស៊ាប	-9.61037
ក្លូន	-9.61037
ជាខ្លាំង	-9.61037
អកុសល	-9.61037
ខ្លឹមសារ	-9.61037
កេស	-9.61038
ព្រីង	-9.61038
រួមមាន៖	-9.61039
ប៉ាត	-9.6104
នរោត្តម	-9.61042
ប្រាំពីរ	-9.61043
ទាសកម្ម	-9.61043
អ្នកចាញ់	-9.61049
កិច្ចប្រឹង	-9.6105
អ្នកតម្បាញ	-9.61052
អ្នកតំណាងរាស្ត្រ	-9.61056
សមី	-9.61069
សានា	-9.61073
វង	-9.61077
១៦៖	-9.6108
ហ្គោ	-9.61092
កាត់សេចក្តីក្នុង	-9.61114
ការចាញ់	-9.61115
ការវិវត្ត	-9.61122
វាយដំ	-9.61135
អ្នកជារឿយ	-9.61135
ដាក់	-9.61143
ការបញ្ឈប់	-9.61143
ចុះក្រោម	-9.61147
ក្រុមឃាតករ	-9.61171
សម្តែង	-9.61181
កោះកកាយ	-9.61192
អាទិ៍	-9.61206
អ្នករក្សា	-9.61209
ប្រជាជនជា	-9.6122
ឆ្លងកាត់	-9.61221
រមន្ត្រី	-9.61222
៨០	-9.61229
មុន	-9.61247
ជក់	-9.61252
ករណីយ៍	-9.61252
អេ	-9.61256
ហើយនិង	-9.61259
ត្បូងឃ្មុំ	-9.61291
ត្រូគេ	-9.61292
និទ្ទេសឌី	-9.61306
គាំង	-9.61307
ថ្មើ	-9.61311
សុខ	-9.61311
ឡាហាន	-9.61314
០០៣	-9.6132
ញញីញញ័រ	-9.6132
តម្បាញ	-9.6132
ផ្លួវការ	-9.6132
អារ្យធម៌	-9.6132
មុខមាត់	-9.61322
ភាពងងឹត	-9.61327
សុផល	-9.61327
ដឹកនាំរាស្រ្ត	-9.61328
កូនក្មួយកម្ម	-9.6133
ខ្លាំ	-9.61333
កាន់តែ	-9.61334
មិនា	-9.6134
គម្រូ	-9.61341
វេទិការ	-9.61342
បេីក	-9.61343
ស្រា	-9.61343
ញញឹម	-9.61345
ដទៃ	-9.61345
សេរី	-9.61357
ចៃដន្យ	-9.61358
សក្ខីភាព	-9.61358
ទង	-9.61358
ឧបទ្រព	-9.61358
នៅឯកោ	-9.61362
ភាសារ	-9.61362
ទឹកកក	-9.61365
ព៌ត	-9.61365
រថក្រោះ	-9.61365
ថ្ងៃជា	-9.61366
សុស	-9.61367
ប៉ាន	-9.61368
តែម្ដង	-9.61371
ឡារី	-9.61375
ការយាយី	-9.61383
ឦសានន	-9.61383
ផ្លាត	-9.61385
នីកូ	-9.61388
មន្ទី	-9.61389
៣៦៥	-9.61389
រូស្ស៊ី	-9.61389
រនាស់	-9.61399
សូ	-9.61404
ប្រភព៖	-9.61405
៦៣	-9.61417
ការសេដ្ឋកិច្ច	-9.61419
ការប្រាថ្នា	-9.61427
ការសន្យា	-9.61436
ប្រា	-9.61449
សល់	-9.61458
ការស្ទង់	-9.61464
ដង្ហែរ	-9.61472
៥៣០	-9.61497
ក្រមា	-9.615
ការផុស	-9.61518
សមត្ថភាព	-9.61532
រសៃ	-9.61535
ម្តង	-9.61554
រហូត	-9.61564
ការចែកចាយ	-9.61571
ដំឡើង	-9.61573
ចរចារ	-9.61575
ការដ្ឋាន	-9.61582
រឹតបន្តឹង	-9.61601
រ៉ូ	-9.61604
នន	-9.61607
មន	-9.61609
ជាក់	-9.61612
សន្តិវង្សារ	-9.61621
ការបកប្រែ	-9.61645
ការហៀរ	-9.61647
២៤៩៦	-9.6165
ទស្ស	-9.61666
មួល	-9.61667
រោគ	-9.61667
អក្សរ	-9.61673
ត្រឡប់	-9.61674
អាល់	-9.61675
ការជួល	-9.61676
កម្លាំង	-9.6168
អាសន្ន	-9.6168
សំគាល់	-9.6168
ន៌	-9.6168
៣៣	-9.61683
ម៉ី	-9.61683
សេនាធិការ	-9.61684
គ្រាប់	-9.61686
រួមមាន	-9.61686
ជ្រួស	-9.61687
ខ្មាស់	-9.61687
វេទនា	-9.61687
ញៀន	-9.61688
ប្រភេ	-9.61688
ពិរុទ្ធ	-9.61688
គន់	-9.61688
វង់	-9.61688
គ្រីស្ទ	-9.61688
ដ៏	-9.61688
បន្ទប់	-9.61688
៧៦	-9.61688
កីឡដ្ឋាន	-9.61689
ពូជ	-9.61689
រួមទាំង	-9.61689
ថា្នក់	-9.61689
ព្រះពុទ្ធ	-9.61693
ដក	-9.61693
ឯកសារ	-9.61693
ខោអាវ	-9.61694
រៀបរយ	-9.61694
ពួកជំនុំ	-9.61695
ការឆ្លុះ	-9.61695
កណី	-9.61695
ចត្តាឡី	-9.61695
ចេ្ចកទេស	-9.61695
ឆ្លុះប	-9.61695
ឈ្នានីន	-9.61695
ដួច	-9.61695
ដៀល	-9.61695
ដំនើរការ	-9.61695
ឌិន	-9.61695
តម្រុយ	-9.61695
បូអ៊ិង	-9.61695
បំបៅ	-9.61695
ផ្ដួច	-9.61695
ផ្លាស្ទិក	-9.61695
ផ្សេង	-9.61695
ភព្វ័	-9.61695
ភេសុមុនី	-9.61695
ភ្មំពេញ	-9.61695
មាសាឍ	-9.61695
ម្ភៃ	-9.61695
រួុម	-9.61695
លុច	-9.61695
វគ្គ	-9.61695
វ៉ាក់សាំង	-9.61695
សោណា	-9.61695
ហ្នុង	-9.61695
អគ្គីភ័យ	-9.61695
អន្តគមន៍	-9.61695
អ៊ិត	-9.61695
អ៊ឺរ៉ុប	-9.61695
ឧបត្ថម	-9.61695
កតព្វកិច្ច	-9.61695
កន្ត្រៃ	-9.61695
កុម្មុយស្ត	-9.61695
កុលាប	-9.61695
កូនសោរ	-9.61695
កួយ	-9.61695
ខ្ពង់រាប	-9.61695
ខ្លៀក	-9.61695
ចិត	-9.61695
ជ្រុះ	-9.61695
ណាហ្គាទី	-9.61695
ណាាស់	-9.61695
តាន់	-9.61695
តាមរៈ	-9.61695
ត្នោត	-9.61695
ត្រាក់ទ័រ	-9.61695
ថិត	-9.61695
ទុស្សេ	-9.61695
ធ្ងប់ធ្ងរ	-9.61695
បន្ទិច	-9.61695
បុគ្កលិក	-9.61695
បេសកមកម្ម	-9.61695
បំផ្លៃ	-9.61695
ប៉ុន្មាន	-9.61695
ពិជ័យ	-9.61695
មាគ៌ា	-9.61695
មេអហ	-9.61695
ម៉ក់	-9.61695
ម៉ាគីន	-9.61695
លីនុច	-9.61695
លែវ	-9.61695
វិតា	-9.61695
វិស្សុត	-9.61695
វេទមន្ត	-9.61695
សាវ័ក	-9.61695
សូរ្យ	-9.61695
សឿង	-9.61695
សឿន	-9.61695
សៀក	-9.61695
សំយាប	-9.61695
ស៉ីធរ	-9.61695
ស៊ុន	-9.61695
ស៊ែរ	-9.61695
ស្ងោយ	-9.61695
ស្ថាប័ន្ត	-9.61695
ស្បែង	-9.61695
ហ្នឹក	-9.61695
ហ្វេប៊ុក	-9.61695
អាជ្ញាជរជាតិ	-9.61695
អាផាត	-9.61695
អ័រ	-9.61695
ឥណ្ឌូនេស៊ី	-9.61695
ចែវ	-9.61695
ជឹម	-9.61695
ជ្រោះ	-9.61695
ថឿង	-9.61695
ទសវត្ស	-9.61695
ហនុ	-9.61695
កូវ	-9.61696
រួមចំនួន	-9.61696
សេរីភាវូបនីយកម្ម	-9.61699
អង្សារ	-9.617
វាសប្បាយ	-9.61701
សាស្តា	-9.61701
ស្រាប់តែ	-9.61701
ចំពេល	-9.61701
សែចៅ	-9.61701
អង់គ្លេស៖	-9.61701
គីមូន	-9.61701
ណម	-9.61701
ពហុកីឡដ្ឋាន	-9.61701
រាពណ៍	-9.61701
អ្នកចាំទី	-9.61701
១៩៩៣	-9.61701
ពន	-9.61701
ដេវីត	-9.61701
ទឹកភ្លៀង	-9.61701
សុវិជ្ជា	-9.61701
លីម	-9.61701
សុភាក់	-9.61701
រាអ៊ូ	-9.61702
អនាម័យ៖	-9.61702
ខាងលើ	-9.61702
ចេះតែ	-9.61702
ព្រះជ័យ	-9.61702
ហន	-9.61702
៥០៨៩	-9.61702
ទៅលើ	-9.61702
ប្រាយ	-9.61702
អូសុទ្ធ	-9.61702
១៩៨៦	-9.61702
ទូកុងតឺន័រ	-9.61702
៨៧៥១	-9.61702
ថ្ងៃយាយ	-9.61702
បញ្ហារ	-9.61702
ពន់ពេក	-9.61702
មេខ្លោង	-9.61702
ញ្ញាំ	-9.61702
តុនឯង	-9.61702
សំរឹទ្ធ	-9.61702
អ៊ួង	-9.61702
សូលុយ	-9.61702
អេនឌី	-9.61702
ក្រពុល	-9.61702
ជាំង	-9.61702
ត្រឹមក	-9.61702
កាអោយ	-9.61703
ក្រាញ	-9.61703
ទស្សនវិស័យ	-9.61703
ហាសាន់	-9.61703
១៩៧៨	-9.61703
សំបុក	-9.61703
ជាយក្រុង	-9.61703
ត្រាំង	-9.61703
១៩៧៩៖	-9.61703
ភ្នំស្រុក	-9.61703
ហាច	-9.61703
ការវាយក	-9.61703
លីកាដូ៖	-9.61703
អ៊ីចុះ	-9.61704
អ្នកគ្រូ	-9.61706
វត្ថុតាង	-9.61707
ព្រះយេស៊ូវ	-9.61708
បដា	-9.61708
អគុណ	-9.61708
តំរូវការសរីរាង្គ	-9.61708
អេង៖	-9.61709
៤១០០	-9.6171
៧៧៦	-9.6171
ជាប្រព័ន្ធ	-9.61711
មេដឹកនាំ	-9.61711
ម៉ាត	-9.61714
១៩៧៥	-9.61715
ប្រឈម	-9.61717
ចាញ់បោកគ្រូ	-9.61717
អ្នកភូមិ	-9.61722
ដៅ	-9.61728
ការរំលាយ	-9.61741
មើល	-9.61752
ការស្ដាប់	-9.61789
ការស្ម័គ្រចិត្ត	-9.61813
ការកកើត	-9.61816
សារពាង្គកាយ	-9.61818
២៤០	-9.61827
ពិចារណា	-9.61849
ចុះអប់រំ	-9.61852
២៩	-9.61858
ផ្អាប់	-9.61865
ការដុះ	-9.61876
ពិស	-9.61876
ប៉	-9.61882
ភាពបរាជ័យ	-9.61888
ពាណិជ្ជករ	-9.61906
១០៧	-9.61906
អ្នកការទូត	-9.61917
ការប្រឆាំង	-9.61924
ខ្លាច	-9.61926
៦០	-9.61954
តាក់ស៊ី	-9.61957
ព្រៃស	-9.61961
ស្នើសុំ	-9.61972
មករា	-9.61979
ជីវភាព	-9.61981
ក្លាយទៅជា	-9.61993
យៀប	-9.61996
ផ្លា	-9.61999
អស្ចារ្យ	-9.62
ការកំណត់	-9.62
សាហាវ	-9.62
៧០	-9.62001
កសិកម្ម	-9.62002
រងចាំ	-9.62003
ផ្ញើ	-9.62003
លាវ	-9.62004
ទេបាទ	-9.62009
វើ	-9.62011
ចាំបាច់	-9.62016
ពោះវៀន	-9.62016
យាន	-9.62018
អេស៊ី	-9.62019
លាន	-9.62019
ផ្ទាល់	-9.6202
ជម្រៅ	-9.62021
ផ្ដាច់ប្រាក់	-9.62022
ប្រណី	-9.62023
រំភើបចិត្ត	-9.62025
ថ្នាំង	-9.62028
ឲ្យដឹក	-9.62029
យូនី	-9.62032
វិញ្ញាសា	-9.62033
ឫយក	-9.62033
សង្កែ	-9.62041
សម្ពន្ធ	-9.62042
យូ	-9.62049
ការគ្រង	-9.62049
តិចសាស់	-9.62051
ប៉ាល់	-9.62053
លេីក	-9.62054
៥០	-9.62059
ការបឺត	-9.62063
ជ្រួតជ្រាប	-9.62088
ធ្វើជានុយ	-9.62088
ភ្លេចភ្លាំង	-9.62088
ទាញពី	-9.62093
រាងកាយ៖	-9.62093
ចេញមកពី	-9.62102
សមាស	-9.62105
៣២០០	-9.6212
លាង	-9.62127
សាអាត	-9.62134
កាហ្សាក់	-9.62136
អនុសាខា	-9.62136
សុរិយា	-9.62149
ការលិប	-9.62156
សេន	-9.62161
ឡាវ	-9.62163
ធម្មការ	-9.62178
មង្គលការ	-9.62198
វា	-9.62203
ទេស	-9.62207
ចិត្តវិញ	-9.62209
១៣៦	-9.62217
ភូមិ	-9.62253
ពិនិត្យ	-9.62264
រួមមា	-9.62274
ឡត	-9.62282
ដេ	-9.62286
១៩៥	-9.6229
ចង់បាន	-9.62294
ពាន	-9.62333
បន្ទាយ	-9.62344
ចាយ	-9.6235
គឹ	-9.62351
បើកបរ	-9.62353
ទួ	-9.62354
ទង់	-9.62355
ណែល	-9.62356
រូង	-9.62357
ច័ន្ទ	-9.62357
ស្អាត	-9.62357
កែប្រែ	-9.62358
គោក	-9.62358
ប្រមាញ់	-9.62361
ធនាគារ	-9.62361
យកឈ្នះ	-9.62361
៣១៤	-9.62362
ណាម	-9.62362
ឆ្នាំ	-9.62363
មធ្យម	-9.62363
អ៊ីម៉ែល	-9.62363
កំពង់ស្ពឺ	-9.62363
រន្ធ	-9.62363
សម្ភារ	-9.62363
ឡឹក	-9.62363
គត់	-9.62363
បណ្ដុះ	-9.62363
និទាន	-9.62364
កុំ	-9.62364
អូបាម៉ា	-9.62364
គ្រាំ	-9.62364
ខ្លាំងក្លា	-9.62364
ជះ	-9.62364
ដោល	-9.62365
ឡឹម	-9.62365
រ៉េ	-9.62366
ទីក្រុង	-9.62366
ការបង្រៀន	-9.6237
គំតោង	-9.6237
កសិណ	-9.6237
ថៅកែ	-9.6237
ទម្លុះ	-9.6237
នឺង	-9.6237
សក្តា	-9.6237
អញ្ចើញ	-9.6237
កុសល់	-9.6237
កេរ្ដិ៍	-9.6237
កំព្យូទ័រ	-9.6237
កំហឹង	-9.6237
គ័ង	-9.6237
ង៉ែត	-9.6237
ចិត្រា	-9.6237
ឆុង	-9.6237
ឆោត	-9.6237
ឆ័យ	-9.6237
ឌុច	-9.6237
ធុច	-9.6237
បញ្ឆោត	-9.6237
បន្ទរ	-9.6237
បស្ចឹម	-9.6237
ប៉ូជីន	-9.6237
ប្រវត្ដិ	-9.6237
ផ្ទាស់	-9.6237
ពន្លិត	-9.6237
ភួង	-9.6237
ភើរេសិន	-9.6237
មឋមសិក្សា	-9.6237
មានឹន្ទ	-9.6237
មូស	-9.6237
ម៉ារីលែន	-9.6237
ម៉ាស្សាតប់	-9.6237
ម៉ិចស៊ិក	-9.6237
សមា្ភារៈ	-9.6237
សមិទ្ធផល	-9.6237
សាញ់	-9.6237
សារ៉េត	-9.6237
សុភ័ក្រ	-9.6237
សុភ័ណ្ឌ	-9.6237
សូឡា	-9.6237
សេអ៊ីជិ	-9.6237
ស៊ីកាសួរ	-9.6237
ស្រ្តូ	-9.6237
ឡូន	-9.6237
អង្រុត	-9.6237
ក្លរ	-9.62371
គ្យេ	-9.62371
គ្រវែង	-9.62371
ឃេន	-9.62371
ង្ខិតបង្ខំ	-9.62371
ចង្កូត	-9.62371
ចង្កេះ	-9.62371
ឆាបុត	-9.62371
ជម្លៀស	-9.62371
ជិវិត	-9.62371
ជ្រួច	-9.62371
ឈីប	-9.62371
ដំណាច់	-9.62371
ដំណែង	-9.62371
តម្រៀប	-9.62371
បន្ទុច	-9.62371
បូរាណ	-9.62371
ប៉ុណ្ណឹង	-9.62371
ប្លក	-9.62371
ព្រលយ	-9.62371
ភាំគ	-9.62371
មាឃ	-9.62371
ម៉ូរ៉ៃ	-9.62371
ម្ស៉ៅ	-9.62371
រដ្ឋអាឡាស្កា	-9.62371
រណ្ដំ	-9.62371
រត់ការខ្វែង	-9.62371
រុស្សី	-9.62371
រំលឹង	-9.62371
រ៉ិចទ័រ	-9.62371
រ៉ុស្សុី	-9.62371
លួក	-9.62371
វិញ្ញាបនបត្រ	-9.62371
សន្សឹម	-9.62371
សុផារ៉ា	-9.62371
សេរ៊ី	-9.62371
សំណឹក	-9.62371
ស្កឹមស្កៃ	-9.62371
ស្រយង់	-9.62371
ស្លុយ	-9.62371
ហ៊ែល	-9.62371
ហ្វ័រ	-9.62371
អច្ឆះរិយ	-9.62371
អណ្ដែត	-9.62371
អាហ្វ្រិក	-9.62371
អ៊ឹង	-9.62371
ឥណ្ឌូប៉ាស៊ីហ្វិក	-9.62371
ឧញ៉ា	-9.62371
ឳពុក	-9.62371
គ្រៃ	-9.62371
សទ្ធា	-9.62371
សុដន់	-9.62371
ស៊ូរីយ៉ា	-9.62371
សង្កត់	-9.62371
សម្រេ	-9.62371
ឡេង	-9.62371
ឪពុក	-9.62371
១៨០០០	-9.62372
ពី៖	-9.62372
អីុស្រា	-9.62372
ពេញចិត្ដ	-9.62373
ភាពចម្រូងចម្រាស់	-9.62375
៊ូអរសប្បាយរីករាយ	-9.62375
សារណា	-9.62376
បេះដូង	-9.62376
ពើប	-9.62376
ណាមួយ	-9.62376
ជើងគោក	-9.62376
ផ្នត់គំនិត	-9.62376
ថ្មើជើង	-9.62377
សេពគប់	-9.62377
តេលា	-9.62377
ទឹកក	-9.62377
ប៊ីប៊ី	-9.62377
សារ៉ាវុធ	-9.62377
គួរឱ្យ	-9.62377
ញាតិមិត្ត	-9.62377
ប្រដៅ	-9.62377
សាកសម	-9.62377
ស្ទាក់ស្ទើរ	-9.62377
សព្វគ្រប់	-9.62377
ស្ពតវ៉ា	-9.62377
ខាងជើង	-9.62377
ស្ទីក	-9.62377
ប្រកាច់	-9.62377
១៩៧០	-9.62377
ព្នាយ	-9.62377
កោសិការ	-9.62378
ជួនកាល	-9.62378
ថារិទ្ធ	-9.62378
ពួកជំនុំ។	-9.62378
ប៉ៃលិន៖	-9.62378
សំណើម	-9.62378
ឆន	-9.62378
ដកចិត្ត	-9.62378
មេឥន្រ្ទី	-9.62378
លីយុង	-9.62378
វាលវែង	-9.62378
អតីតកាល	-9.62378
កាតូ	-9.62378
ការីនិពន្ធ	-9.62378
ទស្សនះ	-9.62378
នាងខ្ញុំ	-9.62378
ក្តីរំពឹង	-9.62378
ហូល	-9.62378
អធិរាជ	-9.62378
ថ្ងៃសៅរ	-9.62378
ម៉ិចស៊ីក	-9.62378
អីុញ	-9.62378
៤៨៨	-9.62378
កម្រង	-9.62379
គែល	-9.62379
ដើមកំណើត	-9.62379
បែកញើស	-9.62379
ផាយ	-9.62379
ធំធាត់	-9.62379
ស្នើង	-9.62379
២០ៈ	-9.62379
ដែរក្សា	-9.62379
មេត្រីភាព	-9.62379
អ៊ីវ៉ាន់	-9.62379
គគីរី	-9.62379
មារី	-9.62379
អ្នកដទៃ៖	-9.62379
ស៊ីឆ្មា	-9.62381
ត្រូវនឹង	-9.62381
ភូមិដ្ឋាន	-9.62381
ព្រមទាំងអស់	-9.62381
ជាដាច់ខាត	-9.62383
ចូលទៅដល់	-9.62385
៦២៨៩	-9.62385
សៀមរាម	-9.62385
នាស	-9.62385
ចូលក្នុង	-9.62386
សង្គម៖	-9.62387
ទទួលប	-9.62388
បង្ការ	-9.62392
ទស្សនកិច្ចការងារ	-9.62394
អ្នកក្រ	-9.62395
អ្នកដំឡើង	-9.62397
អ្នកនាង	-9.62398
អ្នកមុន	-9.62399
អ្នកទេ	-9.62401
៤៥	-9.62413
៧៦០០	-9.62414
៥១	-9.62417
៦៧៨	-9.62427
៤២០	-9.62443
លាក	-9.62458
ការផ្សាយ	-9.62464
តុលា	-9.62469
ការពពោះ	-9.62471
ការជាំ	-9.62475
លប	-9.62477
ការគរ	-9.62478
ត្រាល់	-9.62488
ស៊ូវ	-9.62504
ប្រែក្លាយ	-9.62507
ឆ្នេរសមុទ្រ	-9.62548
វះកាត់	-9.62562
ធ្លាក់	-9.62578
ជឿរ	-9.62582
ម៉ានោវិក	-9.62585
ប្រព្រឹត្ដ	-9.62587
ផឹក	-9.62589
ចែកជូន	-9.62592
ផ្ទុះ	-9.62613
កំពង់ត្រាច	-9.62618
ប្រឹងប្រែង	-9.62618
មួយ	-9.62619
របៀប	-9.62623
យឺត	-9.62633
យន្តការជួរ	-9.6264
គតិយុត្តិ	-9.62641
បទ	-9.62641
ការកត់ត្រា	-9.62647
១	-9.62666
ច្នៃ	-9.62666
ព្រះ	-9.62668
ស្ល	-9.62669
សមាគម	-9.62675
ពិភពល	-9.62676
សិច	-9.6268
ពីព្រោះថា	-9.62681
ណុំរឿង	-9.62681
រោគសញ្ញា	-9.62688
នីយបត្រ	-9.62689
ឧប្បត្តិហេតុ	-9.6269
ម៉ៅ	-9.62691
ទ្រ	-9.62695
មីយ៉ា	-9.62697
ប្រលាន	-9.62698
វ៉ោល	-9.62701
េច	-9.62702
១៥	-9.62703
ចូលកាន់	-9.62705
យោ	-9.62707
២៦០០	-9.62711
៣៤២	-9.62711
វ៉ោលឡេ	-9.62712
ការកាន់កាប់	-9.62713
សណ្តរ	-9.62716
ថូស	-9.62719
នាយ	-9.62721
អេលី	-9.62723
ចំណាត់ការ	-9.62724
ឃាតក	-9.62726
ប៊ូត	-9.62727
លុះត្រា	-9.62728
តំប	-9.62728
លីល	-9.62735
វីស	-9.62737
ទិដ្ឋាការ	-9.6274
សនោះ	-9.62742
នាគារ	-9.62743
បារាំ	-9.62745
អន្តរជា	-9.62746
មេរោគ	-9.62747
កាពឃ្លោង	-9.62752
ព្រំដែនដី	-9.62756
សហការី	-9.6276
តាមពិត	-9.6276
ធាក់	-9.62763
រដូវកាលណា	-9.62765
គម្ពីរ	-9.62773
ខែត	-9.62778
៨៦	-9.6278
សុីស	-9.6278
ការចង់	-9.62785
សម័យកាល	-9.62786
អត្តទត្ថនិយម	-9.62787
ទាំងមូល	-9.62793
ដុល្លារ	-9.62802
យន្តការ	-9.62805
ការកើត	-9.62809
ការរញ្ជួយ	-9.62813
កែ	-9.62819
កាមេរ៉ា	-9.62823
ស៊ិចស៊ី	-9.62823
បណ្តាក់	-9.62824
លោក	-9.62826
អភិបាល	-9.62851
ទប់ស្កាត់	-9.62857
ប៊ែឡាំង	-9.62863
ការ៉ាម៉ាន់	-9.62863
ញ៉ូវយ៉ក	-9.62863
តុអាហារ	-9.62871
ស្នងការដ្ធាន	-9.62872
ញ័រ	-9.62875
ព្យាករ	-9.62884
ការកេង	-9.62892
ចេតនា	-9.62918
ពេល	-9.62919
២០០០០០	-9.62923
រុះរើ	-9.62932
រន្ធត់	-9.62937
បត់	-9.62947
រមាស់	-9.62956
ដោះលែង	-9.62963
ជូន	-9.62963
ស្រូបយក	-9.62963
ប្រញាប់	-9.62964
បើក	-9.6297
ក្រោយ	-9.62977
គ្រី	-9.63001
ផ្ទៃ	-9.63002
ជុំ	-9.63003
ទណ្ឌ	-9.63015
ខ្លួន	-9.63028
ពុក	-9.63029
ភព	-9.63037
ញី	-9.63037
បំណង	-9.63037
ស្រោច	-9.63037
ហិត	-9.63037
កុងស៊ុល	-9.63042
គាប	-9.63043
ប្លែក	-9.63043
គ្រែ	-9.63043
ត្រពាំ	-9.63043
រតនា	-9.63043
ណែង	-9.63043
វែបសាយ	-9.63043
បណ្ដោយ	-9.63043
អត្ថបទ	-9.63043
ល្ងីល្ងើ	-9.63044
ឆ្ងាយ	-9.63044
ឡី	-9.63044
ញឹម	-9.63044
នរោត្ត	-9.63044
ម្បី	-9.63044
ស្រព	-9.63044
ដំណាក់	-9.63044
ដំណាង	-9.63044
បបួល	-9.63044
ទុំ	-9.63044
មហិច្ឆិតា	-9.63044
ហ្សង់	-9.63044
កំពុង	-9.63044
ណាំ	-9.63045
ការផ្សព្វ	-9.63045
កណ្តាល	-9.63045
រលត់	-9.63046
ចំណាំ	-9.63049
អៀន	-9.63049
ខោន	-9.6305
បែន	-9.6305
នគរបាល	-9.6305
ជ៏យ	-9.63051
ជ្រែក	-9.63051
បង្អុរ	-9.63051
កម្សោយ	-9.63051
ក្រាហ្វិក	-9.63051
ខិន	-9.63051
គ្រវាត់	-9.63051
ចូរងរចាំ	-9.63051
ញញើត	-9.63051
តាដំបង	-9.63051
ទទឹង	-9.63051
បង្កប់	-9.63051
បណ្ណ័	-9.63051
បរិយាយ	-9.63051
ព្យុទ័រ	-9.63051
យុវវ័យ	-9.63051
រួមរ័ក	-9.63051
រឿងរ៉ាវ	-9.63051
វឌ្ឍនធម្ម	-9.63051
វិបុល	-9.63051
សិ្ថត	-9.63051
សឹឡិន	-9.63051
ស្រមោច	-9.63051
ហ្គែន	-9.63051
ឡាប៊ុង	-9.63051
អន្តរាយ	-9.63051
អ៉ឺរ៉ុប	-9.63051
ឥសាន	-9.63051
៨៤៩៨	-9.63051
កវីនិពន្ធ	-9.63051
គីឡែត	-9.63051
ច្រងាង	-9.63051
ច្រឹក	-9.63051
ឆ៍	-9.63051
ជំនួប	-9.63051
ជ័យលាភី	-9.63051
ជ្រោកកោន	-9.63051
ជ្រំ	-9.63051
ញាត់	-9.63051
ញ៉ង់	-9.63051
ញ៉ុម	-9.63051
ដំបូន្មាន	-9.63051
ដ្បិត	-9.63051
ដ្រូន	-9.63051
ឌុក	-9.63051
តិរច្ឆាន	-9.63051
ទឹម	-9.63051
ទំងន់	-9.63051
ធ្លក	-9.63051
បញ្ឃប់	-9.63051
បញ្ច្រាស	-9.63051
បញ្ផាក់	-9.63051
បឺឌី	-9.63051
ប៉ាស៊ីហ្វិក	-9.63051
ប៉ូឡូញ	-9.63051
ផ្តាច់ព្រ័ត្រ	-9.63051
ផ្ឡែ	-9.63051
ពុទ្ធោ	-9.63051
មយយ	-9.63051
មុង	-9.63051
មូស្កូ	-9.63051
មេឃ	-9.63051
ម៉ម	-9.63051
ម៉ុង	-9.63051
រំលត់	-9.63051
ល្បិច	-9.63051
សក្ខីកម្ម	-9.63051
សុបិន	-9.63051
សះរ៉ស់	-9.63051
ស្កេប	-9.63051
ស្តុប	-9.63051
ស្វាយជុក	-9.63051
ហាន់	-9.63051
ហាស្សា	-9.63051
ហិរញ្ញវត្ថុ	-9.63051
អក្ខរាវិរុទ្ធ	-9.63051
អត្ថន័យ	-9.63051
អទ្រាធ	-9.63051
អារ៉ាប់	-9.63051
អេស្ប៉ាញ	-9.63051
អ្នកសារពត៍	-9.63051
ឥណ្ឌូ។	-9.63051
ឧកញ្ញ៉ា	-9.63051
ឧទ្ទិស	-9.63051
ក្រឹត្យា	-9.63051
គាន	-9.63051
ជជុះ	-9.63051
ញោះឲ្យ	-9.63051
ម៉ុល	-9.63051
រ៉ូម	-9.63051
វស្សា	-9.63051
សក្កានុពល	-9.63051
សាអូឌីត	-9.63051
សិប	-9.63051
សីុក្លូ	-9.63051
ហៀប	-9.63051
អត្តចរិត	-9.63051
ហ្គាវ	-9.63051
ព្រះគម្ពីរ	-9.63051
សារ៖	-9.63051
ហម	-9.63051
អេង	-9.63051
តោង	-9.63052
ខាសា	-9.63056
កូកាកូឡា	-9.63057
គ្រូស្នេហ៍	-9.63057
ព្រះចៅ	-9.63057
ចំនាយ	-9.63057
ឈាម	-9.63057
ពឹងតែ	-9.63057
មហាលា	-9.63057
ព្រៃឈរ	-9.63057
កាត់ប្រាក់	-9.63057
កាលវេលា	-9.63057
អាមេរិក	-9.63057
កំភ្លេច	-9.63057
ត្រូវការពឹង	-9.63057
ទុក្ខលំបាក	-9.63058
ជិតស្និទ្ធ	-9.63058
៦៨១	-9.63058
គឹវា	-9.63058
ថ្ងៃពុធ	-9.63058
ម៉ាថា	-9.63058
អត់បង់	-9.63058
គោចរ	-9.63058
មេទ្វារ	-9.63058
សួរឲ្យ	-9.63058
កូថា	-9.63058
ក្រណាត់	-9.63058
ញ៉ូវ៉ោល	-9.63058
វិចខ្ចប់	-9.63058
អាបាស	-9.63058
ឌីលី	-9.63058
អនុវិទ្យាល័យ	-9.63058
ទីតាំង	-9.63058
ផ្លាកទីន	-9.63058
ហួសចិត្ត	-9.63058
អំពូលភ្លើង	-9.63058
។មន្ទីរ	-9.63058
ក៏ដូចជា	-9.63058
ទៅដោយ	-9.63058
រ៉េមី	-9.63058
សាំស៊ុង	-9.63058
ស្ទីល	-9.63058
កំពង់បាយ	-9.63059
រឿងក្តី	-9.63059
ស្រកចុះ	-9.63059
កំរោង	-9.63059
ខាងលិច	-9.63059
កាត់គូរ	-9.63059
ជំរាបសួរ	-9.63059
២០១០	-9.63059
សំពាធ	-9.63059
សុឆន្ទៈ	-9.63059
មាជ	-9.63059
ចូលរៀន	-9.6306
នីង	-9.6306
ព្រះរាជ	-9.6306
ឪកាស	-9.6306
វែកចក	-9.6306
ទន្ទឹមនឹង	-9.6306
កោត	-9.63062
អន្តរកម្ម	-9.63062
ហេម	-9.63063
គួរលឹក	-9.63064
ទៀប	-9.63064
ហូអេ	-9.63065
ទទួលបាន៖	-9.63065
អញ	-9.63065
បឋម៖	-9.63066
រ៉ូវ	-9.63066
ហាមមី	-9.63068
៦៣០	-9.63071
៥៨៩	-9.63073
ហេត	-9.63084
ម្រាម	-9.631
លាក់បាំង	-9.63125
គ្រឿងអលង្កា	-9.63127
ការពិនិត្យ	-9.63144
ការផ្តោត	-9.6315
ការលក់	-9.63157
ការធម្មតា	-9.63161
ការរន្ធត់	-9.63165
ជួប	-9.6317
ការរៀន	-9.63175
ការច្បាំង	-9.63177
១៧	-9.63179
យល់ព្រម	-9.63182
ភ្ញាក់ផ្អើល	-9.63184
២១១	-9.63197
បាក់	-9.63197
ការក្តី	-9.63216
ផលិតផល	-9.63229
កំដៅល	-9.63273
ធ្វើដំណើរ	-9.63283
ពួក	-9.63287
៦៥	-9.63288
នាយប់	-9.63291
រដ្ឋមន្ត្រីល	-9.63293
កែសម្រួល	-9.63294
បម្លែង	-9.63297
ត្រាតែ	-9.63298
សាទរ	-9.63304
សាក	-9.63316
ចោទ	-9.63317
សុខភាព	-9.63319
តុលាការ	-9.6333
គលំដាប់	-9.63338
កុហក	-9.63338
ជារៀងរាល់	-9.6334
ការប្រព្រឹត្តការ	-9.63343
សន្ធិសញ្ញា	-9.63345
បញ្ចប់	-9.63349
ប្រម៉ូសិន	-9.63353
តាយ	-9.6336
វិសាលភាព	-9.6336
ម៖	-9.63362
លះបង់	-9.63371
ឥរិយាបថ	-9.63377
ឱ	-9.63379
ស្តី	-9.6338
ទេវរាជ	-9.63382
សំណេ	-9.63383
ស្ថានភាពង	-9.63385
ឡើ	-9.63385
រាបណា	-9.63387
ណូយ	-9.63391
តំរូវ	-9.63393
វ៉ាង	-9.63394
ជនក្បត់	-9.63397
តេយ្យ	-9.634
មេសា	-9.63402
បសស	-9.63404
ទល់នឹង	-9.63409
ពីបាទ	-9.63411
ថ្ងៃអង្គា	-9.63415
អចន	-9.63417
ការលុបបំបាត់	-9.63419
ភោគ	-9.6342
ការលា	-9.63421
អ្នកដំណើរ	-9.63422
រីកមុខ	-9.6343
១២៦	-9.63431
ចយ	-9.63431
ការឈ្នះ	-9.63434
២៣តុលា	-9.63441
៨៥	-9.63461
ទាមទារ	-9.63472
ទុកចិត្ត	-9.63494
ម	-9.63494
យុវនារី	-9.63494
ល្បឿន	-9.63494
ការខ្លាច	-9.63495
យន្តការចាំ	-9.63502
ការសូត្រ	-9.63523
ភាពរស់	-9.63528
ប្រេងកាល់	-9.63528
ឥណ្ដូនេស៊ី	-9.63528
ការប្រកួតប្រជែង	-9.63529
សើចចំអក	-9.63535
ទុក្ខវេទនា	-9.63536
ការដេក	-9.63537
ការចងក្រង	-9.63555
ខែកុម្ភ	-9.63558
បទប្បញ្ញត្តិ	-9.63565
ហេរ៉ូអ៊ីន	-9.63565
ឯតទគ្គកម្ម	-9.63565
កាត់សេចក្តី	-9.63565
ណែនាំឱ្យ	-9.63571
ប្រតិបត្តិករ	-9.63573
ឃាត់	-9.6359
ជំរុញ	-9.63592
ផូស្វាត	-9.63604
កាត្វកិច្ច	-9.63604
ព្យុះសង្ឃរា	-9.63604
ការស្រូប	-9.63606
ភាពត្រជាក់	-9.63613
អាក្រាត	-9.63617
ចែចង់	-9.6362
ស៊ុំ	-9.63624
ថា	-9.63638
ស្កប់ចិត្ត	-9.63641
ខំប្រឹងប្រែង	-9.63648
រំពឹងទុក	-9.63649
ច្បាស់	-9.63666
ដកថយ	-9.63673
រលឹក	-9.63678
រៀ	-9.63678
វិសាល	-9.6369
ជំនាញ	-9.63692
លម្អ	-9.63693
រិន	-9.63694
ត្រាប់	-9.63702
កោះ	-9.63702
ក្មេង	-9.63702
វិទ្យាល័យ	-9.63711
តោ	-9.63715
ហាយ	-9.63716
សិន	-9.63716
សារ៉ា	-9.63717
លង	-9.63718
និក	-9.63721
ស្ដី	-9.63722
តម្លៃ	-9.63722
នាឡិកា	-9.63722
ប៉ាន់	-9.63723
កម្ពស់	-9.63723
រួច	-9.63727
ហ្គេមស៍	-9.63727
ឡេី	-9.63728
ហ្នឹង	-9.63728
ប៉ៃលិន	-9.63728
ពោធិ៍សាត់	-9.63728
រណសិរ្ស	-9.63729
ឡាំពិក	-9.63729
កម្ពុជា	-9.63729
ហង់	-9.63729
ពង់ចាម	-9.63729
និមួយ	-9.63729
ម៉េច	-9.63729
ស្លៀក	-9.63729
ស្អុយ	-9.63729
ដិត	-9.63729
បាណន់	-9.63729
ផ្គើ	-9.6373
ចែង	-9.6373
ខ្ចប់	-9.6373
កំពូល	-9.63735
លាភ	-9.63735
សិង្ហបុរី	-9.63735
ប៉ាង	-9.63735
ចន្ថា	-9.63736
ដាវីឌ	-9.63736
អវៈយវៈ	-9.63736
កណ្តៀ	-9.63736
កម្ពោជិក	-9.63736
ការរិត	-9.63736
កាហ្វេ	-9.63736
កោះឡំ	-9.63736
ក្សេមក្សាន្ដ	-9.63736
គណៈកម្មាការធិការ	-9.63736
ចតុកោណ	-9.63736
ចន្ទ្រា	-9.63736
ឆ្គួត	-9.63736
ជល់	-9.63736
ជំរៅ	-9.63736
ជ្រែង	-9.63736
ដំប៉ៅ	-9.63736
តាឡិន	-9.63736
តុក្កតា	-9.63736
តោះ	-9.63736
ថោក	-9.63736
ទីម័រ	-9.63736
ទីវង្គត់	-9.63736
បក្សី	-9.63736
បន្ទួច	-9.63736
បន្លែ	-9.63736
ប្អៀរ	-9.63736
ព្រឹក្សា	-9.63736
ម៉េត	-9.63736
រង្គាល	-9.63736
វល្លិ៍	-9.63736
វិនាស	-9.63736
សមុទ្ទ	-9.63736
សុភាពនារី	-9.63736
ស្រវ៉ា	-9.63736
ស្សូហ្កូ	-9.63736
ហេស៍	-9.63736
ហ៎្មង	-9.63736
ហ្ស៊ុយ	-9.63736
អត្តពលកម្ម	-9.63736
អារ៉ែង	-9.63736
អាហ្វហ្គានីស្ថាន	-9.63736
អាឡែហ្សី	-9.63736
អុច	-9.63736
កំរិត	-9.63736
ឃុន	-9.63736
ចាក់សោរ	-9.63736
ឆ្អែត	-9.63736
ជាន់	-9.63736
ជ្រួញ	-9.63736
ញ្ជ្រិល	-9.63736
ដាមុិច	-9.63736
ដំនោះ	-9.63736
ណាហ្សីប	-9.63736
ណេប	-9.63736
ត្រូវការចំបាចច់	-9.63736
ថៃ្ឆ	-9.63736
ទុច្ចរិត	-9.63736
បញ្ជៀប	-9.63736
ប៉ូឡេណេស៊ី	-9.63736
ប្រសិទ្ធីវង្ស	-9.63736
ផស់	-9.63736
ពិព័រណ៌	-9.63736
មនស្ស	-9.63736
មហស្ចារ្យ	-9.63736
មាយាទ	-9.63736
មីុ	-9.63736
ម៉េត្រ	-9.63736
ម្លេះ	-9.63736
ម្ល៉េះ	-9.63736
រជ្ជកាល	-9.63736
រមៀត	-9.63736
វិំញ	-9.63736
សង្ក្រាន្ដ	-9.63736
សង្គេត	-9.63736
សន្លឹក	-9.63736
សេ្នហា	-9.63736
សំណូក	-9.63736
ហ៊ីរ៉ូហ្វូមី	-9.63736
ហ្កេម	-9.63736
អត្តបទ	-9.63736
អាដាម	-9.63736
អាវុធហត្ថ	-9.63736
អ៊ីនធើណេត	-9.63736
អ៊ឹុម	-9.63736
ឧក្រឹដ្ឋ	-9.63736
្តិការទេ្វ	-9.63736
កញ្ចប់	-9.63736
ក្រឡែត	-9.63736
គ្រួស	-9.63736
ណារ៉ុន	-9.63736
ប្រឆំាង	-9.63736
ស្លូវេនី	-9.63736
ឡាអ៊រ៍	-9.63736
ជាអាទិ	-9.63736
ហោង	-9.63737
សំពៅ	-9.63737
ម៉ានី៖	-9.63737
ស៊ីរី	-9.63738
មូលដ្ឋាន	-9.63739
សាច់ប្រាក់	-9.6374
ព្រះពរ	-9.63741
ព្រឹត្តិបត្រ	-9.63741
១៩៩០	-9.63742
ឡេន	-9.63742
រាក់ទាក់	-9.63742
កាកបាទ	-9.63742
ការបោះត្រា	-9.63742
លុបចោល	-9.63742
សុភាសិត	-9.63742
កកន	-9.63742
រ៉ូណា	-9.63742
ចង់ឱ្យ	-9.63742
សារ៉ាន់	-9.63742
ខែម្តង	-9.63742
ព្រះសព	-9.63742
មកវិញ	-9.63742
យូដា	-9.63742
លោកស្រី	-9.63742
តោឲ្យ	-9.63742
លង់លក់	-9.63742
កន្លងទ	-9.63742
លំនាំ	-9.63742
លទ្ធផល៖	-9.63743
ឫងាយ	-9.63743
ល្ខោន	-9.63743
ធន់ទ្រាំ	-9.63743
សំរោងទង	-9.63743
ខាងតែ	-9.63743
ប៉ាតង់	-9.63743
គូព្រេង	-9.63743
ជនបទ	-9.63743
បាត្រា	-9.63743
មិត្ដស្រី	-9.63743
សិង្ហបុរី៖	-9.63743
ទូទាំង	-9.63743
វា៖	-9.63743
ស្រែង	-9.63743
នាំមុខ	-9.63743
បន្ថែមទាំង	-9.63743
បេឌី	-9.63743
ម៉ាឆ្ងាញ់	-9.63743
បាក់ទឹកចិត្ត	-9.63743
សកល	-9.63743
សំចៃ	-9.63743
២៧១៨	-9.63743
កាមរី	-9.63744
ថ្ងៃស្អែក	-9.63744
កាច	-9.63744
ក្របៅ	-9.63744
សូង	-9.63744
៤៧៣៤	-9.63744
ការព្រួយបារម្មណ៍	-9.63744
លួងចិត្ត	-9.63744
អនឡាញ	-9.63744
ឆៃលីន	-9.63744
បី៖	-9.63744
មូយចំនួន	-9.63744
ក្នុល	-9.63745
ក្រាល	-9.63745
ទើបនឹង	-9.63745
ចុមក	-9.63745
ស៊ីញ៉ូ	-9.63745
អ៊ីលីហ្សា	-9.63745
កសិដ្ឋាន	-9.63746
អគរ	-9.63749
២៥១១	-9.63749
ខ្ពប	-9.63749
ជាដដែល	-9.63751
អសីលធម៌	-9.63751
ក្របក	-9.63751
អប្រិយ	-9.63751
សួរ៖	-9.63752
តាមរយៈ	-9.63752
គស	-9.63752
កម្មវត្ថុ	-9.63753
នាំយក	-9.63754
តមក	-9.63756
ការគ្រប់	-9.63757
ធ្វើឡើ	-9.63759
អ្នករិះគន់	-9.63762
អ្នកមាន	-9.63762
ការស៊ីប	-9.63766
អ្នកកាន់	-9.63767
នាំចេញ	-9.63772
សយ	-9.63774
ដំណើរការផលិតកម្ម	-9.63778
២០០២	-9.63792
បម្រើការ	-9.63822
៦៧៧	-9.63834
រងគ្រោះថ្នាក់	-9.6384
ការបុក	-9.6386
រៀបការ	-9.63861
សូត្រ	-9.63881
០	-9.63896
៥៣៨	-9.63906
ការគ្រោង	-9.63924
គ្នា	-9.63934
បូកបញ្ចូល	-9.63938
អភិរក្ស	-9.63944
ភាពងាយ	-9.63944
ក្លាយជា	-9.63952
កេរ	-9.63953
សំណាក់	-9.6396
បោកប្រាស់	-9.63965
កាល	-9.63967
រស់នៅ	-9.63969
ការសំដែង	-9.6397
ការទស្សនា	-9.63981
យល់ដឹង	-9.63983
បណ្តោយ	-9.63983
ដី	-9.63986
ខ្សែរ	-9.63988
ស៊ីជម្រៅ	-9.6399
ប្រុងប្រៀប	-9.63997
ការជំនួស	-9.63998
នៃ	-9.63999
ល្អ	-9.64003
សារព័ត៌	-9.64021
លេងសើច	-9.64022
រដ្ឋធម្មនុញ្ញ	-9.64024
រស់	-9.64032
យ៉ាប់យ៉ឺន	-9.64036
៦៣៦	-9.64041
ពោធិ៍សាត់៖	-9.64043
ឃោសនា	-9.6405
៣៤៦	-9.64054
ប្រចាំ	-9.64057
រាម	-9.64057
ហោស	-9.64063
ការអភិវឌ្ឍន៍	-9.64065
សួស	-9.64068
៥៦	-9.64074
៨៥០	-9.64074
កាជក់	-9.64075
ការសម្រួល	-9.64078
ពាសពេញ	-9.64078
លំអ	-9.64079
ផ្តល់ឲ្យ	-9.64084
ចំហ	-9.64094
ឡេធី	-9.64096
១៩៥៥	-9.64098
កៀត	-9.641
ភាពភ្ញាក់ផ្អើល	-9.641
១៥០	-9.64104
កំបី	-9.64105
៨១	-9.64111
មេកាំ	-9.64111
បូណ៌	-9.6413
តបណ្តាញ	-9.64135
ភ្លឺ	-9.64135
៣៦	-9.64135
១២៨០	-9.64139
៦៨៤	-9.6414
ការដើរកម្សាន្ត	-9.64144
សៀមប៉ាង	-9.6416
ការនិរទេស	-9.64161
នីតិរដ្ឋ	-9.64175
បណ្តោ	-9.64177
សេសេ	-9.6418
១១១	-9.64184
អត្រា	-9.64187
គណកម្មការ	-9.64187
ការជ្រៀត	-9.64207
សង្កេតមើល	-9.6421
៣៤១	-9.64211
ប៉ម	-9.6422
ទឹក	-9.64235
ចត	-9.64241
ដាវ	-9.64241
ដំលើង	-9.64242
ពាក់	-9.64244
ការនិពន្ធ	-9.64246
អនុញ្ញាត	-9.64248
ជម្រើសជាតិ	-9.64249
ធ្វើជា	-9.64253
រការ	-9.64259
ខារីប៊ីន	-9.64275
ការទ្រទ្រង់	-9.64278
កិត្តិយស៖	-9.64282
បង្កើន	-9.64293
អ្នកយាម	-9.64295
ប្តូរ	-9.64298
ជាំ	-9.64305
ជម្រុះ	-9.64309
ការរងគ្រោះ	-9.6431
រំខាន	-9.6431
ការកណត់	-9.64311
ព្រហ្មទ័ណ្ឌ	-9.64311
បឹងហ្គាឡូ	-9.64311
ភាពថ្លែ	-9.64311
ទឡ្ហីករណ៍	-9.64311
រត់គេច	-9.64313
បឹងកក់	-9.64317
ផ្តល់ឱ្យ	-9.64318
ស្រែក	-9.64318
ខ្មែជាប់	-9.64321
អ្នកធ្វើការ	-9.64323
អីុស្រាអែល	-9.64324
ទប់ទល់	-9.64337
ទ្រទ្រង់	-9.64339
កើតឡើង	-9.64344
អាស៊ូត	-9.6435
ធិបតីភាព	-9.64353
១៦	-9.64355
ខណៈពេល	-9.6437
ពល	-9.64373
អែន	-9.64388
១០១៣	-9.64389
កំឡុុង	-9.64392
បត្យាប័ន	-9.64392
សង្ក្រាន្ត	-9.64392
សាំបាចាញ់	-9.64392
ឡេតូនី	-9.64392
បបូរមាត់	-9.64392
អន្ដរាគមន៍	-9.64393
ថែម	-9.64398
កំណែ	-9.64399
ទៀតផង	-9.64399
រាស្ត្រ	-9.64399
លុកលុយ	-9.64402
ឃ្លា	-9.64402
ខេ	-9.64404
ករណី	-9.64404
បយាម	-9.64404
ដោយ៖	-9.64406
ព្រំ	-9.64406
២២៦	-9.64408
ទេសចរ	-9.64408
ផ្សំ	-9.6441
ការី	-9.6441
បន្ទាត់	-9.6441
សរីរាង្គ	-9.64412
ដូន	-9.64412
ហាក់	-9.64412
សៀវ	-9.64412
បរម	-9.64412
មនោរម្យ	-9.64412
សព្វ	-9.64413
ពង្រឹង	-9.64414
ក្រែង	-9.64417
ឲ	-9.64418
ទីតាំ	-9.64418
ទំនៀម	-9.64418
ម្នាក់	-9.64418
រហែ	-9.64418
និក្ខេ	-9.64418
សំណាង	-9.64418
សំរេច	-9.64418
ស្តាំ	-9.64418
ត្រែ	-9.64418
ជួស	-9.64419
រឺ	-9.64419
ពែង	-9.64419
ទម្រង	-9.64419
ស័ក្ដិ	-9.64419
ស្ថានសួគ៌	-9.64419
ស័ព្ទ	-9.64419
ស្រូវ	-9.64419
ក្រំ	-9.64419
ពីព្រោះ	-9.64419
យ្យ	-9.64419
ផាត់	-9.64419
អ្នកធ្វើដំណើរ	-9.6442
យ៉ាប	-9.64421
ក្រឡ	-9.64425
ក្រាំ	-9.64425
អែម	-9.64425
ក្រវាញ់	-9.64425
ប្លុក	-9.64425
គំនូរ	-9.64425
ដង្គំ	-9.64425
ថុល	-9.64425
ពិសិដ្	-9.64425
ភស្តុង	-9.64425
មួម៉ៅ	-9.64425
មេក្លោង	-9.64425
យៀក	-9.64425
យ៉ិន	-9.64425
រង្វិល	-9.64425
ហ្សេរុយ	-9.64425
អាឡា	-9.64425
អិនធឺណិត	-9.64425
ឧបករណ៍	-9.64425
កន្លះ	-9.64425
កម្ព	-9.64425
កម្លោះ	-9.64425
កាឡាខ្លួន	-9.64425
កោសីយ៍	-9.64425
កំប៉ិកកំប៉ុក	-9.64425
គីមីស្ទរ	-9.64425
ឃេីញ	-9.64425
ចិញ្ចឹុំ	-9.64425
ចំតិត	-9.64425
ច្រឹប	-9.64425
ឆ្ពុះ	-9.64425
ជញ្ចូន	-9.64425
ជំពូក	-9.64425
ញូអែល	-9.64425
ដូណាល់	-9.64425
ទូរដាក់	-9.64425
ធ្វេី	-9.64425
បញ្ចាក់	-9.64425
បញ្ញតិ្ត	-9.64425
បន្ទន់ចិត្ត	-9.64425
បឺហ្គឺ	-9.64425
បូស្តុន	-9.64425
ប្ដី	-9.64425
ប្រឺ	-9.64425
ភួយ	-9.64425
មូក	-9.64425
មឿន	-9.64425
ម្ទាស់	-9.64425
យឹម	-9.64425
រពើពន្ធ	-9.64425
រាប់ឡូត៍	-9.64425
ល័ក្ខ័ណ	-9.64425
វដ្ដ	-9.64425
វៀច	-9.64425
វេបសៃ	-9.64425
សង្វាក់	-9.64425
សន្ធប់	-9.64425
សម្ភាធន៍	-9.64425
សម្រង់	-9.64425
សុជីវធម៌	-9.64425
សូវ៉ាត	-9.64425
សេនធ័រ	-9.64425
សេះ	-9.64425
សំណង	-9.64425
ស្ងួន	-9.64425
ស្តេត	-9.64425
ស្តែន	-9.64425
ហឿន	-9.64425
ហ្គាសា	-9.64425
ហ្វាប្លេត	-9.64425
ហ្វុងញ្ញា	-9.64425
ឡាស	-9.64425
អការៈ	-9.64425
អធ្រាត្រ	-9.64425
អ៊ីរ៉ង	-9.64425
អ៊ុត	-9.64425
អ៊ុពាក់	-9.64425
អ្នកខ្កះ	-9.64425
ឯកសណ្ធាន	-9.64425
កិលេស	-9.64425
កុម	-9.64425
ខារ៉ាអូខេ	-9.64425
ជំនះ	-9.64425
ឈូសេត	-9.64425
តំលើង	-9.64425
នុយក្លេអែរ	-9.64425
បង្គួយ	-9.64425
បូអ៊ីង	-9.64425
ប្រជាជាតី	-9.64425
ប្រតិវេទន៍	-9.64425
ប្រត្តិបត្ត	-9.64425
ប្រទេម៉ាល់	-9.64425
ភាពកំប្លុក	-9.64425
ម្តុំ	-9.64425
ម្រូវការដង់ស៊ីតេ	-9.64425
រង្វង់	-9.64425
រំអិល	-9.64425
សារិកាលិន	-9.64425
សំណង់	-9.64425
ស្ងៀម	-9.64425
អពដ	-9.64425
អិច	-9.64425
១៩៨៨	-9.64425
ឈន	-9.64426
អាក្រក់	-9.64426
សក្តីភាព	-9.64426
ការ៉េ	-9.64426
ទីនេះ	-9.64426
សម្លឹង	-9.64426
មហារីក	-9.64427
សង្ឃរាជ	-9.64427
សាលាក្រុង	-9.64428
សវនការ	-9.64428
ឯកកោ	-9.64431
ក្តៅក្រហាយ	-9.64431
ប្រាក់ខែ	-9.64431
ក្អួត	-9.64431
ហួតហែង	-9.64431
ទេវតា	-9.64431
សាលី	-9.64431
ទទូច	-9.64432
ប្រសព្វ	-9.64432
រវក់	-9.64432
រាល់គ្នា	-9.64432
ខ្សែជាតិ	-9.64432
ភាពល្ងង់	-9.64432
ជេរ៉ូ	-9.64432
ម៉ាហ្វា	-9.64432
ខែមីនា	-9.64432
ឈ្លោះគ្នា	-9.64432
បង្ករឲ្យ	-9.64432
មន្ទីរពេទ្យ	-9.64432
សុវណ្ណរ៉ា	-9.64432
សំបុត្រ	-9.64432
អេសាយ	-9.64432
ទូរសព្ទ៖	-9.64432
កោះកុង	-9.64433
រចនាបទ	-9.64433
ជេក	-9.64433
ឈ្ងោកមក	-9.64433
២០១៣	-9.64433
ចុះបន្ទាត់	-9.64433
សុខាន់	-9.64433
ដើមឈើ	-9.64433
ថ្ងៃ៖	-9.64433
ធ្លាក់ទឹកចិត្ត	-9.64433
បង្កអោយ	-9.64433
ព្រះកេរ្តិ៍	-9.64433
ម៉ាយ	-9.64433
អាក្បត់	-9.64433
១៩៨៣	-9.64433
ការៀបចំ	-9.64433
មីញ	-9.64433
ជ្រុលជ្រួស	-9.64434
តម្រូវការជន	-9.64434
ដឹកសង្គ្រោះ	-9.64434
ថ្ពិន	-9.64434
ទាបាញ់	-9.64434
បាគង	-9.64434
សាលវ័ន្ត	-9.64434
ជូញ	-9.64434
បូកសរុប	-9.64434
មិត្តភក្តិ	-9.64434
បាទុក	-9.64434
វិជ្ជាជីវៈ	-9.64434
អគ្គិសនី	-9.64434
ផាង	-9.64435
ការទម្លាក់	-9.64436
២១៣	-9.64436
២០០៥	-9.64439
ឫស្សីកែវ	-9.64439
ផងដែល	-9.64441
៤៩៩	-9.64441
ទាវ	-9.64443
បាវ	-9.64444
ឈូត	-9.64444
សង្វៀន	-9.6445
វន្ត	-9.64457
អ្នកដឹកនាំ	-9.64458
យន្ត	-9.64485
ការរំលឹក	-9.64491
ហូ	-9.64496
ការភ្ជាប់	-9.64546
ការផ្លាស់ប្តូរ	-9.6455
អាការ	-9.64582
មាតុ	-9.64586
រក	-9.64597
ចូលមក	-9.64597
ការដួលរលំ	-9.64649
អាជីវ	-9.64654
ជន់	-9.64659
ទិដ្ឋភាព	-9.64676
ធ្វើអោយ	-9.64678
តាមដាន	-9.64682
ជួយ	-9.64683
ម៉ាស្សា	-9.64685
រារាំង	-9.64692
បឺត	-9.64693
ឈ្មោះ	-9.64695
ប៉ាឡេស្ទី	-9.64717
អ្នកប្រដាល់៖	-9.64719
តុលាកា	-9.64721
សញ្ញា	-9.64724
វេច	-9.64728
មិត្ត	-9.64733
ទៅសែន	-9.6474
រាង	-9.64743
ទៅឲ្យ	-9.64743
គ្មិន	-9.64747
ធីប	-9.6475
យ៉ាង	-9.64761
ប្រជាប្រិយ	-9.64762
អារ	-9.64769
បង្កើត	-9.6477
វិញ្ញាសារ	-9.64771
ព្រះនិពា្វន្ត	-9.64772
ធល	-9.64772
ការស្ងោ	-9.64774
ប៉ុន្ដែ	-9.64775
រត្រឹមត្រូវ	-9.64775
ទារក	-9.64776
យូនីត	-9.6478
ទន្លេ	-9.64784
វើប	-9.64785
កូកា	-9.64788
គ្រឿងណា	-9.64789
រវៀង	-9.6479
១៩៦៩	-9.64799
២៦	-9.648
ព្រះរាជាណាចក្រ	-9.64803
ណារី	-9.64808
កិច្ចព្រម	-9.64811
បញ្ជាក	-9.64812
ស្លែរ	-9.64813
ពិសា	-9.64822
ក្លាយទៅ	-9.64824
នៅក្នង	-9.64825
តទៅ	-9.64828
បីក	-9.64853
ការបម្លែង	-9.64869
ការបោះ	-9.64875
១៖	-9.64878
ការបង្ខិត	-9.64886
៥៧៦	-9.6489
ចំណាប់អារម្ភ	-9.64907
អនិតិរដ្ឋ	-9.64907
កោសល	-9.64915
ការកម្ចាត់	-9.64932
សណ្ឋាគារ	-9.64934
ការដុត	-9.64947
ចោល	-9.64971
ទិញ	-9.64972
និយម	-9.64974
ចាក់	-9.64984
សម្អាត	-9.64992
អ្នករង	-9.64999
ការបាត់បង	-9.65002
ផល	-9.65018
ផ្លាស់ប្តូរ	-9.65018
គ្រូ	-9.6502
ពិពណ៌នា	-9.65024
គ្រប់	-9.65028
តូបាហ្គោ	-9.65028
ពាយ័ព្យ	-9.65028
អ្នកនយោន	-9.65028
ឡេ	-9.65032
ការធ្លាក់ចុះ	-9.65039
ការបង្ក្រាប	-9.65058
ឆ្លុះបញ្ជាំង	-9.65064
តាំងពិព័រ	-9.65064
ប្រហែល	-9.65065
ដោយ	-9.65066
សមភាព	-9.65067
ផែនការវារី	-9.65072
លទ្ធិ	-9.65075
ញ៉ាំ	-9.65077
រាល់	-9.65081
តែងតាំង	-9.65081
រាស្រ្ត	-9.65082
ស្រាយ	-9.65086
ព្រៀង	-9.65097
ចាស់	-9.65098
ជេ	-9.65098
ជោគ	-9.651
ជូយ	-9.65101
បន្ទុក	-9.65101
សឹង	-9.65101
សន្លាង	-9.65102
សំររុកចូល	-9.65102
គ្រូពេទ្យ	-9.65103
ញឹកញាប់	-9.65104
បុរាណ	-9.65105
វណ្ណ	-9.65105
និមិត្ត	-9.65106
បុរី	-9.65106
បន្ទូល	-9.65107
ភ្លៀង	-9.65107
ស្នួល	-9.65112
ចត់	-9.65113
ខ័ណ្ឌ	-9.65113
ម្យ៉ាង	-9.65113
បាល់	-9.65113
ពុធ	-9.65113
ម៉ាន់	-9.65113
ដែន	-9.65113
ក្រី	-9.65113
ឆ្នេរ	-9.65113
សេអ៊ូល	-9.65113
ស្ករ	-9.65113
វ៉ាស៊ីនតោ	-9.65114
តប	-9.65114
ប៉ោះ	-9.65114
បឹង	-9.65114
ពូល	-9.65114
យើង	-9.65116
តបត	-9.65116
ចៅហ្វា	-9.65118
ក្រីក្រ	-9.65118
ចោម	-9.65119
កាដាហ្វី	-9.6512
ខ្មាំង	-9.6512
ច្រមុះ	-9.6512
ជាកំហិត	-9.6512
ជាដើ។	-9.6512
ឈ្មួញ	-9.6512
ដំរី	-9.6512
ទុក្ករ	-9.6512
ទ្រុង	-9.6512
នាវាចរណ៍	-9.6512
ប័រ	-9.6512
ព្រះឱរស	-9.6512
រំសេវ	-9.6512
សុគត	-9.6512
ហិចតា	-9.6512
ហ្សៀត	-9.6512
អាណានិគម	-9.6512
អាប់	-9.6512
ឧបទេ្ទវ	-9.6512
កល់	-9.6512
ការរដ្ឋាន	-9.6512
កើតហតុ	-9.6512
កំបូល	-9.6512
កំរាស់	-9.6512
ក្រខ្សត់	-9.6512
ក្រញូង	-9.6512
ក្លាច	-9.6512
ខេមបូឌា	-9.6512
ខ្ញុំ្ក	-9.6512
ខ្នុរ	-9.6512
គំនរ	-9.6512
ចំណោច	-9.6512
ឆ្កួត	-9.6512
ជញ្ជាំង	-9.6512
ជិន	-9.6512
ជីវចល	-9.6512
ជុច	-9.6512
ដឺរ៉េន	-9.6512
តាម៉ាំង	-9.6512
ទីនេោះ	-9.6512
ទីរ៉ូអ៊ីត	-9.6512
ទំហុំ	-9.6512
ធ្វឡើង	-9.6512
និរន្ដរ៍	-9.6512
បណ្តើរ	-9.6512
បន្ទាប	-9.6512
បំនង	-9.6512
ប៊ិញ	-9.6512
ប៊ុលហ្គារី	-9.6512
ផ្ដៅ	-9.6512
ភារុណ	-9.6512
មនោគម	-9.6512
មូសាហ៊ីត	-9.6512
មូហ្គឺរី	-9.6512
ម៉ិញ	-9.6512
ម្ចាស់ក្សត្រី	-9.6512
រដ្ឋរ៉ាឃីន	-9.6512
រាគរូស	-9.6512
វិក្កយបត្រ	-9.6512
វេបសាយ	-9.6512
សណ្តាន់	-9.6512
សន្ធិញ្ញា	-9.6512
សប្ដាហ៍	-9.6512
សិក្ខារ	-9.6512
សុក្រិត	-9.6512
សេរីលង្កា	-9.6512
ស៊ីញ៉េ	-9.6512
ស្នេហារ៍	-9.6512
ស្លត់	-9.6512
ហាន់ស៍	-9.6512
ហូជីមីញ	-9.6512
ហ្រ្វាំង	-9.6512
អញ្ចាញ	-9.6512
អំបិល	-9.6512
អ៊ីមែល	-9.6512
អ៊ុំ	-9.6512
ឧដុង្គ	-9.6512
កម្ដៅ	-9.6512
ងាប់	-9.6512
ចង្អល	-9.6512
ច្បិច	-9.6512
ជ្រះថ្លា	-9.6512
តំរួត	-9.6512
ថប់	-9.6512
ថ្ញៃទី	-9.6512
ថ្វីដិ្បត	-9.6512
ទិន្នន័យ	-9.6512
ទំរង់	-9.6512
ទ្រនាប់	-9.6512
ធ្នង់	-9.6512
និគម	-9.6512
ផ្តោច	-9.6512
ម៉ូលី	-9.6512
សង្ឍឹម	-9.6512
សន្និសីទ	-9.6512
សម្ដេច	-9.6512
អន្ដរជាតិ	-9.6512
អាជីវម្ម	-9.6512
អៀរឡង់	-9.6512
ព្យុះសង្ឃ	-9.6512
ពក	-9.65121
ស៊ីន	-9.65121
ទ្រី	-9.65121
ជប៉ុន	-9.65121
រដ្ឋមន្រ្តី	-9.65123
កេរតំណែល	-9.65126
ប្រើន	-9.65126
អេកូឡូស៊ី	-9.65126
សារិន	-9.65126
បន្តបង្ក	-9.65126
សាច់រឿង	-9.65126
ក្រហ៊ុន	-9.65126
ផ្សារភ្ជាប់	-9.65126
សាធី	-9.65126
លៀន	-9.65126
បាងកក	-9.65127
ក្តារ	-9.65127
ចង់ស្រី	-9.65127
ស្ទើរតែ	-9.65127
វីតាមីន	-9.65127
ស័ក្តិសម	-9.65127
អេលាប	-9.65127
កូតា	-9.65127
គែម	-9.65127
កាលដ៍	-9.65127
ចាម៉ាល់	-9.65127
ផ្ដល់ជូន	-9.65127
រដូវ៖	-9.65127
សូចុច	-9.65127
ទួក	-9.65127
ក្រចេះ	-9.65127
មួយចំនួន	-9.65127
ហាយវ៉េ	-9.65127
ហ្នឹងឯង	-9.65127
អេ៖	-9.65127
២៦៨	-9.65127
រូបភាព៖	-9.65128
រោគក	-9.65128
សំបុរ	-9.65128
ស្ទះ៖	-9.65128
ក្រោយជាតិ	-9.65128
បាយ៉ាប	-9.65128
មកហើយ	-9.65128
ជំនុំនេះ	-9.65128
ទៅកាប់	-9.65128
ផ្តេក	-9.65128
រតនៈគិរី	-9.65128
រៀល	-9.65128
ចិញ្ចើមផ្លូវ	-9.65128
ហ៊ុល	-9.65128
អគ្គិភ័យ	-9.65128
ផុសផុល	-9.65129
សំអ៊ាន	-9.65129
ស៊ីរូង	-9.65129
អាចនឹក	-9.65129
ថ្វាយ	-9.65129
ការសាកល្បង	-9.65132
អសារ	-9.65133
អាជីវករ	-9.65133
ស្រង់	-9.65136
រដ្ឋភិបាល	-9.65137
អយុត្តិធម៌	-9.65139
ទួលគោគ	-9.65143
ហេងបស់	-9.65143
យ៉ាំងហ្គោន	-9.65143
លូកា	-9.65147
ចម្លើយតប	-9.6515
ប្រកបទៅ	-9.65151
ជាក់លាក់	-9.65151
អ្នករកស៊ី	-9.65151
ការផ្ញើ	-9.65153
លឹក	-9.65166
អ្នកអភិវឌ្ឍន៍	-9.65171
ការទិញ	-9.65172
អ្នកគាំទ្រ	-9.65172
អនុភាព	-9.65187
រាំ	-9.65205
ក្រឡាហោ	-9.65212
ការវិញ	-9.65223
ពេញចិត្ត	-9.65224
ការរំឭក	-9.65231
ការកិន	-9.6526
រាជការ	-9.65265
ការប្រណាំង	-9.65277
អា	-9.65282
ការគ្រប់គ្រង	-9.65288
ដល់ទៅ	-9.65291
ប្ដេជ្ញាចិត្ដ	-9.65324
ភាគ	-9.65327
ផ្អាក	-9.65328
យកចិត្ដ	-9.6533
បស់់	-9.65331
លេច	-9.6535
ប្រកាន់	-9.65351
វាយតម្លៃ	-9.65361
ស្រាវជ្រាវ	-9.65361
អធិបតី	-9.65375
កាន់អំណាច	-9.6538
ធម្មតា	-9.65381
អរគុណ	-9.65395
០៧	-9.654
៤	-9.65401
សន្មត់	-9.65431
ការម៉ាស្សា	-9.65434
ឃ្លីប	-9.6544
ចម្រើន	-9.65446
វីត	-9.65448
ព្រះវរ	-9.65457
កាតា	-9.65457
ទប់	-9.65459
លីក	-9.65462
១២០០	-9.65462
ខុន	-9.65466
ក្លែងខ្លួន	-9.65468
ឆាបឆេះ	-9.6547
ជម្រៅចិត្ត	-9.65474
តំណែង	-9.65474
ប្រណីត	-9.65478
ឲ្យបាយ	-9.65478
សេរីភាព	-9.65482
រដ្ឋបាល	-9.65483
៩៣៣	-9.65483
សំលេង	-9.65483
គឺ៖	-9.65489
១២៤	-9.65497
ក្រូស	-9.6551
១៦០០	-9.65513
មហាធាមា	-9.65523
មណីយដ្ឋាន	-9.65525
សព្រាត	-9.65525
៥២៨	-9.65528
រថ	-9.65531
រួចហើយ	-9.65553
ការបន្ថែម	-9.65556
អ៊ិនធឺណេត	-9.6556
ងាយ	-9.65566
លប់	-9.65578
៣២០	-9.65592
ការគាបសង្កត	-9.65595
២០៥	-9.65608
ខាងក្នុង	-9.65611
ឥណ្ឌូណេស៉ី	-9.65618
ការលួច	-9.65625
ការប្រឈម	-9.65627
មេធាវី	-9.65631
ពីរដ្ឋ	-9.6565
គូសបន្ទាត់	-9.65675
ធ្វើបាប	-9.65684
ជូនដំណឹង	-9.65685
ពារ	-9.65692
សមស្រម	-9.65701
ដំធ្វើ	-9.65703
សើរ	-9.65705
បើសិនជា	-9.65711
សុំទោស	-9.65715
គ្រឿងញៀ	-9.65717
អ្នកសារពតិ៍	-9.65723
បើសិនដោះ	-9.65729
ចេញផ្សាយ	-9.6573
អ្នកប្រកាន់	-9.65743
បង្កាន់ដៃ	-9.65754
ចក្រពន្តិនិយម	-9.65754
ចរាចរណ៌	-9.65754
ខ្សែក	-9.65756
ខ្សែភ្នែក	-9.65761
មេមន្ទីរ	-9.65763
ប្រឹង	-9.65771
លង់	-9.65783
ពឹង	-9.65786
លើញត្តិ	-9.65794
កាសែត	-9.65795
តុន	-9.65797
ចល័ត	-9.65799
រោម	-9.65799
ញាតិ	-9.658
៤៨៥	-9.65801
ដាយ	-9.65804
អាំ	-9.65805
ម៉ាល់	-9.65805
ហេតុ	-9.65805
រក្ស	-9.65806
តិច	-9.65806
គាត់	-9.65806
ឡប់	-9.65811
ចុះហត្ថ	-9.65811
ទ័ព	-9.65811
ប៊ុក	-9.65812
ជុំគ្នា	-9.65812
ចម្លាក់	-9.65812
អំពើពុករលួ	-9.65812
ដែនដី	-9.65812
ងូត	-9.65812
ចម្ប៉ា	-9.65812
គ្លីន	-9.65813
ញត្តិ	-9.65813
នៅលើ	-9.65813
កសិករ	-9.65813
បាង	-9.65815
លំហែ	-9.65818
ចំអក	-9.65818
ព្រះសីហនុ	-9.65818
សម្តែ	-9.65818
ថា៖	-9.65819
ជួបគ្នា	-9.65819
បៃតង	-9.65819
ពោត	-9.65819
យន់	-9.65819
កើយ	-9.65819
គ្នាំ	-9.65819
ចរាចរណ័	-9.65819
ឆ្នើម	-9.65819
ជ្រកកោន	-9.65819
តឹម	-9.65819
បង់លុយ	-9.65819
ប៉ុណ្ណេះ	-9.65819
ពាមរក៍	-9.65819
លក្ខខ័ណ្ឌ	-9.65819
វិជ្ជសាស្ត្រ	-9.65819
វីហ្សា	-9.65819
សង្រ្គាន្ត	-9.65819
ហើម	-9.65819
៘	-9.65819
កាណុង	-9.65819
កូម៉ូទ័រ	-9.65819
ខិល	-9.65819
ខែវិច្	-9.65819
គ្រិស្ដ	-9.65819
គ្រីស្តាល់	-9.65819
ឃើត	-9.65819
ឃ្មួញ	-9.65819
ចីរភាព	-9.65819
ឆ្នេសមុទ្រ	-9.65819
តឹន	-9.65819
ទព័ជើង	-9.65819
ទឺក	-9.65819
ទែង	-9.65819
ទំនេរ	-9.65819
ធុង	-9.65819
ធុន	-9.65819
បិណ្ឌ	-9.65819
ប៉ិនប្រសព្វ	-9.65819
ផ្លុំ	-9.65819
មោហៈ	-9.65819
ម្រោម	-9.65819
ម្សាញ់	-9.65819
រមណីដ្ឋាន	-9.65819
រស់រាន	-9.65819
រំចេក	-9.65819
វប្បធម៌	-9.65819
វិជ័យ	-9.65819
វិប្បត្តិ	-9.65819
សម្ភ័រ	-9.65819
សាំយ៉ូអែល	-9.65819
សៀប	-9.65819
សំអុន	-9.65819
ស្ទ្រី	-9.65819
ស្រ៊ឺ	-9.65819
ស្វាមី	-9.65819
ហ្គាហ្សា	-9.65819
ហ្មង	-9.65819
ហ្មៃ	-9.65819
អន្លើ	-9.65819
អាហ្រ្វិក	-9.65819
ច្រលន	-9.65819
ជង្រុក	-9.65819
ជែន	-9.65819
ព័ត៏	-9.65819
មជ្ឈដ្ឋាន	-9.65819
យុត្តាធិការ	-9.65819
រកបឆន	-9.65819
សតវត្ស	-9.65819
សម្ពាព	-9.65819
សាមួន	-9.65819
សំឡឹង	-9.65819
តថភាព	-9.65819
លោកគ្រូ	-9.65819
ផលប៉ះពាល់	-9.6582
ការកម្មង់	-9.65821
ក្រមសីលធ	-9.65823
ប្រហាក់	-9.65823
ព្រះហស្ត	-9.65823
អេស៉្បាញ	-9.65823
ត្រពាំង	-9.65823
ព្រឹទ្ធភិរម្យ	-9.65824
សាមាន	-9.65825
សាម	-9.65825
១៨៩	-9.65825
ក្រពេញ	-9.65825
ខែមិថុនា	-9.65825
ហួន	-9.65825
អាងទឹក	-9.65825
ក្តីបារម្ភ	-9.65826
នរណា	-9.65826
យ៉ាងតិច	-9.65826
សុវឌ្ឍនា	-9.65826
ក្វាន់៖	-9.65826
វីដេអ៊ូ	-9.65826
មើលងាយ	-9.65826
វេចខ្ចប់	-9.65826
ស្មើគ្នា	-9.65826
កុំយក	-9.65826
ក្តីសង្ឃឹម	-9.65826
យមរាជកាត់សេចក្តី	-9.65826
សឹង្ហបុរី	-9.65826
កំពែង	-9.65826
ក្លៃ	-9.65826
ផ្លូវភេទ	-9.65826
ពលការិនី	-9.65826
ព្រះច្បង	-9.65826
ទីកន្លែង	-9.65826
ជូនពលករ	-9.65827
បាត់ខ្លួន	-9.65827
ព្រៃឈើ	-9.65827
លែនត៍	-9.65827
ក្រញ៉ូ	-9.65827
សង្កូវ	-9.65827
សម្អាត៖	-9.65827
កាំរស្មី	-9.65827
លេយ	-9.65827
ក្មេងប្រុស	-9.65827
ជឿង	-9.65827
ទោលើ	-9.65827
បូររិន	-9.65827
អានី	-9.65827
វេរ៉ង់	-9.65827
អីចឹង	-9.65827
៧១៣	-9.65827
យេញ	-9.65827
៦៨២	-9.65827
ភូមិសាស្រ្ដ	-9.65827
ក្លិប	-9.65827
ដួងចិត្ត	-9.65827
ហាម៉ាស់	-9.65827
ដេល	-9.65828
សម្បុក	-9.65828
មេគយ	-9.65828
ហ្វីលីពីន៖	-9.65828
អ៊ីម៉ិច	-9.65828
ដំណើរការវិវត្តន៍	-9.65828
កាត់ទុក	-9.65828
វិធីសាស្រ្ដ	-9.65828
អ៊ីញ	-9.65828
ខង	-9.65828
ហ្គេមដ៍	-9.65828
ឆអគារ	-9.65828
បាពួន	-9.65828
រអ៊ូ	-9.65828
ខែឧសភា	-9.65829
ការបំពាន	-9.6583
ចារឡើង	-9.6583
អូរបែក	-9.6583
ការឈ្លានពាន	-9.6583
យុត្តិកម្ម	-9.65831
ប្រជាកសករទទួលបាន	-9.65831
១២៩	-9.65835
ទូកង	-9.65835
អាស៊ីត	-9.65835
សេនី	-9.65838
ចារកិច្ច	-9.65841
នគរ	-9.65847
ការចេញ	-9.65848
វរវៀង	-9.6585
ការលប	-9.6585
អ្នកប្រាជ្ញ	-9.65851
អជ្ញាជាតិ	-9.6586
សំបេារ	-9.6586
តម្រួត	-9.6586
ប្រៀនប្រដៅ	-9.6586
ទឹកភ្នែក	-9.65861
ត្រាស់បង្គាប់	-9.65866
ពីរងរបួស	-9.65868
បល	-9.65874
២១១០០០	-9.65874
នៅក្នុ	-9.65884
ការបង្ក្រា	-9.6589
រអិល	-9.65894
ខ្មែរ	-9.65895
ទទេ	-9.65896
ចេនឡា	-9.65901
ដោយឡែក	-9.65902
សាលក្រម	-9.65908
ភេសជ្ជៈ	-9.65908
មួលហេតុ	-9.65908
គឺជា	-9.65909
សំអាល់	-9.65909
ពន្លឺលម្អ	-9.65909
សំបួ	-9.65914
មីកា	-9.65928
ការពឹងផ្អែក	-9.65932
ការរារាំង	-9.65934
ការអភិវឌ្ឍ	-9.65941
គួរសម	-9.65951
ការធ្លាយ	-9.65952
គណៈកម្មការការពារ	-9.65987
ប្រាំពី	-9.65988
ឈាន	-9.6599
ឲ្យ	-9.66014
ពីក្រោយ	-9.66034
ភាពចម្រើន	-9.66057
ទូទៅ	-9.66063
ហែរ	-9.66074
ក្លាយទោ	-9.66087
តវ៉ា	-9.66089
ទូល	-9.6609
តាមរយ	-9.66098
ស្តារ	-9.66108
ពូកែ	-9.66114
ការរងចាំ	-9.66119
មក	-9.66126
តក់ស្លុត	-9.66134
១៩០	-9.66134
សចម្រៀង	-9.66135
ប្តេជ្ញាចិត្ត	-9.66139
រីកចំរើន	-9.66139
ចំហរ	-9.66143
ភាពស្ទុះ	-9.66145
ចៅក្រម	-9.66151
ថូ	-9.66154
ដដែល	-9.66158
លម្អៀង	-9.66158
ឆ្លាត	-9.66159
របរ	-9.66161
ប្រលង	-9.66162
សណ្ត	-9.66165
ទទួច	-9.66166
ពាស	-9.66173
យុជន	-9.66176
ណាមក	-9.66176
ស្គា	-9.66178
ធ្លាក់ចុះ	-9.66182
ពន្ធនាការ	-9.66185
ភាពរលោង	-9.66185
ហើយច្របល់	-9.66188
លូន	-9.66188
ភាពជឿជាក់	-9.66188
ការច្នៃ	-9.6619
ភូត	-9.66191
គ្រីស	-9.66192
វិនិច្ឆ័យ	-9.66195
វីសា	-9.66201
បរិក្ខារ	-9.66209
ជីតា	-9.66213
បន្សុទ្ធកម្ម	-9.66217
ខុសពី	-9.6622
ការទុកដាក់	-9.66222
លូវ	-9.66223
២១៥៣	-9.66226
៤៦	-9.66231
១៤៖	-9.66232
ការផ្លាស់	-9.66236
អគតិ	-9.66265
គរ	-9.66296
ធូរធារ	-9.66298
ព្រមព្រៀង	-9.66298
អ៊ីស្រាល	-9.66317
១១៖	-9.66321
ការបង្កាត់	-9.66337
ស៊ើបសួរ	-9.66352
ការបរិច្ចាគ	-9.66358
សំណាង៖	-9.66369
ការខ្វែងគំនិត	-9.66384
វ៉ា	-9.66393
ណាត់ជួបគ្នា	-9.66398
ព្រះសង្ឃរាជ	-9.66399
អត់ធ្មត់	-9.66407
នាំចូល	-9.6641
រីករាយ	-9.6641
លោកុប្បត្តិ	-9.66417
វិវត្ត	-9.66419
ផ្ដោត	-9.66428
ផ្តួចផ្តើម	-9.66429
បញ្ឆេះ	-9.6643
អង្កេត	-9.66432
អេឡិកត្រូនិក	-9.66434
ជ្រោមជ្រែង	-9.66434
ចែករំលែក	-9.66437
សកម្មភាព	-9.66442
ការសួរ	-9.66446
ប៊ី	-9.66454
មើលឃើង	-9.66461
២៥	-9.66465
ទឹកប្រាក់	-9.66466
គ្រោះ	-9.66467
ការខុសត្រូវ	-9.66472
ធ	-9.66473
យាម	-9.66493
ដាច់	-9.66496
ផេ	-9.66497
ស្រស់ស្អាត	-9.66499
ការអនុលោម	-9.66499
វឌ្ឍនភាព	-9.66501
រតន	-9.66503
វុធ	-9.66504
កាក	-9.66506
ទស្សនៈ	-9.66506
ខូច	-9.66509
ពត៌មាន	-9.66509
បណ្តឹង	-9.6651
បុត្រ	-9.6651
រាលដាល	-9.6651
ចន្ទ	-9.6651
ទាល់	-9.6651
គល់	-9.66511
វីឌីអូ	-9.66515
សម្តី	-9.66516
ទូរសព្ទ	-9.66516
ស្គូ	-9.66516
វ៉ាលី	-9.66516
ច្រោះ	-9.66516
ធម្មនុញ	-9.66517
បន្ដិច	-9.66517
ប្រោះ	-9.66517
ចំណេញ	-9.66517
សំរួល	-9.66517
លិង	-9.66517
បញ្ញា	-9.66517
គ្រួសារ	-9.66517
ទូរគម	-9.66517
ផ្នត់	-9.66517
ស្សីកែវ	-9.66517
ឡូស៊ី	-9.66517
ប្រាស្រ័យ	-9.66517
ម៉ាត់	-9.66517
វេលា	-9.66518
សតិ	-9.66519
ទីបញ្ជាការ	-9.66519
ខណ	-9.66523
សួស្តី	-9.66523
ការអំណាវ	-9.66523
ចូហ្វេស	-9.66523
ជ្វា	-9.66523
បំប៉ន	-9.66523
ផ្ដាំ	-9.66523
រលក	-9.66523
ស្ទែម	-9.66523
អាទិភាព	-9.66523
អៅ	-9.66523
កត់សំគាត់	-9.66523
ការតំរង់	-9.66523
ក្រិច	-9.66523
ក្លោងទ្វារ	-9.66523
ខ្វាយខ្វល់	-9.66523
គម្រោងការជាច្រើន	-9.66523
គ្រប់គ្រង់	-9.66523
ចំនាំ៖	-9.66523
ឆ្អឹង	-9.66523
ឈ្លាសវៃ	-9.66523
ដំរបស់	-9.66523
ត្ស៍	-9.66523
ទស្សនាវដ្តី	-9.66523
ទ្បើង	-9.66523
ធា្លក់	-9.66523
និវត្តន៍	-9.66523
បង្ហួរ	-9.66523
បន្ទោនេះ	-9.66523
បំពង់	-9.66523
ប៌វ័ត	-9.66523
ប្រវែត	-9.66523
ផលវិបាក	-9.66523
មីលី្ល	-9.66523
មូស្សេន្នី	-9.66523
រកាំរកុស	-9.66523
លឺ	-9.66523
សង្ឃ័រ	-9.66523
សបា្តហ៍	-9.66523
សប្តាហ៍	-9.66523
ស៊េរី	-9.66523
ស្ញើក	-9.66523
ស្ញែង	-9.66523
ស្ដូប	-9.66523
ស្ថាប័ណ្ណ	-9.66523
ស្រោង	-9.66523
ស្វាគិម	-9.66523
ស្វ័យតភាព	-9.66523
អចិន្រ្តៃយ៍	-9.66523
អេភេសូរ	-9.66523
ឩិកាស	-9.66523
កណ្តុរ	-9.66523
កុណា	-9.66523
គ្រីស័រ	-9.66523
ចម្រាញ់	-9.66523
ចិតតិ	-9.66523
ឆ្នាស់	-9.66523
បាយ័ន	-9.66523
ប្បដ្ឋាក	-9.66523
ប្រច័ណ្ឌ	-9.66523
ពាក់ព័ន្ឋ	-9.66523
មឺ	-9.66523
វណ្ឌី	-9.66523
សណ្ដាប់	-9.66523
សម្ភារះ	-9.66523
សុភាពបុរស	-9.66523
សំស្រ្ដឹក	-9.66523
ម៉ូលេគុល	-9.66524
ហ្សូក	-9.66524
១៩៩៦	-9.66524
ហុត	-9.66524
ពីក	-9.66524
លទ្ធភ	-9.66525
ស៊ីសុវត្ថិ	-9.66525
ពលរដ្ឋ	-9.66526
ស្លន់ស្លោ	-9.66526
ស៊ីសង	-9.66527
អង្គម្ចាស់	-9.6653
សារមន្ទីរ	-9.6653
កន្លងផុត	-9.6653
រដ្ឋធានី	-9.6653
លេខរៀង	-9.6653
ខែមិនា	-9.6653
ក្ដីសោក	-9.6653
ខ្លាំងក្លាបន្ដិច	-9.6653
បរមបុរាណ	-9.6653
ឫមាន	-9.6653
ពាក្យសំដី	-9.6653
គីឡូក្រាម	-9.6653
រ៉ាហ្សាក់	-9.6653
ពានម្តង	-9.6653
១៩៨១	-9.6653
ប៊ូស្គូ	-9.66531
ព្រះឥន្ទ្រ	-9.66531
រួចផុត	-9.66531
រ៉ានី	-9.66531
ផាក់	-9.66531
ល្បោះ	-9.66531
កំហាប់	-9.66531
ផេកាន់	-9.66531
ទាបទៃ	-9.66531
សំរិទ្ធិ	-9.66531
ឧត្តង	-9.66531
កៅអី	-9.66531
ស្គារ	-9.66531
ចារី	-9.66531
ត្រូពិច៖	-9.66532
ស៊ូលីន	-9.66532
ហារី	-9.66532
វីង	-9.66532
គ្រឹះស្ថាន	-9.66532
ផ្លូវចិត្ត	-9.66532
ខុសត្រង់	-9.66532
បារី	-9.66532
ពូទុង	-9.66532
មេរៀន	-9.66532
ផ្លូវកាត់	-9.66532
មែន៖	-9.66532
សំឡូត	-9.66532
សេធ	-9.66533
១០៩	-9.66533
រវ	-9.66533
ថ្កាន	-9.66534
កាតាប	-9.66536
អ្នកលក់	-9.66536
ទប់ទឹកភ្នែក	-9.66538
ហេឡែន	-9.66539
៧០២	-9.6654
ស្លាត	-9.6654
ចូលរួម៖	-9.66541
អ្នកតវ៉ា	-9.66548
០០៤	-9.66549
អ្នកសេព	-9.66551
សេចក្តីថ្លៃថ្នូរ	-9.66569
ការព្រំដែន	-9.6657
ភាពភ័យខ្លាច	-9.66585
កាលបើ	-9.66594
ខណៈ	-9.66603
របត់	-9.6661
អ្នកទទួលរង	-9.66611
មជ្ឈិម	-9.66612
ការភ្នាល់	-9.66621
បរិមាណ	-9.66624
បំបិទ	-9.66625
ប្រដេញ	-9.66632
និយមន័យ	-9.66632
រាំងស្កាត់	-9.66633
ស្វាយទាប	-9.66633
សម	-9.66637
ការវិវឌ្ឍ	-9.66652
ផ្តាសាយ	-9.66658
ណាស៊ីស	-9.66665
តែ	-9.66669
ព្រះទ្រង់	-9.66672
បញ្ឈប់	-9.66687
កសាង	-9.66695
ការកាប់	-9.66725
លើក	-9.6673
វឌ្ឍនាកា	-9.66736
ព្រឹត្តិ	-9.66769
០៣៖	-9.66777
តិ៖	-9.66787
ស្ងប់ស្ងាត់	-9.66801
សួ	-9.66803
រីង	-9.66803
ធ្វើឱ្យ	-9.66809
សេដ្ឋកិច្ច	-9.66814
ទាន	-9.66822
ខែវិច្ឆិកា	-9.66834
ចាប់ខ្លួន	-9.66836
គ្រង	-9.66838
ពីលើ	-9.66842
១០៧៤	-9.66857
ស្ទី	-9.66868
ធុរកិច្ច	-9.66877
តៃវ៉ា	-9.66879
ឋិតនៅ	-9.66883
ជាស្ថាពរ	-9.66886
៨០២	-9.66902
ការបរិភោគ	-9.66904
មាត់	-9.66904
វន	-9.66916
អ៊ីនធឺណិត	-9.6692
ភាពឆ្លាត	-9.66932
សិលាចារឹក	-9.66937
ប្រសិទ្ធភាព	-9.66939
ចាក	-9.6694
ពឹស	-9.66946
៨១៤	-9.66951
កាគ្រោះថ្នាក់	-9.66955
ការប្រគល់	-9.66957
ខុសប្លែក	-9.66963
ការផ្ទុះ	-9.66966
ការប៉ះ	-9.66967
ចែកចាយ	-9.66988
ដួលរលំ	-9.67003
ល្បីល្បាញ	-9.67007
អាល់កៃ	-9.67035
តា	-9.67058
មើលឃើញ	-9.67076
អង្គការ	-9.67099
គោលរបប	-9.67123
បិទ	-9.67124
អញ្ជើញ	-9.67124
លំដាប់ថ្នាកម	-9.67135
កំសាន្ត	-9.67137
ទំនៀមទម្លាប់	-9.67143
កៀក	-9.67145
ឆបោក	-9.67146
ហ្គោឡាញ	-9.67166
ទោស	-9.67181
តេស្ត	-9.67184
ការចុះចត	-9.67191
មានជ័យ	-9.67191
ការពាក់ព័ន្ធ	-9.67196
ការសម្រប	-9.67196
ប៉េ	-9.67197
ស្ថិត	-9.67199
ឧត្តមភាព	-9.67199
សាងឡើង	-9.67201
ច្រ	-9.67205
យុទ្ធនជន	-9.67206
សហជីព	-9.67206
ពហុ	-9.6721
រាជ្យ	-9.67211
អិន	-9.67212
រដូវ	-9.67213
ឆាប់រហ័ស	-9.67213
ទំនុក	-9.67218
លែន	-9.67218
លំអិត	-9.67222
សោភ័ណ	-9.67225
បុគ្គល	-9.67225
ៗ	-9.67225
ឃឹម	-9.67225
ប្រ៊ី	-9.67225
ពិល	-9.67225
ខណ្ឌ	-9.67226
ឌ្រីម	-9.67226
ទ័ល	-9.67226
ច្រាន	-9.67226
សីហនុ	-9.67226
យ៉ូប	-9.67226
ភណ្ឌ	-9.67226
ឡូយ	-9.67226
អ៊ីន	-9.67227
ប្រៀប	-9.67227
ការរមាស់	-9.67228
៥៤២	-9.67229
បាល់ទាត់	-9.67232
ធូរេន	-9.67232
មហិមា	-9.67232
ខ្ទេច	-9.67233
ឆ្មាំ	-9.67233
ជុង	-9.67233
ធៀន	-9.67233
បុណ្យ	-9.67233
ប្រពៃ	-9.67233
ពង្រឺង	-9.67233
ពន្លក	-9.67233
ម៉ូយ	-9.67233
រណ្តំ	-9.67233
វប្បកម្ម	-9.67233
សាតស៊ូម៉ា	-9.67233
សំរាក	-9.67233
ស៊ូប៊ីឌី	-9.67233
ស្រ្ដី	-9.67233
ហ្វីល	-9.67233
អន្ទាក់	-9.67233
អាក់ខាន	-9.67233
អាដាមស៍	-9.67233
កត្តា	-9.67233
កម្មុយនិស្ត	-9.67233
ការសមគ្គី	-9.67233
ក្របួច	-9.67233
ក្រឡាប់	-9.67233
គំរប	-9.67233
ជន្លេន	-9.67233
ជយលាភី	-9.67233
ជេីង	-9.67233
ជំរិត	-9.67233
ឈួន	-9.67233
ញូយ៉ក	-9.67233
ដាស់តឿន	-9.67233
ឌៀប	-9.67233
ថោះ	-9.67233
ទាំងពួង	-9.67233
ទំពារ	-9.67233
បន្ឡែ	-9.67233
បរិបទ	-9.67233
បរិសុទ្ធ	-9.67233
បូពិណ្ណ	-9.67233
បំរុង	-9.67233
ប្រេស	-9.67233
ផ្លាសទីន	-9.67233
ពីងពាង	-9.67233
ពៀន	-9.67233
ភីលីព	-9.67233
ភូមោ	-9.67233
មោឃ	-9.67233
ម៉្លេះ	-9.67233
យ៉ាប់	-9.67233
របសា់ជ	-9.67233
សូទិន	-9.67233
ស៊ែប៊ី	-9.67233
ស្ដុក	-9.67233
អក្រង់	-9.67233
អត្មានិយម	-9.67233
អល់	-9.67233
អូទ្រីស	-9.67233
អ័រម៉ូន	-9.67233
ឥន្ទ្រី	-9.67233
កម្ទេចកម្ទីរ	-9.67233
ឆ្អឹងជំនីរ	-9.67233
ត្រដែត	-9.67233
បះពាល់	-9.67233
ភទ្រេ	-9.67233
ភិរុណ	-9.67233
ម៉ាកាលី	-9.67233
វិទ្យ	-9.67233
ហ្វ្លរី	-9.67233
អ៊ីម៉ាអ៊ី	-9.67233
ស្ពាន់	-9.67233
អូស្រ្តាលី	-9.67233
កើតឡើ	-9.67233
សឹងតែ	-9.67233
ជាមួយនឹង	-9.67233
ក្មួយ	-9.67234
ជីវករ	-9.67234
ទិត្យ	-9.67234
ចាប់ពី	-9.67235
សព	-9.67235
រៀបរាប់	-9.67236
សង្គមជាតិ	-9.67236
ស្លាប	-9.67237
អម្ចាស់	-9.67238
យ៉ាដា	-9.67238
ព្រឹទ្ធសភា	-9.67238
ឥណទាន	-9.67239
យូអែល	-9.67239
អីុស្តង់ប៊ុល	-9.67239
ក្រៀមក្រំ	-9.67239
សារ៉ូ	-9.67239
ឧបោស	-9.67239
កំពុងតែ	-9.67239
ខែវិច្ចិ	-9.67239
អ៊ុយក្រែន	-9.67239
ភាគរយ	-9.6724
ខាងក្រៅ	-9.6724
ចំណាស់	-9.6724
ភាពសម្ងាត់	-9.6724
មានជ័យ៖	-9.6724
សូមទោស	-9.6724
សាលាម	-9.6724
ព្រះចេតីយ	-9.6724
រ៉ៃត៍	-9.6724
ខ្ទប់	-9.6724
ការាម	-9.6724
ជំរំដាក់	-9.6724
អ្នកវិភាគ៖	-9.6724
នានា៖	-9.6724
ប្រាដ	-9.6724
ពូទីន	-9.6724
ព្រះដែរ	-9.6724
ព្រះវិហារ	-9.6724
សំហៃ	-9.6724
ហ្វេសប៊ុក	-9.6724
ព្រៃច	-9.6724
បឋមសិក្សា	-9.67241
ទូរស័ព្ទដៃ	-9.67241
ប្ញជន	-9.67241
មេស្រា	-9.67241
ពិការភាព	-9.67241
កម្មវធី	-9.67241
តំណាក់	-9.67241
ពីរបប	-9.67241
៧៩៩	-9.67241
អ៊ីសាយ	-9.67241
ន័រវ៉េ	-9.67242
រៀវ	-9.67242
ពួកស៊ី	-9.67242
ពាណិជ្ជៈ	-9.67242
ស្វែងរកមើល	-9.67246
វ៉េត	-9.67247
ទាសភាព	-9.67248
ការធ្វើដំណាំ	-9.6725
សេពាន	-9.6725
ផ្លូវការណ៍	-9.67253
នែត	-9.67255
កំពង់ព្រៀង	-9.67268
ហេតុអី	-9.67268
បានជា	-9.67269
អ្នករងរបួស	-9.6727
គេហទំព័រ	-9.67281
ការហូរ	-9.67288
ខ្វះចក្ខុវិស័យ	-9.67297
ព្រះសង្រ្គោះ	-9.67297
ការជម្រុញ	-9.67299
វិលមុខ	-9.67318
វិស្សមកាល	-9.67323
ដំណាល	-9.67323
ការថត	-9.67328
ហុងដានិច	-9.6733
នៅពេទ្យ	-9.67332
ភាពល្បីល្បាញ	-9.67334
ត្រូវបាន	-9.67343
ហូឡ	-9.67348
សារធាតុ	-9.67363
ដើរកម្សាន្ត	-9.67377
ការតាម	-9.67384
មេប៉្រុយ	-9.67395
អាល្លឺម៉ង់	-9.67395
ខេមរភូមិន្ទ	-9.67395
ដីឡូត៍	-9.67395
នៅហ្គាណា	-9.67395
គុណសម្បត្តិ	-9.67401
ភាពកខ្វក់	-9.67402
សម្ព័ន្ធ	-9.67412
ការឃុំខ្លួន	-9.67419
បញ្ជាទិញ	-9.6743
ស្រយ៉ង់	-9.67434
ការសន្មត	-9.67435
ភស្តុតាង	-9.67435
សម្ភោធ	-9.67435
ធ្វើដំណើរអស់	-9.67441
លោកឪពុក	-9.67442
ទុកចោល	-9.67442
លីសែង	-9.67443
ចាញ់	-9.67449
ការជ្រុល	-9.67453
៤៨៤	-9.67462
ការប្រែ	-9.67477
សមុទ្រ	-9.67505
វិនិយោគ	-9.67509
ខាត់	-9.6752
ទទួ	-9.67525
អង្សា	-9.67527
ភាពស្រឡាញ់	-9.6753
បំរើ	-9.67531
ថ្វីត្បិតតែ	-9.67533
ស្រី	-9.67542
ឆែម	-9.67561
ការណែនាំ	-9.67566
រ៉ាមី	-9.67574
កសិ	-9.67583
ពួរ	-9.67589
អាវ៉ា	-9.67589
ចុះចាញ់	-9.67591
ការចង់បាន	-9.67594
ទៅតាម	-9.67601
ញើស៖	-9.67606
៦៧៦	-9.67607
សែល	-9.6761
ពួកយើង	-9.6761
ត្រៀម	-9.67611
ការលះបង់	-9.67611
យុស	-9.67612
គីមី	-9.67613
ប៊ូស	-9.67614
ការចាត់	-9.67614
វាគ្មិន	-9.67615
ចូលទៅ	-9.67616
ម៉ារីម៉ា	-9.67617
ល៖	-9.67618
សិចស៊ី	-9.6762
ខ្លា	-9.67622
ម្ចេច	-9.67623
ស៊ីផាន	-9.67627
ការដាក់ពាក្យ	-9.67627
ការណាត់ជួប	-9.67635
វែ	-9.67636
ការកុហក	-9.67646
ការកែ	-9.67647
បួរ	-9.67647
លីង	-9.67647
ជឿ	-9.67651
តសង្ស័យ	-9.67655
កោតសរសើរ	-9.67663
រួមបញ្ជូល	-9.67679
១៩៧៣	-9.67751
បដិសេធ	-9.67784
រួចរាយការណ៍	-9.67811
លើកស្ទួយ	-9.67826
រលឹម	-9.6783
សម្បទាន	-9.6783
សម្រេចបាន	-9.67859
ដោះដូរ	-9.67859
ជះឥទ្ធិពល	-9.67862
រូ	-9.67863
ការផ្ទុក	-9.67869
វត្	-9.67873
វណ្ណារ៉ាក់	-9.67886
ទាក់ទាញ	-9.67891
ដោ	-9.67895
យុទ្ធ	-9.67896
វែបសាយត៍	-9.67902
បុរាណវិទ្យា	-9.67902
នាំឱ្យ	-9.67908
ព័ន្ធ	-9.67912
អាង	-9.67914
ឃី	-9.67915
ឧ	-9.67915
ប័ណ្ណ	-9.67918
ម្តាយ	-9.6792
ឧត្ត	-9.67923
ចំរើន	-9.67926
ផ្ទះ	-9.67926
២៥៦២	-9.67926
ទួល	-9.67927
រួប	-9.67927
សណ្ឋាន	-9.67927
ឆ្លើយឆ្លង	-9.6793
សុវត្ថិ	-9.67931
ជញ្ជូន	-9.67932
កុសល	-9.67932
ប៉ោ	-9.67933
ត្បូង	-9.67933
អបអរ	-9.67934
បែបបទ	-9.67935
តបឆ្លើយ	-9.67937
វារី	-9.67938
ស្នេហា	-9.67939
ទ្វីប	-9.67939
សច្ចា	-9.6794
ផ្អើល	-9.6794
ម៉្យាង	-9.6794
កៃ	-9.6794
ចម្លើយ	-9.6794
ក្រៀម	-9.6794
មហន្តរាយ	-9.6794
ធាវី	-9.67941
ប្រាយុទ្ធ	-9.67943
កោណ	-9.67946
ប៉ារ៉ា	-9.67946
សារជាតិ	-9.67947
ខ្លោងទ្វា	-9.67947
តាំងតែពី	-9.67947
ផ្សិត	-9.67947
កាល់ម៉ែត	-9.67947
ក់	-9.67947
ក្ដុកក្ដួល	-9.67947
ឆន្ទះ	-9.67947
ឈ្លៀត	-9.67947
ដានីញែល	-9.67947
ដឹនាំ	-9.67947
បន្ទច់	-9.67947
ប៉ុន្ណោះ	-9.67947
ផ្ទួន	-9.67947
ពន្លិច	-9.67947
ពហិការ	-9.67947
ពិពរណ៌	-9.67947
ភឿង	-9.67947
មិត្តភក្រ័	-9.67947
ស៊ូម៉ាត្រា	-9.67947
ហ្លួង	-9.67947
អូស្ដ្រាលី	-9.67947
កន្ទុយ	-9.67947
ក្ដារ	-9.67947
ខ្លុង	-9.67947
ឃ្វាល	-9.67947
ច្រេះ	-9.67947
ជ្រះស្រឡះ	-9.67947
ឈឿង	-9.67947
ញឿន	-9.67947
ដាច់អហង្កា	-9.67947
ដើម្បីិ	-9.67947
ទ្រទ្រង	-9.67947
ធូរស្រាល	-9.67947
នីតិបញ្ញត្តិ	-9.67947
បទបញ្ញត្ដិ	-9.67947
បរិស្ថាន	-9.67947
បេឡារុស្ស	-9.67947
ប្រឺក្សា	-9.67947
ប្រេស៊ីត	-9.67947
ពិដាន	-9.67947
មគ្គុទ្ទេស	-9.67947
មន្រ្ដី	-9.67947
មួួយ	-9.67947
ម៉ារ៉ុក	-9.67947
រ៉ូហ្វម	-9.67947
វេទនិយម	-9.67947
វ៏យ	-9.67947
សុក្រឹត	-9.67947
សុផាត	-9.67947
ស្បើគ	-9.67947
ស្ពាន	-9.67947
ហ្វូណន	-9.67947
អតិត	-9.67947
អេត្យូពី	-9.67947
អេស្កាវាទ័រ	-9.67947
កៀហ្សី	-9.67947
ខូង	-9.67947
ទុតិ	-9.67947
មានោក	-9.67947
រោត្ដម	-9.67947
ស្ថិតស្ថេរ	-9.67947
ស្ម័គ	-9.67947
អេដស៍	-9.67947
០២៥៣៥	-9.67947
កំនត់	-9.67947
បាទ	-9.67947
សំដី	-9.67948
ប៉ោង	-9.67948
លត់	-9.67953
កេនយ៉ា	-9.67953
ចំបក់	-9.67953
ខែវិច្ឆកា	-9.67953
ខ្យល់ព្យុះសង្ឃរា	-9.67953
ស្រែកសិករ	-9.67953
ព្រៃឡង់	-9.67953
ប្រហិត	-9.67954
វាយន	-9.67954
កាណ	-9.67954
រតនគិរី	-9.67954
អង្គរក្ស	-9.67954
ខាងសូត្រ	-9.67955
ទិបញ្ចប់	-9.67955
អើយ	-9.67955
កាច់រទះ	-9.67955
ព្រាប	-9.67955
ផ្លូវគោក	-9.67955
អាំង	-9.67955
កេរ្តិ៍ឈ្មោះ	-9.67955
ខេង	-9.67955
ចេញដំបូង	-9.67955
រួមព្យុះ	-9.67955
អូស្បូន	-9.67955
អនុក្រឹត្យ	-9.67955
ប្រភេទ៖	-9.67955
អូតាម	-9.67955
នើរី	-9.67955
ដឹងឮ	-9.67955
នីតិសម្បទា	-9.67955
សាន់វ៉េ	-9.67955
អុីញ	-9.67955
គីង	-9.67955
វើល	-9.67955
ទន់ខ្សោយ	-9.67955
ចុះបញ្ជី	-9.67956
រដ្ឋអាជ្ញា	-9.67956
សុជាតិ	-9.67956
មេឆ្នោត	-9.67956
រដ្ឋទូត	-9.67957
គេហទំព័រៈ	-9.67957
ក្បួនជាតិ	-9.67957
ជីជាតិ	-9.67957
ម៉ុងឌីយ៉ាល់	-9.6796
កកកុញ	-9.6796
ចាប	-9.67961
៤០០០០០	-9.67961
លោតែ	-9.67962
តូចង	-9.67962
១៦៩	-9.67963
២០០៩	-9.67963
១១៤០	-9.67963
អការចុក	-9.67963
ឡានក្រុង	-9.6797
ហាន	-9.67988
ការញ៉ាំ	-9.6799
កិច្ចការពិត	-9.68005
ដំណើរការជ្រើសរើស	-9.68008
ក្ដីសង្ស័ថា	-9.68011
ការថើប	-9.68016
ជាថ្មី	-9.68017
ការរួបរួម	-9.68033
០៥	-9.68035
ភោជនីដ្ឋាន	-9.68039
ការភិវឌ្ឍ	-9.68039
៤៦៥	-9.68045
ការទាស់	-9.68062
រយៈពេល	-9.68076
ចំពោះមុខ	-9.68078
ការប្រជុំ	-9.68089
តុកស្លុត	-9.681
និរន្តរភាព	-9.681
ក្រៅកម្មវិធី	-9.68106
វាយតបត	-9.68108
កំពង់ចាម	-9.68109
ទ្វារមាស	-9.68115
ការទេស	-9.68133
មណ្ឌលគិរី	-9.68134
មានប្រសាន៍	-9.68134
អង្កត់ផ្ចិត	-9.68134
១៤៤៧	-9.68141
ព្រះចន្ទ	-9.68141
ដា	-9.68143
ប្រ	-9.68144
ហេតុតែ	-9.68145
កាន់ស្ថាន	-9.68145
គេ	-9.6817
បូរណភាព	-9.68171
ពានរង្វាន	-9.68171
ប្ដឹង	-9.68175
ឆ្លើយតប	-9.68177
មាត់ទ្វារ	-9.68177
គាបសង្កាត់	-9.68179
តាមចិត្ត	-9.68179
ស្រាង	-9.68179
ពូមាន់	-9.68179
ឧបទ្រព្យ	-9.6818
សុរិយាស៊ូ	-9.68182
ទទួលរង	-9.68185
លើ	-9.68199
ចេញ	-9.68206
ការស្ពឹក	-9.68209
ស្វាយរៀង	-9.6821
សាម៉ារី	-9.6821
ទាន់ចិត្ត	-9.68218
១៣	-9.68227
រហ័ស	-9.68236
ការសំអាត	-9.68239
គ្រោះថ្នាក់	-9.68241
កែច្នៃ	-9.68249
សហមេធាវី	-9.68255
អ៊ូ	-9.68263
៦៦	-9.68279
រដ្ឋការ	-9.68281
ភាពអស្ចារ្យ	-9.68283
រហូតដល់	-9.68288
សប្បុរស	-9.68288
ផែ	-9.68292
ឆ្លាតវៃ	-9.68305
ស្តាន	-9.68309
ការបង្កើត	-9.68315
ទៅមក	-9.68317
វេរ	-9.68317
ដៃគូរ	-9.68318
តម	-9.68322
រលោង	-9.68323
ហាណាន់	-9.68327
ទំនងជា	-9.68328
ម៉ាជា	-9.6833
ពលី	-9.68338
សិប្បក	-9.68343
រមាស	-9.68351
ពេលព្រឹក	-9.68355
ការឈ្មោះ	-9.68357
សាវរស	-9.68361
ហិកតាម	-9.68365
៨២២	-9.68366
ការស្រាវ	-9.68369
ការប្រព្រឹត្ត	-9.68379
វីដេអូរ	-9.68389
យកមន្ត្រី	-9.68394
ព្រ	-9.68394
១២១	-9.68394
១៨០២	-9.68405
ការស្រាវជ្រាវ	-9.68406
អធិបតីភាព	-9.68425
ដល់	-9.68429
ការឃ្លាន	-9.68454
ធ្វើបាន	-9.68455
អាជ្ញាធ	-9.68472
សចម្រេចចិត្ត	-9.68536
ហរ័សៀវ	-9.68548
យោបាយ	-9.68564
លូក	-9.68564
ភ្នាល់	-9.68567
ខែ	-9.68584
ការចរចា	-9.68586
ឡេវ	-9.68604
តំណាង	-9.68625
ព្រហស្បតិ៍	-9.68644
ព្រហ្ម	-9.68645
រ៉ៃ	-9.68652
រ៉ុង	-9.68653
កុសល្យ	-9.68653
បង្វឹក	-9.68653
រ័ត្ន	-9.68654
ពិន	-9.68658
កោសិកា	-9.68659
អេហ្ស៊ីប	-9.68659
ពេញលេញ	-9.68659
អនាម័យ	-9.68659
ការបង្ហា	-9.68659
ខឿន	-9.68659
ស្ដូក	-9.68659
ស្រឡះ	-9.6866
ចារឹក	-9.6866
បាក	-9.68662
ស្លន់ស្លោរ	-9.68664
ទឹកក្រូច	-9.68665
ខាន	-9.68666
ការជំរឿន	-9.68666
ការស្រេច	-9.68666
កុម្មង់	-9.68666
ក្លូបលហ្វាន់	-9.68666
ឃ្នង	-9.68666
ធ្វើបាឋ	-9.68666
ន៉	-9.68666
ប្រគួតប្រ	-9.68666
ការណរី	-9.68666
កុហក់	-9.68666
ក្រប់ខ័ណ្ឌ	-9.68666
ក្រសោប	-9.68666
ក្រោយេ	-9.68666
ខែកក្ដិក	-9.68666
ខែផល្គុន	-9.68666
ខ្ពប់	-9.68666
ចំបើង	-9.68666
ច្រងែង	-9.68666
ឆរបោក	-9.68666
ជឺរ័លដ៍	-9.68666
តម្រឹម	-9.68666
តារ	-9.68666
តាំងពី	-9.68666
ទំនិញ	-9.68666
បញ្ចូន	-9.68666
បោច	-9.68666
បំរះ	-9.68666
ប៉ង់	-9.68666
ផ្ដាច់ព្រ័ត្រ	-9.68666
ផ្ដាស	-9.68666
ពាន់	-9.68666
ពាលា	-9.68666
ពិព័ណ៌	-9.68666
ព្រលិត	-9.68666
ព្រំប្រទល់	-9.68666
មនសិការ	-9.68666
មីហ្ស៊ូ	-9.68666
រាង្គកាយ	-9.68666
រាជេន្ទ្រ	-9.68666
រំជួល	-9.68666
វិចិត្រ	-9.68666
សារៈមន្ទីរ	-9.68666
សាវឿន	-9.68666
ស្តូប	-9.68666
ស្ត្រេស	-9.68666
ហានិភ័យ	-9.68666
ហ្វីលីពីក្ដី	-9.68666
អាជីព	-9.68666
អាជ្ញាប័ណ្ណ	-9.68666
១៩៩២	-9.68666
ចំនែក	-9.68666
ចំពុះមុខ	-9.68666
ជៀងរ៉ាយ	-9.68666
តានង់	-9.68666
ត្រកួន	-9.68666
បង្ហៀរ	-9.68666
បញ្ឍប់	-9.68666
ប៉ូលីវ៉ា	-9.68666
ប្រមរ	-9.68666
ពិឃាត	-9.68666
ពៃរ៍	-9.68666
ភ្ញៀរ	-9.68666
រាជសីហ៍	-9.68666
សន្ដិសុខ	-9.68666
ស្រការ	-9.68666
ញ៉ុះ	-9.68666
ធ្មេញ	-9.68666
សុរីតា	-9.68666
តំព័រ	-9.68667
បាតុភាព	-9.68667
មហារីរីក	-9.68667
ស្រុង	-9.68667
ការបាត់	-9.68668
ឌីជី	-9.68668
ជីក	-9.68669
ស៊ីណ	-9.68669
្រវត្តិសាសាស្រ្ត	-9.68669
ក្តីសុបិន្ត	-9.68672
ជូនពរ	-9.68672
ព្រះបិតា	-9.68672
បែលហ្ស៊ិក	-9.68673
ក្រុមញ	-9.68673
អាសារ	-9.68673
លំដាក់	-9.68673
ងូតទឹក	-9.68673
។សង្ឃឹម	-9.68673
តបរាល់	-9.68673
បើកបត់	-9.68673
ខារិន	-9.68673
ជាក់ច្បាស់	-9.68673
ព័ត៌មាន៖	-9.68673
ហោ៖	-9.68673
នំប័ុង	-9.68673
ការ៉ុង	-9.68674
គម្រ	-9.68674
សុខុន	-9.68674
ព្រះកាម	-9.68674
យូរលង់	-9.68674
សំរិន	-9.68674
ព្រឹកឡើង	-9.68674
សុខចិត្ត	-9.68674
ស្រះចក	-9.68674
អេដ	-9.68674
កាំបិត	-9.68674
រ៉ូម៉ានី	-9.68674
ទ្រឿង	-9.68674
២០២៥	-9.68674
ភូក	-9.68674
ចំណាត់ថ្នាក់	-9.68674
ក្រូអាត	-9.68675
វ៉ច	-9.68675
បុរៈ	-9.68675
នីតិសាស្រ្ត	-9.68675
វីដេអូ៖	-9.68675
វីវរ	-9.68675
ជីម	-9.68675
ត្រសក់	-9.68675
កូឌិក	-9.68676
ឧត្តរដ្ឋមន្ត្រី	-9.68676
ម៉ាក្រុង	-9.68676
ការពង្រឹង	-9.68678
យន្តការលើកកម្ពស់	-9.68679
១០៩០	-9.6868
២៧៣	-9.68682
ទីវ	-9.68683
ការងារ៖	-9.68683
ចាប់ក	-9.68686
ពោលគឺជា	-9.6869
ទទួលរងគ្រោះ	-9.68692
សហសេវិក	-9.687
ស២៥៦២	-9.68706
សមុយ	-9.68714
ការបែក	-9.6872
ប្រថុយប្រថាន	-9.68722
ស្រគត់ស្រគំ	-9.68722
លុប	-9.68726
មហោឡារឹត	-9.68745
លាងសំអាត	-9.68752
ការគិត	-9.68766
លាភសក្ការៈ	-9.68777
ការបដិសេធ	-9.68777
ចុះសម្រុង	-9.68778
អន្តរកាល	-9.68803
ការតែង	-9.68804
ការហាម	-9.68826
អនុសាសន៍	-9.6883
តទៅទៀត	-9.6883
បង់	-9.68844
សំអ៊ាង	-9.68852
អាហារូបត្ថម្ភ	-9.68852
អនុស្សរណៈ	-9.68852
ប្រេងសាំង	-9.68861
ជញ្ជឹង	-9.68889
ហាណូយ	-9.68891
សោកស្ដាយ	-9.68892
អង់អាច	-9.68893
ធ្វើការខុស	-9.68896
កកស្ទះ	-9.68905
ទូរទឹកកក	-9.68917
លោកជំទាវ	-9.68917
បណ្ដើរ	-9.68918
ជួបប្រជុំ	-9.68919
ចេ	-9.6892
ការជូនដំណឹង	-9.68922
អាកាសចរ	-9.68924
ឈានជើង	-9.68924
១៦៤០៩	-9.68926
ថយចុះ	-9.68929
សំដែង	-9.6893
វេស	-9.68931
គ្រាន់តែ	-9.68933
ប្រាថ្នា	-9.68939
សក្នុង	-9.68942
៦៤	-9.68942
១៣៥២	-9.68943
ចំណែក	-9.68948
បទគម្ពីរ	-9.68953
ហ្សឺណែវ	-9.68954
ប្រសិនប់	-9.68954
សម្បត្តិ	-9.68958
វីឌីអូអប់រំ	-9.68962
ថែមទាំង	-9.68964
សេង	-9.68966
ការដំា	-9.6897
ចូលមកដល់	-9.68973
ការរឹបអូស	-9.68983
និកម្មភាព	-9.68992
រអាក់រអួល	-9.68992
ក្រោឱវាទ	-9.68993
ហិរញ្ញប្បទាន	-9.68993
ឱវាទ	-9.68993
វ៉ៃ	-9.68997
កោះអញ្ជើញ	-9.68999
បបួលគ្នា	-9.69
កំពង់ចាម៖	-9.69
ផ្លាកលេខ	-9.69001
តេង	-9.6902
ទោះជា	-9.69029
ប្រែង	-9.6904
ផងដែរ	-9.69044
បេី	-9.69045
ម៉ៅង	-9.69046
ភាពឆ្លាតវៃ	-9.69046
យារ	-9.69051
ជីវីត	-9.69062
ការរីករាយ	-9.69069
បាទី	-9.69071
៥៩	-9.69074
ការប្រារព្ធ	-9.69108
តាក់	-9.69108
ការឈឺ	-9.6911
ការសម្រាល	-9.69124
កែលំអ	-9.69128
ការបើ	-9.69151
ការរុករក	-9.69154
ការរាវ	-9.69156
ការចិញ្ចឹម	-9.69192
ការចូលរួម	-9.69231
ហ្រ្វាន់ស៊ីសកូៈ	-9.69254
ការប៉ាន់ស្មាន	-9.69256
កែលំអរ	-9.69265
ស្រែ	-9.69292
ត្រួតពិនិត្យ	-9.69293
ឱប	-9.69293
អធ្យាស្រ័យ	-9.69296
ប្រទះឃើញ	-9.69304
ថ្នល់	-9.69312
ការជនជាតិ	-9.69313
លំ	-9.69314
មុខតំណែង	-9.69322
អវត្តមាន	-9.69326
កាលីហ្វ័រញ៉ា	-9.6933
បេះ	-9.69346
ការកម្រ	-9.69355
ព្យុះ	-9.69363
អាជ្ញា	-9.69363
បទពិសោធ	-9.69364
ញើស	-9.69369
ខ្លោង	-9.6937
ព្រះយេស៊ូ	-9.69376
មណ្ឌល	-9.69376
ពិព័រណ៍	-9.69377
៤៣	-9.69378
ហែង	-9.69378
កោស	-9.69379
មន្រ្តី	-9.69382
ការវិវត្តន៍	-9.69382
គ្លេស	-9.69383
ជម្រើស	-9.69383
បាត់ដំប	-9.69383
ស្លេកស្លាំង	-9.69383
ឥន្រ្ទី	-9.69383
ត្រឡប់មក	-9.69383
បញ្ហា	-9.69383
ស៊ឺមី	-9.69384
ស្រេង	-9.69384
យក្ស	-9.69384
ប្រាសាទ	-9.69384
ផ្អែក	-9.69385
មិថុនា	-9.69385
ដុស	-9.69385
ឧ្យយសសក្តិ	-9.69385
អាវុធ	-9.6939
សមាជិកា	-9.6939
ម៏	-9.69391
កាញ៉ា	-9.69391
កុម្មុយនីស្ត	-9.69391
កំចី	-9.69391
ក្រមួន	-9.69391
ក្លិន	-9.69391
ខ្មេែរ	-9.69391
គូលេន	-9.69391
ចង្រៃ	-9.69391
ចតុកណ	-9.69391
ឆុត	-9.69391
ដំ។	-9.69391
បិសាច	-9.69391
ពណ្ណរាយ៖	-9.69391
ពីដាសម្តែង	-9.69391
មាត់់	-9.69391
សម្បើម	-9.69391
សូយន	-9.69391
ស្តោត	-9.69391
ស្រួយ	-9.69391
ហ្កានី	-9.69391
អង្គុលី	-9.69391
អាសនៈ	-9.69391
អូស្តា្រ	-9.69391
កញ្ចាស់	-9.69391
កិត្ដិ	-9.69391
គម្ពឺរ	-9.69391
ជ្រៅជ្រះ	-9.69391
ដឹត	-9.69391
ត្រគាក	-9.69391
បារំាង	-9.69391
បឹុម	-9.69391
បំបាក់	-9.69391
ប្រស់	-9.69391
ផ្ដួល	-9.69391
ពួកតាលី	-9.69391
មរណទុក្ខ	-9.69391
មិត្តភ័ក្តិ	-9.69391
យុវតី	-9.69391
រោច	-9.69391
រ៉ូហីង	-9.69391
លក្ខណ្ឌ	-9.69391
លម្អិត	-9.69391
វ៉ិបសាយ	-9.69391
សង្គ្រាម	-9.69391
ស៊យ	-9.69391
ស្នូល	-9.69391
ស្នេហាហ៍	-9.69391
ស្វីស	-9.69391
ស្អាង	-9.69391
ហ្កេមស៍	-9.69391
ហ្វាន់	-9.69391
ឡូវិន	-9.69391
អផ្សុក	-9.69391
អានាម័យ	-9.69391
ឱសថ	-9.69391
កាណែស	-9.69391
គិរីរម្យ	-9.69391
ជុតិ	-9.69391
ឌួង	-9.69391
ថង់	-9.69391
ទ្បូតិ៍	-9.69391
បរិហារ	-9.69391
បាតុករ	-9.69391
ប៉ែន	-9.69391
សំលាប់	-9.69391
ស្នាដៃ	-9.69391
ឡាហាវ៉ាន	-9.69391
អចិន្រ្តៃ	-9.69391
កំពស់	-9.69392
ល្វែង	-9.69392
សូរ	-9.69392
កាដូ	-9.69393
ភារ៉ា	-9.69397
លំអៀង	-9.69397
ចំហាយ	-9.69397
សូម៉ាលី	-9.69398
ខែកញ្ញ	-9.69398
ប៊ីលាន	-9.69398
ប្រូតេអ៊ីន៖	-9.69398
ល្អក់	-9.69398
ខែកក្កដា	-9.69398
នីដា	-9.69398
ខ្សោះ	-9.69398
ធ្លាក់ខ្លួន	-9.69398
បង្កឲ្យ	-9.69398
គង់តែ	-9.69398
ព្រះគ្រីស្ទ	-9.69398
យកដាវ	-9.69398
ខូចចិត្ត	-9.69398
បដិវត្ត	-9.69398
អំពិល	-9.69398
អាមាស	-9.69398
បណ្ដាញ	-9.69399
ទស្សនីយ៍	-9.69399
ផ្តាំផ្ញើ	-9.69399
នៅជិត	-9.69399
ភូមិសាស្ត្រ	-9.69399
លោកក៍	-9.69399
ក្សាន្ត	-9.69399
ត្រូវឱ្យ	-9.69399
ឪឡឹក	-9.69399
ថ្លៃថ្លា	-9.69399
១៨៧៣	-9.69399
អាល	-9.69399
សុភី	-9.69399
បេង	-9.69399
តម្រងនោម	-9.694
១៩៦៨	-9.694
ទៅ៖	-9.694
គឺពេល	-9.694
ធាង	-9.69401
ថ្លុក	-9.69403
ដាក់ពង្រាយ	-9.69404
១២៥	-9.69406
មាតុភូមិ	-9.69407
អ្នកប្រើ	-9.69409
ការអនុម័ត	-9.69412
ការហាត់	-9.69415
១៩៤៧	-9.69418
អ្នក៖	-9.6942
អ្នកផង	-9.69422
០៣	-9.69428
ពណ៌នា	-9.69432
ជានិច្ចកាល	-9.6944
ប្រជានិយម	-9.69453
មធ្យមសិក្សា	-9.69461
សេចក្ដីសន្យា	-9.69465
កំពង់សំរោង	-9.69477
ការធ្លាក់	-9.69496
ហូត	-9.69496
យានអវកាស	-9.695
ដូល្លា	-9.69517
សេព	-9.69517
ទ្ធផល	-9.69523
មហោស្រព	-9.69536
បញ្ជូន	-9.69553
ជោគជតារាសី	-9.6956
១៩៩៥	-9.69568
៦៣១	-9.69572
លែងលះ	-9.69586
ការបូអ៊ីដ្រាត	-9.69586
កាំកុងត្រូល	-9.69592
ការបង្គាប់	-9.69593
សកម្មជន	-9.69594
យឺតយ៉ាវ	-9.69598
រើសអើង	-9.69601
ស្នងការរង	-9.69602
បន្ត	-9.69608
កាលបរិច្ឆេទ	-9.69613
សមូហភាព	-9.69613
ហ្ស៊េរីយ៉ា	-9.69613
ទឹកក្រូចឆ្មា	-9.69614
សំណើរ	-9.69626
ភាពឯកជន	-9.69631
ការណាត់	-9.69633
កេងប្រវ័ញ្ច	-9.69642
ស្ព្រីងហ្វៀល	-9.69642
រូបិយប័ណ្ណ	-9.6965
១៩៨២	-9.69651
ប៉ា	-9.69653
កង្វះខាត	-9.69654
អ្នកដទៃ	-9.69658
កិច្ចចរចា	-9.69673
កាពីតាល	-9.69673
បណ្ណាសារ	-9.69673
យេស៊ូវ	-9.69674
កិត្តិស័ព្ទ	-9.69679
គ្រូបោក	-9.6968
មុខជំនាញ	-9.69681
អ្នកមុជ	-9.6969
១៩៧៩	-9.69701
អចិន្ត្រៃយ៍	-9.69707
ធានបទ	-9.69708
ខូចខាត	-9.69712
គរពលករ	-9.69714
លាមក	-9.69714
មុខសញ្ញា	-9.69714
ចាប់ផ្សឹក	-9.69716
ប្រកបរប	-9.69721
រដ្ឋវីស	-9.69733
ធ្វើដំណាល	-9.69735
៤៩០	-9.69737
ណើត	-9.69737
៤៥០	-9.6974
ស្ថាបនិក	-9.69742
ស្រឡាញ	-9.69742
ឃំុបុស	-9.69743
គម្	-9.69745
យើងខ្ញុំ	-9.69747
ដែល	-9.69748
ប្រឡាយ	-9.69749
អនុផល	-9.6975
ក្មេងខ្ចី	-9.6975
ខែងដូចជា	-9.69751
វ៉ារី	-9.69763
ភៅ	-9.69763
ទៅវិញ	-9.69776
មួយបាច់	-9.69776
អាលែហ្ស៊ី	-9.69781
ទស្សវត្ស	-9.69781
សាស្ដ្រាចារ្យ	-9.69781
សិនបើ	-9.69782
សតិអារម្មណ៍	-9.69787
កំណែថ្មី	-9.69788
បាក់ឌុប	-9.69789
៦០០០០០	-9.69789
ចំការលើ	-9.69794
មយៀប	-9.69795
បូម	-9.69802
២៣០	-9.69803
ការទាមទារ	-9.69814
៥១១	-9.69819
សាម៉ីខ្លួន	-9.69842
ការឡើង	-9.69858
ការឲ្យ	-9.69883
កាលណា	-9.69887
ការត្រាំ	-9.69891
ការសាក់	-9.69907
បណ្តេញ	-9.69936
ស្រាវ	-9.69956
ក្រោយមកគ្រូ	-9.69996
ការលុប	-9.70019
ញុះញង់	-9.70026
ឧបត្ថម្ភ	-9.70027
ខុសប្លែង	-9.70027
ស្រុ	-9.70068
ភ	-9.70081
ព្រាង	-9.70081
ការស្រង់	-9.70082
ដកហូត	-9.7009
វិជ្ជា	-9.70092
សុទ្ធ	-9.70094
១៤២១	-9.70095
ជិត	-9.70098
សិល្ប	-9.70099
មុជទឹក	-9.70101
ហ្វា	-9.70101
ដើម្	-9.70101
ព្រឹទ្ធ	-9.70104
ស្ងួត	-9.70105
អេឡិចត្រូនិ	-9.70106
ស្មាន	-9.70106
ឆាយ	-9.70107
បំបាត់	-9.70108
ឈ្នួល	-9.70112
សិស្សានុ	-9.70113
អ៊ួ	-9.70113
ប្រយ័ត្ន	-9.70114
នព្វស័ក	-9.70114
ប្រេះ	-9.70114
អតិថិ	-9.70114
ស្ទាក់	-9.70114
និច	-9.70114
មុន្នី	-9.70114
អ៊ុយរ៉ាញ៉ូ	-9.70114
ប្រឌិត	-9.70114
សេដ្ឋី	-9.70115
អប្សរា	-9.70115
មកវិនិយោគ	-9.70118
មេឧក្រិដ្ឋ	-9.70118
ឡើង	-9.7012
រិទ្ធី	-9.70121
សូនីតា	-9.70121
កង្ហត	-9.70121
កន្សែង	-9.70121
កុត	-9.70121
គូកន	-9.70121
ង្កា្រប់	-9.70121
ដ៌	-9.70121
ថ្លុង	-9.70121
ទិព្វ	-9.70121
និរន្តភាព	-9.70121
ផ្លូរី	-9.70121
ផ្លោះ	-9.70121
មេត្ត	-9.70121
រូបីយ	-9.70121
សន្សំ	-9.70121
សុណង់	-9.70121
ស្នឹង	-9.70121
ស្រូល	-9.70121
អជ្ញាធរ	-9.70121
អស្សុជ	-9.70121
អាស្ពីរីន	-9.70121
អ៊ិក្ស	-9.70121
ការ៉ុត	-9.70121
កាលីហ្វ័រ	-9.70121
កុម្មុយនិស្ដ	-9.70121
គាស់	-9.70121
ចង្ក្រាន	-9.70121
ជិតស្និត	-9.70121
ដឺ	-9.70121
ដេត្រយ	-9.70121
ថ្មេី	-9.70121
បៀរវត្ស	-9.70121
បំភ្លេច	-9.70121
ប្រពៃណី	-9.70121
ប្រាង្គ	-9.70121
ប្លង់	-9.70121
ផ្តាច់ព្រ័ត	-9.70121
ផ្លិត	-9.70121
ពញ្ពា	-9.70121
ភ្ជុំ	-9.70121
មុនីរ័ត	-9.70121
មុឺន	-9.70121
យឿង	-9.70121
រិម	-9.70121
សម្អាធ	-9.70121
ស្ថាបត្យកម្ម	-9.70121
ស្រី្ត	-9.70121
ហាស្សាន់	-9.70121
អម្រឹត	-9.70121
អូនៀ	-9.70121
ាមលាយលក្ខណ៍អក្សរ	-9.70121
ច័ក្រ	-9.70121
ទោំង	-9.70121
និវរត្ដន៍	-9.70121
បញ្ចោរ	-9.70121
ម៉ាប់	-9.70121
រម្ងាស់	-9.70121
ស្មីត	-9.70121
អាក្អូន	-9.70121
មីន	-9.70121
ដើម្បីឱ្យ	-9.70121
ទាល់តែ	-9.70121
កេន	-9.70122
ដូចម្តេច	-9.70122
លោហិត	-9.70123
ទេសជាតិ	-9.70123
លំនៅដ្ឋាន	-9.70125
កក់ខែ	-9.70127
សារជាថ្មី	-9.70127
គំរូល្អ	-9.70127
ព្រលិង	-9.70127
ព្រះអាទិត្យ	-9.70127
ឈឺចិត្ត	-9.70127
ព្រះគុណ	-9.70127
ព្រះមុន្នី	-9.70127
ស្រះកែវ	-9.70128
កូនក្រមុំ	-9.70128
សួស្ដី	-9.70128
ឡុងដ៍	-9.70128
ព្រះគ្រូ	-9.70128
ល្អែម	-9.70128
ចង់ឲ្យ	-9.70128
ទ្រីម	-9.70128
វាយលុប	-9.70128
អគ្គីសនី	-9.70128
អាសុន	-9.70128
សុឃីម	-9.70128
ដូចគ្នា	-9.70128
៩០០	-9.70128
ទំនុកចិត្ត	-9.70128
គីវង់	-9.70128
រូបចម្លាក់	-9.70129
អូរ៉ូ	-9.70129
តបស្នង	-9.70129
អំពៅ	-9.70129
ត្រជាក់ចិត្ត	-9.70129
អង្រួន	-9.70129
ក្បូរ	-9.7013
៦២៨	-9.7013
រអ៊ូរទាំ	-9.7013
សងខាង	-9.7013
អន្តរជាតិ	-9.7013
ផ្តាសាយ៖	-9.7013
អង្វរ	-9.7013
ឆែប	-9.70135
នាទីនេះ	-9.70137
សម្ភារៈ	-9.70137
បៀរ	-9.70139
២៧៨	-9.70139
ជាតុ	-9.70139
អ្នកបង្កើត	-9.7015
សាវី	-9.70152
សកម្មសិទ្ធិ	-9.70159
ទេវ	-9.70175
លេចធ្លាយ	-9.70202
ព្រះយេហូ	-9.70217
ដកពិសោធន៍	-9.70224
កៀរគរ	-9.70224
ការរុះរើ	-9.70228
លោកអ្នកនាង	-9.70232
១២៣	-9.70237
អង្ក	-9.70238
ជីវជាតិ	-9.70238
ជាយ	-9.70249
ការរំដោះ	-9.70257
អ្នកសម្រេច	-9.70274
អេឡិចត្រូនិក	-9.70278
ចំណង់	-9.70285
ការលើកកំពស់	-9.70288
សាសនិក	-9.70312
ប្រកប	-9.7033
ប្រសិនហ៊ាន	-9.7034
ប្រសិទ្ធនាម	-9.70367
បើកចំហរ	-9.70368
បង្ហើប	-9.70381
ខាតបង់	-9.70383
ការរឹតបន្តឹង	-9.70386
ប្រណាំង	-9.70393
ខណៈពេលនេះ	-9.70398
រ៉ា	-9.70404
ផ្លេកបន្ទោរ	-9.7041
ស្រោចស្រង់	-9.70417
ស្និទ្ធស្នាល	-9.70424
ភៀសខ្លួន	-9.70431
កណ្ដាល	-9.70432
តុល្យភាព	-9.70439
បេសកកម្ម	-9.70439
កម្មុយនីស្ត	-9.70439
មានបន្ទូល	-9.70446
កូនសិស្ស	-9.70447
ប្រមាណង	-9.70448
លៀម	-9.70451
ការព្យាករណ៍	-9.70452
ការវិនិច្ឆ័យ៖	-9.70454
ហោ	-9.70461
ការបោះជំរុំ	-9.70463
ជាប់ចោទ	-9.70466
ទស្សនាវត្ដីមក	-9.70475
ប្រសូត	-9.70477
ផ្លាកសញ្ញា	-9.70477
សហព័ន្ធ	-9.70477
សម្រក	-9.70482
ឈូក	-9.70497
យោធភ័ណ្ឌ	-9.70503
អនុស្សារណៈ	-9.70503
ប្តេជ្ញា	-9.70505
ការលេង	-9.70505
ផ្ទាល់ខ្លួន	-9.70507
មុនពេញ	-9.70507
គុណធម៌	-9.7051
ព្រះរំកិល	-9.70511
ឆើតឆាយ	-9.70511
នាសម័យ	-9.70511
កែន	-9.70512
ផាក	-9.70514
ឱ្យ	-9.70515
តុប	-9.70523
ការកាត់ក្តី	-9.70524
ស្លត	-9.70525
រម៉ក	-9.70531
ការសម្ដែង	-9.70531
ការយល់ឃើញ	-9.70531
ក្នងុឆមាស	-9.70538
ប៉ារិស៖	-9.70538
ការភាគ	-9.70541
ជាង	-9.70543
សមា	-9.70548
អសាធារណៈ	-9.70548
ហ៊ូ	-9.70553
កិច្ចប្រជុំ	-9.70557
សាគរ	-9.7057
ជន្មាយុ	-9.70576
ហូតឿង	-9.70576
អញ្ជាញ	-9.70576
ស្រីលង្កា	-9.70576
អាចនឹង	-9.70586
ខែមករា	-9.70592
មាតុភាព	-9.70612
ព្រលានយន្ត	-9.70695
ការចាកចេញ	-9.707
ការចុះបង្ក្រាប	-9.707
ត្រលប់មក	-9.70709
លទ្ធផល	-9.70722
ណ	-9.70724
១៦២០	-9.7075
ហាត់ប្រាណ	-9.70754
ថ្មី	-9.70762
ទីដៅ	-9.70775
ល័ក្ខ	-9.70797
ការទទួល	-9.70814
ស៊ើប	-9.70819
ជីវិត	-9.70832
ភេទ	-9.70834
ឈរ	-9.70836
អំណរ	-9.70836
អាទិត្យ	-9.70842
រ៉ាប់រង	-9.70842
ឃ្មុំ	-9.70843
ហ៊ុន	-9.70844
ក្តៅ	-9.70845
ហារ	-9.70845
កខ្វក់	-9.70848
គម្រោ	-9.70848
រ៉ូមែនទិក	-9.70848
ត្រា	-9.70849
ទុកឲ្យ	-9.70849
អ៊ិន	-9.70849
ជណ្តើរ	-9.70849
អំពី	-9.70849
បូជា	-9.70849
ស្ដេច	-9.7085
យោគ	-9.7085
យ៉ង	-9.7085
ល្បែង	-9.7085
គំនិត	-9.7085
ឥណ	-9.7085
ហុក	-9.7085
កូនក្មួយ	-9.70852
ហាល	-9.70852
អំពើហិង្សា	-9.70855
ដារ័ត្នតី	-9.70856
ផ្ដោះ	-9.70856
សំរុះសំរួល	-9.70856
កាតព្វកិច្ច	-9.70856
ក្រេប	-9.70856
ងិន	-9.70856
ង៉ាយ	-9.70856
ថ្ងៃត្រង់	-9.70856
ទទក	-9.70856
ទំលុះ	-9.70856
បុត្តា	-9.70856
ប្លាស្ទិច	-9.70856
ផ្គាយ	-9.70856
ផ្នែក	-9.70856
ពីះ	-9.70856
មួក	-9.70856
រុទ្រ	-9.70856
ហ្វៀល	-9.70856
ហ្វ៍	-9.70856
អ៊ូមើត	-9.70856
ឥទ្ធ	-9.70856
កកូរក	-9.70856
ក្ម្សី	-9.70856
ឆាន់	-9.70856
តេី	-9.70856
ថេង	-9.70856
ទៅនឹហការ	-9.70856
បរិឆ្ឆេទ	-9.70856
ប៉ុក	-9.70856
ភ័ស្ដុតាង	-9.70856
មេត្ដា	-9.70856
រុស្ស៉ី	-9.70856
លិទ្ធិ	-9.70856
វូ	-9.70856
វ៉ឹន	-9.70856
សង្គហធម៌	-9.70856
ស្នាព្រះហស្ត	-9.70856
ហែលទឹក	-9.70856
ហ្គេក	-9.70856
អគ្នេយ៍	-9.70856
អនុប្បវាទ	-9.70856
អព្យាក្រឹត	-9.70856
អេាយ	-9.70856
អំពែរ	-9.70856
ឧស្សាហ៍	-9.70856
៕	-9.70856
ក្លឹប	-9.70856
ពាក់ព័ន្ទ	-9.70856
អូសាម៉ា	-9.70856
អ៊ីរ៉ាក់	-9.70856
ការបន្តឹង	-9.70856
ពាក្យបែបបទ	-9.70856
អៀង	-9.70859
នីល	-9.70859
មុនីរ័ត្ន	-9.70862
គំរូនាឡិកា	-9.70862
គីឡូវ៉ុល	-9.70863
ព្រះស្ដេច	-9.70863
វីលៀម	-9.70863
ព្រះនិមិត្ត	-9.70863
យាត្រា	-9.70863
លទ្ធិផល	-9.70863
ព្រះបន្ទូល	-9.70863
ស៊ែបប៊ី	-9.70863
ធីតា	-9.70863
សុខឿន	-9.70863
ទស្សនទាន	-9.70864
បទល្មើស	-9.70864
អក្សរសាស្រ្ត	-9.70864
នាញ	-9.70864
វែងឆ្ងាយ	-9.70864
កាបើក	-9.70864
ត្រៀមអី្វ	-9.70864
ធីម	-9.70864
អាការៈ	-9.70864
កូលាប	-9.70864
ទៀងទាត់	-9.70864
ត្រីមាស	-9.70864
ទស្សនកិច្ចប្រទេស	-9.70864
នរនាំឲ្យ	-9.70864
នីមួយ	-9.70864
កាត់ផ្ដ	-9.70865
ាច់ការទំនាក់ទំនង	-9.70865
គគុក	-9.70865
ត្របកភ្នែក	-9.70865
អំបោះ	-9.70865
ពីមុខ	-9.70865
នៅពេល	-9.70865
អក្សរសាស្រ្ដ	-9.70865
អ៊ីរ៉ង់	-9.70865
ហាង	-9.70865
ហេង	-9.70865
អ៊ីម៉េល	-9.70865
៣៥៧	-9.70866
អ៊ីចេះ	-9.70866
ក្រហម៖	-9.70866
ឧបមា	-9.70866
ជើងឯកជាតិ	-9.70866
ធនធាន	-9.70871
សាសង	-9.70872
ចៀសវាង	-9.70873
នៅក្នុង	-9.70873
ឆែវ	-9.70874
អ្នកចម្លង	-9.70884
ស៊ីណាត	-9.70887
អ្នកបញ្ចូល	-9.70887
អ្នកស្រូប	-9.70888
ឆេះ	-9.70894
ទទួលស្គាល់	-9.70909
ភាពតឹង	-9.70918
ផ្ទុក	-9.70937
២២	-9.70946
ការឈឺចាប់	-9.7095
ការរិះគន់	-9.70965
សប្រសាសន៍	-9.70975
មហាធា	-9.70977
ការរាំងស្ទះ	-9.71031
ឫស	-9.71036
យន្តការសំខាន់	-9.71036
អក្សរសាស្ដ្រ	-9.71039
ប្រធានាធិបតី	-9.71057
ចងចាំ	-9.71061
ទោសទណ្ឌ	-9.71066
ឧបាយកល	-9.71076
កែលម្អ	-9.71082
ទោសកំហុស	-9.71083
យ៉ាម៉ា	-9.71085
សេចក្តីមេត្តា	-9.71086
សុផានិត	-9.71096
ការការពារ	-9.71099
ធ្វើចរាចរណ៍	-9.71099
ការលើកលែង	-9.71101
ប្រេងកាត	-9.71104
វិភាគ	-9.71105
ការព្រួយ	-9.71131
ល្បុក្កតោ	-9.71139
សហប្រិត	-9.71139
ការសាម្គីភាព	-9.71139
បើកបវេសន	-9.71139
ទាំងស្រុង	-9.71146
សុផាន់	-9.71146
ថ្វាយបង្គំ	-9.71147
ទាញយក	-9.71164
ច្រណែន	-9.71169
១៧៤០០០	-9.71169
កំពង់ត្រឡាច	-9.7117
គណៈលេខា	-9.71172
ឈា	-9.71183
ចន្ទោល	-9.71187
សិក្ខាកាម	-9.71187
ពាក់កណ្ដាល	-9.71187
អាជ្ញាធរ	-9.71194
ទៅដណ្ដើម	-9.71196
ភាពភ័យ	-9.71207
ទោះ	-9.7121
បន្តិច	-9.71214
មិត្តភាព	-9.71215
គុណ	-9.71219
អន្ទះសារ	-9.71228
ឱ្យដឹង	-9.71234
ឡង់	-9.71234
ភាពលម្អៀង	-9.71239
វិកលចរិត	-9.71242
អូស្រ្ដាលី	-9.71242
កាណូត	-9.71242
អាឡឺម៉ង់	-9.71242
ប្រស្នាក៏	-9.71244
ដើមទុន	-9.71249
អុកស៊ីសែន	-9.7125
ចំណាយ	-9.7125
កម្មវីធី	-9.71255
ចៅហ្វាយ	-9.71257
ក្រូច	-9.71259
នាទីក្រុង	-9.7126
ចាក់អង្រែ	-9.71273
បទចម្រៀង	-9.71278
២០៣០	-9.71281
ពូជសាស្រ្ដ	-9.71282
ថត	-9.71283
កូន	-9.71288
ដើម្បីឲ្យ	-9.71299
ឌីង	-9.713
តូចតាច	-9.71305
ជាប់សោរ	-9.71305
ប្រថុយ	-9.71305
លីថលហ្វីល	-9.71305
នឿយហត់	-9.71305
អតិផរណា	-9.71305
ទៀតសោត	-9.71312
អំណោយផល	-9.71313
ខួរក្បាល៖	-9.71313
ការខាតបង់	-9.71314
ឆមាស	-9.71315
ការអភិរក្ស	-9.71333
កិច្ចប្រជំុ	-9.7134
ពោរពេញ	-9.7134
ស្នងកនង	-9.7134
ស្ករបៀម	-9.7134
យករង្វាន់	-9.71344
ព្រហ្មទណ្ឌ	-9.71347
សាសនិកជន	-9.71347
មណ្ឌលគិរី៖	-9.71348
ខុសសភាព	-9.71348
ជជែកគ្នា	-9.71348
បទសម្ភាស	-9.71348
សង្គមកិច្ច	-9.71365
បារម្មណ៍	-9.71368
ការដឹកនាំ	-9.71369
វឌ្ឍនា	-9.71373
ម៉ាសាបាច់	-9.71378
ម៉ាសេដូន	-9.71378
ការស្អាតស្អំ	-9.71378
សម្ព័ន្ធមិត្រ	-9.71378
ស្តង់ដា	-9.71379
តារាចម្រៀង	-9.71382
ណារ៉ុង	-9.71384
ការពារ៖	-9.71394
ការពុល	-9.71396
ត្រូវការចិន	-9.71403
ការបំផុស	-9.71405
ចង្អុល	-9.71471
សម្ងាត់	-9.71472
ពិសោធន៍	-9.71482
កិបកេង	-9.71503
យាយី	-9.71512
ប្រើ	-9.71522
ក្រៅ	-9.71545
ស្លា	-9.71553
នាគមន៍	-9.71557
ចំណីរ	-9.71557
៤៩០០០	-9.71564
ផ្សា	-9.71568
ព័ត៌មាន	-9.71569
ភាពស៊ាំ	-9.7157
ច្នៃប្រឌិត	-9.71572
តំណាងរាស្រ្ត	-9.71573
ក្វាន់	-9.71578
និង	-9.71582
នូ	-9.71582
សៀវភៅ	-9.71582
ការគាំ	-9.71582
ណែន	-9.71583
ផ្សារ	-9.71584
ទីលាន	-9.71588
បញ្ចាំ	-9.71589
ស្ទើ	-9.71589
ផាន់	-9.7159
សោត	-9.7159
អ៊ុយ	-9.7159
មូន	-9.7159
ភ្លេច	-9.7159
ជួរ	-9.7159
សក្តិ	-9.7159
ក្រោក	-9.71591
វិច្ឆកា	-9.71591
ទិច	-9.71591
ប្រភព	-9.71596
បង្អាប់	-9.71597
ផូស្វ័រ	-9.71597
ការភ័យខ្លាយ	-9.71597
ក្រយៅ	-9.71597
ឆ្លូវ	-9.71597
ជ៉ោន	-9.71597
ណែនំា	-9.71597
បោរ	-9.71597
ពុះកញ្ជ្រោល	-9.71597
មែក	-9.71597
ស្មាស់	-9.71597
ក្មេក	-9.71597
គង្វាល	-9.71597
ចុះបញ្ជិកា	-9.71597
តេហ៉េ	-9.71597
ទស្សនាវដ្ដី	-9.71597
ទុនិក	-9.71597
ធើ	-9.71597
បង្អាក់	-9.71597
បូព្រឹក្ស	-9.71597
ប៊ិក	-9.71597
ប្លក់	-9.71597
ផ្គូរ	-9.71597
ផ្ទះសម្បែង	-9.71597
ភ្លូក	-9.71597
មិត្ដភ័ក្រ្ដ	-9.71597
រុី	-9.71597
រៀងដរាប	-9.71597
លោកិយ	-9.71597
សណ្តំ	-9.71597
សមត្ថិច្ច	-9.71597
សូរ៉ែន	-9.71597
សោភ័គ	-9.71597
ស្គរ	-9.71597
ស្ទូឌីយ៉ូ	-9.71597
ស្យុក	-9.71597
ស្យូម	-9.71597
អាល់ហ្សេរី	-9.71597
អិម	-9.71597
អ្នកតូ្រវការ	-9.71597
ឧដុង្ក	-9.71597
ិនិច្ឆយ័ដូចម្តេច	-9.71597
ឆៃយៈ	-9.71597
ដណ្ដឹង	-9.71597
ព្រះក្រឹស្នា	-9.71597
មើស៏	-9.71597
ម៉ិកស៊ិក	-9.71597
យ៉ូស	-9.71597
សុបត្ថិភាព	-9.71597
ហេបូសឡាហ៍	-9.71597
អ៊ុច	-9.71597
មហាក្សត្រ	-9.71597
រសជាតិ	-9.71597
ស្តីបង	-9.71598
ដូង	-9.716
គណរដ្ឋមន្រ្តី	-9.71603
ថ្មើរជើង	-9.71603
សាជាថ្មី	-9.71603
សាវុធ	-9.71603
ទឹកឃ្មុំ	-9.71603
ច្រកទ្វារ	-9.71604
ពាក្យបណ្ដឹង	-9.71604
ភូមិភាគ	-9.71604
ប្រយោល	-9.71604
ជ្រៅលង់	-9.71604
នាំមក	-9.71604
បែរងាក	-9.71604
អាគុយ	-9.71604
ពុះពារ	-9.71605
កូរិន	-9.71605
ព្រះមុនីវង្ស	-9.71605
វណ្ណៈ	-9.71605
សំណើសុំ	-9.71605
ស៉ីម	-9.71605
រូបកាយ	-9.71605
ហ៊ាង៖	-9.71605
ជ្រលក់	-9.71605
ភ្នំពេញៈ	-9.71606
រៀនៅ	-9.71606
៤៩៧	-9.71606
វរសេនា	-9.71606
ក្រាំង	-9.71607
ស្ថានប័ន	-9.71607
ការរួមរួប	-9.7161
មេច	-9.71611
ឃីត	-9.71615
ខ្នាត	-9.71618
អំពើប	-9.7162
អ្នកចាំ	-9.71624
អ្នកបម្រើ	-9.7163
អ្នកអភិវឌ្ឍ	-9.71633
អ្នកចាប់	-9.71634
ការពិសា	-9.71637
អ្នកក្រុង	-9.71637
តំណ	-9.7166
ព្រះរាជា	-9.71665
ដាំដុះ	-9.71667
ការចុះ	-9.71675
ការក្បាល	-9.71676
ចោ	-9.71682
ប្រាសចាក	-9.71692
០០	-9.71693
បទសន្ធិដ្ឋិភាព	-9.71695
មាន	-9.71698
ការសម្រាក	-9.71735
កម្មវិធី	-9.71749
ការគាំង	-9.71751
ជាបញ្ចប់	-9.71758
សមត្តកិច្ច	-9.71769
ទស្សនា	-9.71769
ការបញ្ចុះ	-9.7177
ការបង្ហើប	-9.71786
ហាក់បីដូច	-9.71812
ដំណើរការមាន	-9.71819
មហាវិទ្យា	-9.7182
ជើងឯក	-9.71835
ហេតុការណ៍	-9.71838
ភាពជាដៃគូ	-9.71853
វរសេនីយ៍	-9.71854
ឧត្តរមានជ័យ៖	-9.71858
ការបន្ត	-9.71863
ទម្រង់	-9.71863
ចចាមអារាម	-9.71869
ប៊ុយណូស៊ែ	-9.71869
ការដឹកជញ្ជូន	-9.71872
រោគវិនិច្ឆ័យ	-9.71877
រីករាលដាល	-9.7188
៣	-9.71883
ការទូរស័ព្ទ	-9.71884
អាស៊ី	-9.71893
ការខឹងសម្បា	-9.71894
សេចក្ដីអំណរ	-9.71899
ហេតុផលប៉ះពាល់	-9.71904
ស្កប់ស្កល់	-9.71907
ថែរក្សា	-9.71915
សិល្ប៍សាស្ត្រ	-9.71928
៩៣	-9.7193
ស្ថានការណ៍	-9.71933
ប្រសិនបើ	-9.71933
ព្រះសីហនុ៖	-9.71936
ហូរ	-9.7195
អ្នកនាំចេញ	-9.71957
អន់ថយ	-9.71958
នំ	-9.71962
ធុរ	-9.71962
ន	-9.7198
ណាត់ជួប	-9.71982
២០០១	-9.71982
សែន	-9.71983
ឡាំ	-9.71983
ការសន្និដ្ឋាន	-9.71996
កែម	-9.72003
៣៩	-9.72004
ការគ្រោងទុក	-9.72006
នីតិកាល	-9.72006
អ្នករងគ្រោះ	-9.72007
ម៉ាស៊ីន	-9.72013
ជ្រើសតាំង	-9.72021
ត្រចះត្រចង់	-9.72024
អភិវឌ្ឍនភាព	-9.72024
ខាងក្រោម៖	-9.7203
៨៩៣	-9.72031
ប្រទេសជាប់	-9.72031
សហចៅ	-9.72031
ស៊ីហ្គេម	-9.72041
ការបែកបាក់	-9.72044
សាសនា	-9.72048
អនុញ្ញត្តិ	-9.72052
រាគ	-9.72058
នៅក្បែ	-9.7206
លើកលែងតែ	-9.72066
ឧត្តុង្គឧត្តម	-9.72082
អ្នកម៉ៅការ	-9.72083
ជួបប្រទះ	-9.72084
ចាក់ផ្សាយ	-9.72089
កសិផល	-9.72089
បណ្តុះបណ្តាល	-9.72091
ប្រជាពលរដ	-9.72114
ហ្វាតាហ	-9.72114
ការស្កេន	-9.72114
ជារៀងរាល	-9.72114
បណ្តុះបណ្តា	-9.72115
សំណល់	-9.72115
ធីវ	-9.72128
១៦៤៣	-9.7214
ចំពោះញ្ញត្តិ	-9.72149
ជប់លៀង	-9.72149
លក្ខណៈ	-9.72149
កាកបាត	-9.72157
គ្រឿងទេស	-9.72157
មួលក្រពើ	-9.72157
ការបាត់បង់	-9.72174
ភូមិជំនីក	-9.72186
ម្សិលមិញ	-9.72186
ថ្ងៃព្រហស	-9.72186
បណ្ដញ	-9.72186
ម៉ាដដូស៍	-9.72186
ភាគហ៊ុន	-9.72193
៣០០០ភព	-9.72194
កម្លាំងចិត្ត	-9.72194
កំហាក	-9.72194
៧៨០០	-9.72204
២០១៩	-9.72213
ការគិតគូរ	-9.72215
ឈ្ងោក	-9.72221
ការប្រញាប់	-9.72224
នយោបាល	-9.72226
បំផ្លើស	-9.72226
អន្ដរកាល	-9.72226
ស្តីបន្ទោស	-9.72231
បន្ធូរបន្ថយ	-9.72233
ប្រព្រឹត្តិ	-9.72233
លេចខ្លួន	-9.72233
សច្ចាប័ន	-9.72233
ចូលប្លន់	-9.72234
ចំការលេី	-9.72234
ការគ្មាន	-9.72235
ខុសត្រូវ	-9.72237
៥៤៩	-9.72242
ស៊ីណន	-9.72243
បះបោរ	-9.72249
ស្រមៃ	-9.72249
អ្នកសង្គ្រោះ	-9.72251
យោគយល់	-9.72256
ស្វែងយល់	-9.72263
បកប្រែ	-9.7227
សាធារណការ	-9.72274
ប្រុងប្រយ័ត្ន	-9.72279
ភាពប្រសើរឡើង	-9.72293
គួ	-9.72294
យ៉ាម៉ាហា	-9.72294
ការដណ្ដើម	-9.72304
ទល់	-9.72308
ពិធី	-9.72314
ឡុង	-9.72315
គ្រឹះ	-9.72317
គីឡូ	-9.72321
ខោ	-9.72321
អន់	-9.72328
ស្រះ	-9.72328
ប្លន់	-9.72328
ប្រូតេអ៊ីន	-9.72336
សិលា	-9.72337
វាសនា	-9.72337
សារទរ	-9.72337
កម្រៃ	-9.72343
ការប្រុងប្រយត្ន័	-9.72343
កុម្មុយនិស្ត	-9.72343
តាកែវ	-9.72343
បក្ខពួក	-9.72343
មត់ចត់	-9.72343
សេ្ដច	-9.72343
អ្នកហ៊ឺហា	-9.72343
កស្សិណ	-9.72343
កំហុសឆ្គង	-9.72343
ឃឿន	-9.72343
ចំលែក	-9.72343
ញុង	-9.72343
បង្ហូរ	-9.72343
ប៊ូឡា	-9.72343
ផ្លោង	-9.72343
ពោធិចិន	-9.72343
ភៀវ	-9.72343
មូលនិធិ	-9.72343
វង្វេងវង្វាន់	-9.72343
សន្ដិវង្ស	-9.72343
សន្ទិដ្ឋិភាព	-9.72343
អព្យាក្រឹត្យ	-9.72343
អ៊ីសា្រអែល	-9.72343
ខៀវ	-9.72343
តង់ហ្សានី	-9.72343
ព្រះគ្រីស្ត	-9.72343
រដិបរដុប	-9.72343
ស៊ុម	-9.72343
ហ្រ្វេ	-9.72343
រលាប្អៀរ	-9.72343
ក្បែរ	-9.72344
កំពង់ធំ	-9.72346
ដៃគូ	-9.72349
ហកម្ម	-9.72349
ចំវា	-9.7235
មាតាបិតា	-9.7235
ទីណា	-9.7235
សមប្រកប	-9.7235
សាកសព	-9.7235
ពិធីការិនី	-9.7235
មានអាម្មណ៍	-9.7235
ចំក	-9.7235
ទ្រៀវ	-9.7235
រ៉ាណារិទ្ធ	-9.7235
អន់ចិត្ត	-9.7235
គួរតែ	-9.72351
ព្រះមួយ	-9.72351
សមភាគី	-9.72351
ក្របខណ្ឌ	-9.72351
ថ្ងៃទី	-9.72351
បើកបង្ហាញ	-9.72351
លេវី	-9.72351
កម្ពុជា៖	-9.72351
ទឹកនោម	-9.72351
សៅលី	-9.72351
១៩៧២	-9.72351
ព្រៃវែង	-9.72351
ថាៈ	-9.72351
ខាងឆ្វេង	-9.72352
ចុងបញ្ចប់	-9.72352
កាតាំង	-9.72352
រុក្ខជាតិ	-9.72352
ឫទ្ធី	-9.72352
អូតង់	-9.72353
ទទួលស្គាល់៖	-9.72354
ហួត	-9.72357
តម្រូវឱ្យ	-9.72359
សហវ	-9.72362
បេត	-9.72363
ជាទីស្រឡាញ់	-9.72364
ប្រជាជនក្បត់	-9.72367
ស៊ាំ	-9.72371
ការបន្លាស់	-9.72377
អ្នកណាស់	-9.7238
ការបែងចែក	-9.7238
អ្នកប្រកួតប្រជែង	-9.72406
ស្នាក់	-9.72412
ការព្យាយាម	-9.72417
ការសោយ	-9.72486
ការខាត់	-9.72495
ការប្រមាថ	-9.72515
ស៊ុត	-9.72563
អាសយដ្ឋា	-9.72569
ខែវិច្ឆិការ	-9.72579
ការសាទរ	-9.72584
សោភ័ណ្ឌភាព	-9.72592
តាណាត់	-9.72603
មូលហេតុត	-9.72606
អេលិចត្រូនិក	-9.7261
ប្រយុទ្ធអន្តរ	-9.72633
ការអាថ៌កំបាំង	-9.72639
មន្តអាគមន៍	-9.72639
កន្លង	-9.72641
ភាពរុងរឿង	-9.72648
សាធារណះ	-9.72655
ការប៉ងប្រាថ្នា	-9.72655
សហគ្រាស	-9.72655
រងគ្រោះ	-9.72661
ពួកគាត់បញ្ចប់	-9.72662
២៥០០	-9.72665
កោតស្ញប់ស្ញែង	-9.72671
ទូលំទូលាយ	-9.72671
ឡាសាមាន	-9.72671
អន្តរាគមន៍	-9.72673
ស្មើភាព	-9.7268
១២៧៤២	-9.72695
រូបនីយកម្ម	-9.72699
ពាណិជ្ជកម្ម៖	-9.72712
ឯករាជជាតិ	-9.72716
សភាព	-9.72717
ចិត្ដមក	-9.7272
សុខាភិបាល	-9.72722
៦៨៧	-9.72723
ការជំរុញឱ្យ	-9.72724
អ្នកកាទូត	-9.72726
ពេលនេះ	-9.7273
ការចុះផ្សាយ	-9.72731
សង្គមកិច្ច៖	-9.72733
ដំណើរការព្រឹក	-9.72736
ចាប់រំលោភ	-9.72736
នគបាល	-9.72755
១៨៤	-9.72756
ស្នងការបាន	-9.72757
បោះជំរុំ	-9.72757
សថ្លា	-9.72758
បែលហ្សិក	-9.72768
កៀ	-9.72772
លិខិតស្នាម	-9.72774
ខាងមុខ	-9.72776
នាំឲ្យបាត់បង់	-9.72776
ក្លូត	-9.72784
ជាធនាគារ	-9.72785
ការពឹងពាក់	-9.72786
វស្ម័គ្រ	-9.7279
ពាណិជ្មកម្ម	-9.72791
ទទួល	-9.72808
ពន្ធនាគារ	-9.72808
វៀតណា	-9.72809
ស្បែកជើង	-9.72821
អេ៣២០	-9.72823
បន្តបន្ទាប់	-9.72837
មីលីម៉ែត្រ	-9.72841
ការរុករាន	-9.72841
ស្រអាប់	-9.72841
នគរូបនីយកម្ម	-9.72848
ត្រូវការពេល	-9.72849
ដរាបណា	-9.72849
ការរួម	-9.72852
ដោះ	-9.72859
២៦០	-9.72868
ការកែប្រៃ	-9.72869
កណ្តាប់ដៃ	-9.72869
អាយុកាល	-9.72877
និទណ្ឌភាព	-9.72898
លួងលោម	-9.72898
សង្ខីភាព	-9.72898
ឧទាហរណ៍	-9.72898
ការផ្អាប់	-9.72905
ទីមនោរម្យ	-9.72906
អនុសញ្ញា	-9.72906
ហោប៉ៅ	-9.72907
ខាងកើត	-9.72908
កំពង់ស្ពឺ៖	-9.72939
បីបាច់ថែទាំ	-9.7294
ការធ្វើជា	-9.72943
ព្រស	-9.72961
ឧត្តុនិយម	-9.72964
កំពង់កណ្តាល	-9.72973
ខាងអាហារ	-9.72974
ស្លាកលេខ	-9.72974
ក្រុមការងារ	-9.72979
ភាពស្មុគស្មាញ	-9.72981
១៤០០០	-9.72985
អ្នកអត់	-9.72988
ប្រតិបត្ត	-9.73001
ស្ងប់ចិត្ត	-9.73001
ដំណើរការនាំ	-9.73002
សហគម	-9.73003
០៨	-9.73003
ឈានដល់	-9.73008
ប្រែប្រួល	-9.73008
កត់ត្រា	-9.73008
ព្រមាន	-9.73012
វិលត្រឡប់មក	-9.73015
៣៧០	-9.73017
អ្នកលឿង	-9.73018
ថ្លៃថ្នូរ	-9.7303
សហករណ៍	-9.73032
អេបូឡា	-9.7304
បាតុកម្ម	-9.73041
ក្ដី	-9.73042
មើលទៅ	-9.73043
ទុន	-9.73053
បន្ទាប់ពី	-9.73055
យកមក	-9.73061
ទេសចរណ៍	-9.73063
រិក	-9.73065
ព្រោះ	-9.73068
សោះ	-9.73069
រកាំ	-9.73072
អឺរ៉ុ	-9.73075
អ្	-9.7308
កីឡា	-9.73081
ជ្រោយ	-9.73082
វត្ដ	-9.73083
ផ្អែមល្ហែម	-9.73087
ធន់	-9.73088
ថៃ	-9.73088
បន្ធូរ	-9.73088
យួរ	-9.73088
អនាគត	-9.73088
ឥទ្ធិពល	-9.73088
ពុទ្ធិ	-9.73088
ហៀង	-9.73089
ចាញ់បោក	-9.73095
ក្រពះ	-9.73095
យ៉ូស្វេ	-9.73095
ស៊ូណាមិ	-9.73095
ក្រលេក	-9.73095
ចិញ្ចែង	-9.73095
ច្រាល់	-9.73095
ឆាលស៍	-9.73095
ឈ្មះ	-9.73095
ថោន	-9.73095
បរម្ភ	-9.73095
បរិបូណ៌	-9.73095
បឹងត្របែក	-9.73095
ប៉ុស្ថិ៍	-9.73095
ប្រៃនីយ៍	-9.73095
ភាពធូរលុង	-9.73095
ភាពរំជើបរំជួល	-9.73095
ភ្ញៀង	-9.73095
មិត្តភក្កិ	-9.73095
មំា	-9.73095
ម៉ាសុីន	-9.73095
វុឌ្ឍ	-9.73095
សមិទ្ធករ	-9.73095
ស្រួប	-9.73095
អីុម៉ែល	-9.73095
ឥណ្ឌូចិន	-9.73095
ឥណ្ឌូណេស៊ី	-9.73095
ខួរកំប្រុក	-9.73095
សន្ទុះ	-9.73095
ស័ក្ក	-9.73095
ឥស្សរជន	-9.73095
កញ្ចក់	-9.73095
សុិស	-9.73095
ទីស្ដីការ	-9.73095
ជួបពិភាក្សា	-9.73101
៣៣កម្មវិធី	-9.73102
កំឡាំង	-9.73102
បង្កឱ្យ	-9.73102
មហាវិថី	-9.73102
ស្តីឲ្យ	-9.73102
អ្វី	-9.73102
ក្រុមហ៊	-9.73102
ដំណើរទស្សនៈកិច្ច	-9.73102
រកនាម	-9.73103
គំរោងចរចា	-9.73103
ទ្រព្យសម្បត្តិ	-9.73103
សុគត់	-9.73103
១៩៨៩	-9.73103
និមិត្តរូប	-9.73103
សុខសាន្ត	-9.73103
នឹកស្មាន	-9.73103
ព្រះចេស្តា	-9.73103
ឧត្តម	-9.73103
អេបី	-9.73104
កែវសីមា	-9.73104
ចាប់តាំងពី	-9.73104
ដូចនេះ	-9.73104
លាលែង	-9.73104
កំនែ	-9.73105
ហ្វេសបុក	-9.73105
អាហ្សង់ទីន	-9.73106
ទីលានដ្ឋាន	-9.73106
៤៨០០	-9.73111
អែ	-9.73111
២០១៧	-9.73112
លំបាក	-9.7312
១៧០០០	-9.73125
ឈានទៅ	-9.73148
ខ្ញុំ	-9.73161
អាហា	-9.73175
ការគោះ	-9.73177
ការដឹង	-9.73201
ការប្រសើរ	-9.7322
ភាពងាយស្រួល	-9.7324
ផ្លាស់ប្ដូរ	-9.73275
ផ្លូវការបាន	-9.73307
ការស្រលាញ់	-9.73315
សហរដ្ឋ	-9.73357
មហារីកចក្រភព	-9.73383
លើកទឹកចិត្ត	-9.73387
សាកសួរ	-9.7339
ឯកសណ្ឋាន	-9.73399
ក្សត្រា	-9.73403
បណ្ដាក់ទុន	-9.73465
ការវាយលុក	-9.7347
ដេស	-9.73483
ខ្លួន៖	-9.7349
មែលីស្សា	-9.73497
ភាពទំនើប	-9.73506
យៅហោតុង	-9.73514
ការកាត់សេចក្តី	-9.73516
និទ្ទេស	-9.73517
ទីបញ្ចប់	-9.73518
ដឹងខ្លួន	-9.73521
សួរនាំ	-9.73522
ព្រះករុណា	-9.73522
ទូក	-9.73524
កាប៊ិន	-9.73527
សាធារណជូន	-9.7354
ប្រឆាំងជំទាស់	-9.73549
នៅមុខរដ្ឋសភា	-9.73559
ជើង	-9.7356
ទេព	-9.73563
ព្រះកាយ	-9.73579
យប់	-9.73586
ជាជាច្រើន	-9.73599
រមូរ	-9.73607
ចក្រភព	-9.73608
បដិសន្ធិឡើង	-9.73615
ការរៀបរាប់	-9.73619
ការជញ្ជឹង	-9.73619
ព្រះខែ	-9.73619
ផែនការជួយ	-9.73634
អ្នកលក់ដូរ	-9.73646
សែនសុខ	-9.73646
អធិការដ្ឋាន	-9.7366
និក្ខេបបទ	-9.73673
បញ្ជាការដ្ឋាន	-9.73677
មោក្ខភាព	-9.73692
សម្រួល	-9.73698
ពាក្យពេញ	-9.737
ការទុកចិត្ត	-9.737
ក្បាលពោះ	-9.73701
ការសុំទោស	-9.73708
អសោច	-9.73716
នីត្រូហ្សែន	-9.73722
យល់ច្រលំ	-9.73722
អាល់កុល។	-9.73728
គ្រូបង្ហាត់	-9.7373
ពឹងផ្អែក	-9.73738
លើសមា	-9.73739
ស្បែក	-9.7374
ជួបជុំ	-9.73745
ឡោមព័ទ្ធ	-9.73745
ការបន្សាំ	-9.73753
បៀតបៀន	-9.73753
ខ្វែងគំនិត	-9.73758
ឡូយឆាយ	-9.7376
សិល្បការិនី	-9.73761
រួមគ្នា	-9.73762
គគ្រោង	-9.73762
ប៉ុនប៉ង	-9.73766
កម្រាស់	-9.73787
អនិច្ចធម្ម	-9.73787
តូចចិត្ត	-9.73796
លុយកាក់	-9.73796
អស្តង់ប៊ុល	-9.73797
ជនជាតិ	-9.73798
ការដេញថ្លៃ	-9.7381
បោក	-9.73811
ការកសាង	-9.73811
បណ្តាល	-9.73813
មតិ	-9.73818
ឧក្រិដ្ឋកម្ម	-9.7382
កំពង់ធំ៖	-9.73831
ព្រះនាម	-9.73831
ប្រជារាស្ត្រ	-9.73831
សីល	-9.73837
សំណាក	-9.73838
ឡើយ	-9.73839
អុក	-9.73844
ជ្រុំ	-9.73845
អតិភាព	-9.73845
ហឹម	-9.73846
ស្រាប់	-9.73846
ការតែត	-9.73852
ពាល	-9.73852
កន្ទក់	-9.73853
កំសួល	-9.73853
ចង្រិត	-9.73853
ថែក្សា	-9.73853
បំផ្លិត	-9.73853
ប្រតិកិរិយា	-9.73853
ព្រែក	-9.73853
មិត្តភក្ត	-9.73853
វិចារណក	-9.73853
សិរិមត	-9.73853
ស្រាល់	-9.73853
អត្តពាល	-9.73853
ការរិយាល័យ	-9.73853
ខែ្ស	-9.73853
ចោទិយក	-9.73853
ដឹកញ្ជូន	-9.73853
ឋានន្ដរស័ក្ដិ	-9.73853
តន្ត្រី	-9.73853
ធ្វើតេសប័រ	-9.73853
ប្រជាភិថុតិ	-9.73853
ប្លេក	-9.73853
ម៉េង	-9.73853
សង្គ្រាន្ត	-9.73853
សមរម្យ	-9.73853
សិរី	-9.73853
សិវបាទ	-9.73853
សុជីវ័ន្ន	-9.73853
សំរឹទ្ធិ	-9.73853
ស្តុក	-9.73853
ហែម	-9.73853
ហ្គីល	-9.73853
អន្លង់	-9.73853
អម្បាញ់	-9.73853
អាល់ឡាហ្វ	-9.73853
អុញ	-9.73853
អ៊ឹម	-9.73853
ឳឡោក	-9.73853
ទូលាយ	-9.73853
សុភក្ត្រា	-9.73853
ស្មុក	-9.73853
បវរកញ្ញា	-9.73853
គេចខ្លួន	-9.73854
ទាមទា	-9.73855
ព្រមទាំង	-9.73855
ប្រើប្រាក់	-9.73858
គូលែន	-9.7386
ម្យ៉ាងទៀត	-9.7386
សំដៅ	-9.7386
ក៏ប៉ុន្តែ	-9.7386
ឌីយោ	-9.7386
បោសសំអាត	-9.73861
ប៉េកាំង	-9.73861
១៤៩	-9.73861
កំពង់តែ	-9.73861
ជីវប្រវត្តិ	-9.73861
នាឡិកាដៃ	-9.73861
វែរហ្សេ	-9.73861
សំអាត៖	-9.73861
ពួកក្បត់	-9.73861
ទួទៅ	-9.73861
ទូរសារ	-9.73862
បណ្ដាលឱ្យ	-9.73862
គូថ	-9.73862
អស័យដ្ឋាន	-9.73862
មធ្យោបាយ	-9.73862
ស្ទូឌីយោ	-9.73862
សូទ្រនិគម	-9.73862
បញ្ជាការ	-9.73863
អូល	-9.73863
ក្រហាយ	-9.73863
ពិពិធកម្ម	-9.73867
ចាប់ដៃគូ	-9.73868
មករារាំង	-9.73868
២០១៦៖	-9.7387
មេខ្យល់	-9.7387
គ្រឿងផ្សំ	-9.7387
គ្រុនចាញ់	-9.7387
សម្រាប	-9.7387
អុកស៊ីត	-9.73874
សារ៉ាត	-9.73879
អ្នកស្លាប់	-9.73885
ចដល់	-9.73892
ការជឿ	-9.73895
កូឡា	-9.73904
ខ្វះខាត	-9.73941
ការកែប្រែ	-9.73952
ការកត់សម្គាល់	-9.73954
ការទូទៅ	-9.73975
១០០០០០០០០០	-9.73999
ការមកដល់	-9.73999
ស្រឡាញ់	-9.74051
ការព្យាបាល	-9.74064
រិះគន់	-9.74076
ស្វែងរក	-9.74098
ការនិយាយ	-9.74104
កាត់ទោស	-9.74107
លីយ៉ុង	-9.74176
ការយកចិត្ត	-9.74189
ទន្លេរ	-9.74212
នាក់	-9.74224
ការទំនាក់ទំនង	-9.74242
អ្នកទទួលទាន	-9.74246
អ្នកចាត់ការ	-9.74251
លាសរង្គោះរង្គើ	-9.74258
ការគ្របដណ្តប់	-9.7426
ចេញញើស	-9.74271
ថ្មើរ	-9.74276
ការស្នើសុំ	-9.74277
ថែ	-9.74278
គណៈអភិបាល	-9.74279
វក	-9.74293
ការលាតត្រដាង	-9.74297
ទ្វារ	-9.743
៤៣៦៤	-9.74308
ការកាត់ផ្តាច់	-9.74311
ការស្នាក់	-9.74327
លៀសកកូរ	-9.7433
សោភណ្ឌភាព	-9.7433
សហភាព	-9.74335
ការបណ្តាក់ទុក	-9.74347
អនាធិបតេយ្យ	-9.74355
ការសម្រិត	-9.74368
ម៉ាលី	-9.74372
ច្រានចោល	-9.74372
ភាពរ៉ូមែនទិក	-9.74373
ការធ្វើការ	-9.74388
អស់សង្ឃឹម	-9.7439
ប្រែក្លាយទៅជា	-9.74401
នយោបោក	-9.74403
ហ៊ីយ៉ាន់ដាយ	-9.74403
អង់ហ្សីម	-9.74403
ឧបទ្ទវហេតុ	-9.74403
អសបស្តីពី	-9.74413
ចាកចេញ	-9.7442
ការបញ្ចប់	-9.74422
ប្រៃសណីយ៍	-9.74425
ភា	-9.74434
អ្នកអាន	-9.74449
ក្រុម	-9.7446
អ្នកឯកទេស	-9.7447
សញ្ញាបត្រ័	-9.74471
ប្រឯកសារ	-9.74478
ហោរាសាស្ត្រ	-9.7448
ផ្ទុយទៅវិញ	-9.74504
សេចក្តីរំភើប	-9.74507
ការកែលំអ	-9.74508
ហ៊ឺហារ	-9.74514
ប៉ះទង្គិច	-9.7452
អស់	-9.74521
ពិន័យ	-9.74521
ការបាក់	-9.74523
បែកបាក់	-9.74526
ការបើក	-9.7453
ប្រធានបទ៖	-9.74536
ការបន្ទោបង់	-9.74539
ពេញ	-9.74547
ស្ថាបត្យករ	-9.74552
សាច់ញាតិ	-9.74558
ព្រះនៅក្នុង	-9.74559
អាមេរិក៖	-9.7456
ត្រឡប់បក	-9.74561
សង្ឃឹម	-9.74566
អំពីសំណាក់	-9.74566
ការត្រួតពិនិត្យ	-9.74574
អ្នកបង្កើន	-9.74574
កាលប្បវត្ដិ	-9.74583
ថ្ងៃអាទិត្យ	-9.7459
ប៉ោយប៉ែតៈ	-9.7459
គំរោង	-9.74591
ដែលោក	-9.74591
អូសរទេះ	-9.74592
នៅក្រោល	-9.74594
ធ្វើការវិញ	-9.74594
ស្នេហ៍	-9.74603
អ្នកចំណាយ	-9.74603
តារា	-9.74604
១៦០០០០	-9.74606
ឃ្លំា	-9.74608
ងងឹត	-9.74608
ឡូឡា	-9.74609
មិញ	-9.74609
នេត្រ	-9.74609
បត់បែន	-9.74616
តិញ	-9.74616
ផ្សះ	-9.74616
យាសាឍ	-9.74616
កញ្ជះ	-9.74616
ការ៉ាជី	-9.74616
បច្ច	-9.74616
បដិវត្តិ	-9.74616
ព្រឹតិ្តការណ៍	-9.74616
រត្ន័	-9.74616
លេន្ទ្រ	-9.74616
សព្វាវុធ	-9.74616
ស្ទឹត្រង់	-9.74616
ហ្គេន	-9.74616
អ៊ីនធ័រ	-9.74616
ឆឹង	-9.74616
ទុយ	-9.74616
បញ្ជៀស	-9.74616
បញ្ញើ	-9.74616
បល្ល័ង្ក	-9.74616
ប្រាជ្ញា	-9.74616
យថាហេតុ	-9.74616
វប្បធម៍	-9.74616
វិស្វករ	-9.74616
សេវកម្ម	-9.74616
ស្មៀន	-9.74616
ឡាកូស	-9.74616
ឡេង៉ុក	-9.74616
ឆានែល	-9.74616
ដេីរហារ	-9.74616
ប្រវត្តិសាស្ដ្រ	-9.74616
ភាពខុសគ្មា	-9.74616
រឿអាស្រូវ	-9.74616
ហេដ្ឋារចេនា	-9.74616
កូសាំងស៊ីន	-9.74616
ទ្រុឌទ្រោម	-9.74616
សាធារណរដ្ឋ	-9.74621
កាឆែកឆេរ	-9.74623
ត្រង់ណា	-9.74623
ខាងត្បូង	-9.74623
រាប់អាន	-9.74623
សារឿង	-9.74623
ល្បាក់	-9.74624
ការរចនា	-9.74624
សូរី	-9.74624
ទួលនេះ	-9.74624
អាគារ	-9.74624
ដណ្តើមកម្មសិទ្ធិ	-9.74624
ស្រស់ថ្លា	-9.74624
ជីពហុ	-9.74625
ភ្នំពេញ៖	-9.74625
សុង	-9.74625
ននល	-9.74625
ថ្លង់	-9.74625
អ៊ីអន	-9.74625
វត្ថុធាតុ	-9.74626
បាសាក់	-9.74626
ស្ថានទូត	-9.74626
អសហការ	-9.74628
នូវ	-9.74632
១១០	-9.74632
ទទួលបន្ទុក	-9.74633
កាស៖	-9.74634
អ្នកស្រែក	-9.74638
អ្នកស្ដាប់	-9.74642
៧៥០០០	-9.74642
បង្អោង	-9.74652
ការជួញដូរ	-9.74656
អកនាគ	-9.7466
ប្រាថេត	-9.74661
វិធីសាមញ្ញ	-9.74661
ហ្វេសឡាញ	-9.74662
ការវាយ	-9.74665
៤០០០	-9.74687
ផ្តាចព្រ័ត	-9.7469
៣៦៩២	-9.7469
សិសស្ស	-9.74691
ការថមថយ	-9.74691
ចក្រពត្តិ	-9.74691
ការចាក់	-9.74691
សភា	-9.74696
ខ្យល់ព្យុះ	-9.74697
ខែមេសា	-9.74698
ចាកចោល	-9.74698
ទាំងឡាយ	-9.74698
បំភ័ន្តភ្នែក	-9.747
២០០៨	-9.74706
ការឆបោក	-9.74726
ការផ្ទេរ	-9.7474
២០០៧	-9.74765
បត្រ	-9.74776
ដុត	-9.74807
ការកើន	-9.74808
កាលវិភាគ	-9.7483
ទូទាត់	-9.74847
បរទេស	-9.74871
ការព្យាយា	-9.74911
ហ្គោល	-9.74914
មហា	-9.74936
សាលាតា	-9.74945
ឈ្វេងយល់	-9.74957
សំណេរ	-9.74978
មុនី	-9.74983
គំរូ	-9.74985
នំមួយ	-9.74993
ចុះផ្សាយ	-9.75
មុនីនា	-9.75003
ការថ្នាំង	-9.75013
មនុស្សជា	-9.75018
សមាជិក	-9.75026
ចំ	-9.75028
សេចក្ដីសម្រេច	-9.75076
ចង្អោរ	-9.75079
២១៦៨	-9.75079
នាក់៖	-9.75081
សាសន័យូដា	-9.75086
សេចក្តីជូនដំណឹង	-9.75102
ទំនើបនីយកម្ម	-9.75112
ប្រជាកសិករ	-9.75133
បញ្ចេញមតិ	-9.7517
បឹងសាឡាង	-9.7517
ហាមឃាត់	-9.75172
ផែនការកសាង	-9.75187
តេឡេក្រាម	-9.75205
សស្រាក់សស្រាំ	-9.75205
នៅរសៀល	-9.75214
ការបង្វិល	-9.75223
ភាពផ្អែមល្ហែម	-9.75231
ការប្រែប្រួល	-9.75232
គ្របដណ្ដប់	-9.75243
រំឭក	-9.75249
សាមសិបភាព	-9.75264
អាហ្គានីស្ថាន	-9.75264
អ្នកនិពន្ធ	-9.75269
ទាក់ទង	-9.75283
១៣០	-9.75286
សំណៅ	-9.7529
ជួយសម្របសម្រួល	-9.75292
រហូតមកទល់	-9.75297
សេចក្តីត្រូវការ	-9.75297
ផ្លូវការ	-9.75309
គ្រោងការជាង	-9.75309
បន្ទាយស្រី	-9.75317
កានព្វស័ក	-9.75317
ដកដង្ហើម	-9.75318
ការរួមចំណែក	-9.75319
អ្នកប្រឡង	-9.75333
បន្ទាយមានជ័យ	-9.75342
បន្លាស់	-9.7535
សាសន៍	-9.75358
ដៃញាប់ញ័រ	-9.75361
បណ្ឌិត	-9.75366
ឯករាជ្យភាព	-9.75366
ប៉ារ៉ាឡាំពិក	-9.75368
ស៊ុយអែត	-9.7537
ហ្វេសប៊ុន	-9.7537
នៅហ្កាហ្សា	-9.75372
ព្យាករណ៍	-9.75375
បូព៌ា	-9.75378
ជ្រួល	-9.75378
ម៉ឺង	-9.75379
ជ្រុង	-9.75379
បែល	-9.75381
ហ៊ុមព័ទ្ធ	-9.75385
កេរ្តិ៍ដំណែល	-9.75385
ខាំ	-9.75385
គួបផ្សំ	-9.75385
ជាមែង	-9.75385
បង្ខូច	-9.75385
ប្រេស៊ីល	-9.75385
ព័ណ៌	-9.75385
មើនុយ	-9.75385
អភិវឌ្ឈ	-9.75385
ឯកតោភាគី	-9.75385
ណូឡា	-9.75385
បួងសួង	-9.75385
សន្ធោ	-9.75385
សេចក្ដីជូណ	-9.75385
សំភាសន៍	-9.75385
អាណាយក	-9.75385
អះអាថា	-9.75385
ប្រក់	-9.75385
រថយន្ដ	-9.75385
ប៉េង	-9.75387
ប្រតិចារឹក	-9.75389
រលួស	-9.7539
ប្រមាន	-9.75392
គណនី	-9.75392
ពួករ៉ូម	-9.75393
គឹស្អុយ	-9.75393
ដាច់ចិត្ត	-9.75393
យេរូ	-9.75393
ប្រាំមួយ	-9.75394
រតនាគារ	-9.75394
ដុងដាយ	-9.75394
រួមមានៈ	-9.75394
ភេរវករ	-9.75394
សម្បត្តិដ៍	-9.75394
អ៊ីណូ	-9.75395
ប៉ាស៊ី	-9.75395
តួអង្គ	-9.75395
៣៨៦០០០	-9.75395
ប៉ះកាន់	-9.75398
គកំពូល	-9.75399
អឺរ៉ុប៖	-9.75402
បាគីស្ថាន	-9.75403
អ្នកសម្អាត	-9.75415
ចាប់តាំង	-9.75417
បោះបង់	-9.75422
កាកសំណល់	-9.75427
ការសំខាន់	-9.75435
ចុះចត	-9.75446
សុវណ្ណារ៉ា	-9.75448
ហាមឃាត	-9.75453
អេដូហ្គេន	-9.75453
បោសសម្អាត	-9.75461
របៀបរបប	-9.75461
សំសុវណ្ណា	-9.75462
ថូម៉ាស	-9.75462
បាគីស្ថា	-9.75483
បេក្ខជន	-9.75487
ប្រហាជីវិត	-9.75488
រោងចត្វា	-9.75488
ស៏ឡូជី	-9.75488
ហិម៉ាល័យ	-9.75488
សេចរណ៍	-9.75488
សកលលោក	-9.75496
អារម្មណ៍	-9.75496
ហាមប្រាម	-9.75498
ក្រសែភ្នែក	-9.75526
និស្ស័យ	-9.75526
សុវត្តិភាព	-9.75526
សើស្បែក	-9.75533
សំគាល់៖	-9.75535
ឬស្សីកែវ	-9.75535
ការដកហូត	-9.75542
ការនឹក	-9.7555
ការពន្លឿន	-9.75573
សារ	-9.75589
ការជួសជុល	-9.75621
កសាងឡើង	-9.7564
រៀងរាល់	-9.75663
ប្រឹក្សា	-9.75697
បូណ៌ភាព	-9.7572
មិត្ដសំឡាញ់	-9.75727
ការកោសលុប	-9.75737
៥៨	-9.75742
លំហ	-9.75753
ការត្រៀម	-9.75765
ហួរ	-9.75772
១៩១១	-9.75781
បន្តិ	-9.75784
ការខ្វះខាត	-9.75792
មូល	-9.75797
ក្រម	-9.75797
ងាក	-9.75798
នាណាក់	-9.75813
ផែនការលំអិត	-9.75825
សនៃ	-9.75863
ទទួលរក្សាទុក	-9.75889
ការជន់	-9.75899
ណា	-9.75907
ការចោទ	-9.75914
ចុះហត្ថលេខា	-9.7594
គោលការណ៍	-9.75945
ការវិភាគ	-9.75952
គណៈកម្ម	-9.75967
១៤	-9.75975
រាប់	-9.75998
ឥស្សរិយយស	-9.76002
អំពាវនាវ	-9.76008
ស្នេហាជាតិ	-9.76011
ប្រាកដជា	-9.76011
លោកសង្ឃ	-9.76011
ផ្សាយ	-9.76014
ជាបច្ចេកទេស	-9.76017
ភាពបត់បែន	-9.76026
ភាពអព្យាក្រិត	-9.76034
កាលីហ្វរញ៉ា	-9.76034
ទទួលស្គាល	-9.76034
អ្នកសារពត៌មាន	-9.76035
ការតស៊ូ	-9.76046
៦០៦	-9.76065
សែនមនោរម្យ	-9.76077
▁កិច្ច	-9.76082
អ្នកសារព័ត៌	-9.76086
ព្រហើន	-9.76089
កាហ្សាស្ថាន	-9.76089
យុវនីតិសម្បទា	-9.76089
កើតមាន	-9.76093
ពូជសាសន៍	-9.76096
ការអត្ថាធិប្បាយ	-9.76106
▁កិច្ចសហប្រតិបត	-9.76106
លេចឡើង	-9.76117
អែល	-9.7612
ប្រហែលជាង	-9.76124
បាត់ដំបង	-9.76134
អំពើហឹង្សា	-9.76141
ពុទ្ធ	-9.76148
នល់	-9.76152
អគ្គីស	-9.76153
ភេសជ្ជ	-9.76153
សាវតា	-9.76153
ពុម្ព	-9.76153
ប្រជែង	-9.76153
សៀង	-9.76154
កុម្ភះ	-9.76154
ការសរសើរ	-9.76155
នគរូបនីកម្ម	-9.76155
ស្តួចស្តើង	-9.76155
ឡាំង	-9.76155
ឧទ្ទេសនាម	-9.76155
មរតត	-9.7616
ង៉ែអាន	-9.7616
មួហ	-9.7616
សាឡិក	-9.7616
ស្រពន់ចិត្ត	-9.7616
អនាមិក	-9.7616
អ៊ែល	-9.7616
ក្រានីត	-9.7616
ខែវិច្ឆុ	-9.7616
ឈីង	-9.7616
ញុាំ	-9.7616
ដាច់ស្រេច	-9.7616
ណឺត	-9.7616
ទូស្គ៍	-9.7616
នំប៉័ង	-9.7616
ប៉ុស្ត៍	-9.7616
មាត្រដ្ឋាន	-9.7616
ម៉ន	-9.7616
សំងំ	-9.7616
ស្រឡាយ	-9.7616
អច្ឆរិយៈ	-9.7616
ជាស្ថ	-9.76161
ពាណិជ្ជូបនីយកម្ម	-9.76161
ម៉ូសំប៊ិក	-9.76161
ល្មម	-9.76161
សករាជ	-9.76161
សណ្ដំ	-9.76161
៧៧១៤១	-9.76161
នយោបាយ៖	-9.76162
ទូច	-9.76162
ល្បាត	-9.76162
អេកូ	-9.76162
រូបសំណាក	-9.76163
ព្រហ្មលីន	-9.76163
ថ្ងែណូអែល	-9.76164
លើកម្មវិធី	-9.76167
ប្រទាន	-9.76167
ព្រះបាទ	-9.76168
អែក	-9.76168
រំលេចឡើង	-9.76168
ភាពអស់	-9.76168
នីតិវីធី	-9.7617
លំដាប់ថ្នាក់	-9.7617
នៅសល់	-9.7617
ហ៊ីនេះ	-9.7617
ប៉ូល	-9.7617
ចិត្តសាស្ត្រ	-9.76171
ចាប់បង្ខំ	-9.76171
មេអ៊ី	-9.76171
វះកាត់បន្ថយ	-9.76171
អ្នកតំណាង	-9.76178
កម្មវិទាំងនេះ	-9.7618
ចែករំលេក	-9.7618
ញាឹកញាប់	-9.7618
ដឺកាសម្រេច	-9.7618
ចំណូលចិត្ត	-9.76181
សែនរវល់	-9.76187
៦៣៦៦៨	-9.76188
អ្នកស្នើសុំ	-9.76194
អ្នកតំណាងរាស្រ្ត	-9.76199
ការតបឆ្លើយ	-9.76202
ចៅក្រ	-9.76204
រួមចំណែក	-9.76205
កិត្តិយស	-9.76205
កាណាឌីយ៉ា	-9.76206
នុយក្លេអ៊ែរ	-9.76206
ពីសំណាក់	-9.76207
ជាបន្ទាប់	-9.76209
ជើងហោះហើរ	-9.76213
ពួកអាចារ្យ	-9.76214
ម៉ារ៉ាតុន	-9.76214
២០០	-9.76224
២៤៩	-9.76231
ប្រេងឥន្ធនៈ	-9.76234
រួមរស់	-9.76235
ការវិភាគសណ្ឋាន	-9.7624
ការតែងតាំង	-9.76242
កំពង់ឆ្នាំង	-9.76244
ទីស្រឡាញ់	-9.76255
អ្នកស្រុក	-9.76258
សប្បាយចិត្ត	-9.76262
ពត័មាន	-9.76264
០១២៧៦	-9.76264
តាណាកន	-9.76264
កិច្ចសន្ទនា	-9.76265
សោយសុខ	-9.76271
បែបយ៉ាង	-9.76272
ជីវសាស្ត្រ	-9.76273
ការរីង	-9.76289
ប៉ោយប៉ែត	-9.76289
ការចាប់ខ្លួន	-9.76291
សេរ៉ាមិច	-9.76297
ហ្សាការតា	-9.76297
អ៊ីនធឺណែត	-9.76304
តាកែវ៖	-9.76305
បោះចោល	-9.76305
ចំណាំង	-9.76306
ការបញ្ជា	-9.76308
៤១០០០	-9.76328
អាណត្តិ	-9.76332
រំឭករាស្រ្ត	-9.76338
សារសំខាន់	-9.76338
ជួបប្រជុំគ្នា	-9.76339
ក្របខ័ណ្ឌ	-9.7634
ទិសទី	-9.7634
អាវយឺត	-9.7634
ឥលូវនេះ	-9.76342
ការវាស់វែង	-9.7635
លើកលែង	-9.76357
អ័ប្រាហាំ	-9.76369
កំពង់គុល	-9.76369
គុម្មុយនីស្ដ	-9.76369
៣៣០០០០	-9.76369
សុវត្ថភាព	-9.76369
ចំហៀង	-9.76375
ចោមរោម	-9.76377
ព្រះនិមួយ	-9.76377
ម៉្យាងទៀត	-9.76377
ការបោះឆ្នោត	-9.76514
ណាន់	-9.76527
តេ	-9.76539
ភាពរស់រវើក	-9.76543
ក៏ប៉ុន្ដែ	-9.76547
កណើត	-9.76562
ការបញ្ចេញ	-9.76563
កោះហៅ	-9.76565
ការផ្ទៀងផ្ទាត់	-9.76579
កថា	-9.76596
ជាមួយន	-9.76602
៧២១	-9.76633
ស៊ើបការណ៍	-9.76634
១៩៥១	-9.76689
សប្បាយ	-9.76699
មកដល់	-9.76763
ការអះអាង	-9.76767
ការជជែក	-9.76769
ការនិយម	-9.76771
ការខ្វះ	-9.76795
០០០	-9.76804
មកកាន់	-9.76814
ការសប្បាយ	-9.76818
ត្រៀមលក្ខណៈ	-9.76822
សង្កេតឃើញ	-9.76825
កំពង់ផែ	-9.76829
ការកើតមាន	-9.76834
សេសសល់	-9.76837
យ៉ាងណាស់	-9.76852
ជំនួយការ	-9.76853
ការល្អ	-9.76862
ចូលរួមមាន៖	-9.76873
មន្ត្រីរាយការណ៍	-9.76882
ការបេ្រលង	-9.76889
អបអសាទ	-9.76889
ហាត់	-9.76901
សង្រ្គោះ	-9.76902
ចៅរ៉ៅ	-9.76909
ករណីតម្លើង	-9.76914
ចង	-9.76921
ប្រេហ្ស៊ីល	-9.76924
ខ្យល់	-9.76925
ខិតខំ	-9.76931
រដ្ឋការសេអ៊ូល	-9.76931
ល្ងង់	-9.76934
បណ្ដឹង	-9.76934
សិត	-9.76935
ការដូរ	-9.76941
បំរ៉ែ	-9.76942
វីរក្ស័ត្រិយ៍	-9.76942
វុទ្ធា	-9.76942
សណ្តែក	-9.76942
ស្រៀង	-9.76942
អនុវត្តាម	-9.76942
កម្មាភិបាល	-9.76942
កឹម	-9.76942
ខណះ	-9.76942
ខ្នើយ	-9.76942
ចួល	-9.76942
ជំនាន់	-9.76942
ថោង	-9.76942
បំរួល	-9.76942
ផឺកស៊ី	-9.76942
ពុទ្ធារ៉ា	-9.76942
វិឡា	-9.76942
សហសវត្សន៍	-9.76942
ស៊ុយអែដ	-9.76942
ឧទាហរ	-9.76942
កុមារា	-9.76942
កុមារី	-9.76942
កំពង់ត្រៀក	-9.76942
ជញ្ចៀន	-9.76942
ត្រយឹង	-9.76942
បំភ្លៃ	-9.76942
ស៊ីវលីន	-9.76942
សមិទ្ធិផល	-9.76943
ព្រឹត្ដិការណ៍	-9.76943
លាតសន្ធឹង	-9.76943
សំណាល	-9.76944
លើកគាត់	-9.76949
សាទុក្ខ	-9.76949
ដឹកន	-9.76949
ថ្នាំជក់	-9.7695
ប្រវែង	-9.7695
អនុញាតិ	-9.7695
ញាំសល់	-9.7695
ថ្មម	-9.7695
ជុំវិញ	-9.7695
ពាក្យសម្ដី	-9.7695
ប្រកិន	-9.7695
ភ្ញាក់ងារ	-9.76951
បទបញ្ជា	-9.76951
ម៉ាក្រូ	-9.76951
ចាត់ការបន្ដ	-9.76951
ក្បាច់គុន	-9.76951
ពិចារណា៖	-9.76952
វ៉ាលីស	-9.76957
ឯកឯង	-9.7696
វីរៈភាពរ	-9.76962
ស្ពឹកស្រពន់	-9.76964
អ្នកនាំពាក្យ៖	-9.7697
ជាមួយនិស្សិត	-9.76973
ត្រូវការបញ្ឈប់	-9.76981
ប្រស	-9.76983
័ន្ធទីផ្សារ	-9.76985
ក្របខ័ណ្ទ	-9.76985
របាយកាតណ៍	-9.76985
អ័ប្រាហំា	-9.76985
វីរៈភាព	-9.76989
សាងសង់	-9.76992
បញ្ចេញមតិ៖	-9.76993
រមាសហែក	-9.76993
អត្ថប្រយោជន៍	-9.77001
ចំណាកស្រុក	-9.77008
មេនូឡាយ	-9.77008
ស្វាយស្រណោះ	-9.77017
ខុនដូ	-9.77025
បរមសុខ	-9.7704
សាបសូន្យ	-9.77041
ស្នើអោយ	-9.77042
ស្រាអែល	-9.77048
ការពិន័យ	-9.77055
អស្បាញ៉ូល	-9.77058
ញូវហ្សេឡែន	-9.77058
មហាធាមហា	-9.77065
សាជីវកម្ម	-9.77066
បរិយកាស	-9.77086
កាត់ដេរ	-9.77094
ទីតាំងរកស៊ី	-9.77095
ជាញឹកញាប់	-9.77103
៣៥០០០	-9.77114
ប្រជារាស្ក្រ	-9.77116
កុម្មុនិស្ត	-9.77116
ចំណត	-9.77116
ជាមួកម្លាំង	-9.77116
សន្តតិវង្ស	-9.77116
បំលែង	-9.77116
ការដោះដូរ	-9.77118
លាតត្រដាង	-9.77119
ការកែទម្រង់	-9.77123
ល្វឹងល្វើយ	-9.77148
ក្រឡាញ់	-9.77148
សន្ទស្សន៍	-9.77148
អ៊ូស្រ្តាលី	-9.77148
ប្រនិធាន	-9.77148
សម្ពន្ធមិត្ត	-9.77156
មេបញ្ជាការ	-9.77157
ស្លឹកឈើ	-9.77157
ធម្មជាតិ	-9.77159
ការស្កប់ចិត្ត	-9.77164
ផលិតកម្ម	-9.77171
បណ្ដេញ	-9.77182
ខ្ជិលច្រអូស	-9.77182
រកលយក្យ	-9.77182
សាឡិម	-9.77182
សូមើមើល	-9.77182
សំណាញ់	-9.77182
ស្កោរហ្វាល	-9.77182
មហាស្លុត	-9.77189
អាយុជីវិត	-9.7719
ពលកម្ម	-9.77195
ក្រដាសស។	-9.77219
តម្លាភាព	-9.77219
សង្ខេប	-9.77219
អុកស៊ីហ្សែន	-9.77219
បដិវត្តន៍	-9.77219
រាលដាល់	-9.7722
ចុងក្រោយពីរ	-9.77227
ថ្វីដ្បិតតែ	-9.77228
ជាក់ស្ដែង	-9.77228
ការអង្គុយ	-9.77234
ចៅ	-9.77257
ការអង្កេត	-9.77258
រំលាយ	-9.77284
ជម្រុញឲ្យ	-9.77309
ជាជាតិ	-9.77322
សប្បុរសជន	-9.77343
ជំរុញឲ្យ	-9.77354
សា	-9.77356
ចំពី	-9.77361
សន	-9.77375
ព្រោះថា	-9.77383
ក្រពើរ	-9.77386
ខ្លាំង	-9.77431
ទស្សនកិច្ច	-9.77453
ម៉ាឡេស៊ី	-9.7751
ការប្រលង	-9.77557
ប្រសិទ្ធិភាព	-9.77575
ចាត់	-9.77579
ក្រឡេក	-9.77588
កំទេច	-9.7761
ទោះបីជា	-9.77619
កើនឡើង	-9.77634
ការចង្អុលបង្ហាញ	-9.77673
មោទនភាពជាតិ	-9.77674
ការគូសបញ្ជាក់	-9.77678
ប៉ាន៉ប្រមាណ	-9.77679
រៀង	-9.77683
ទេសាភិបាល	-9.77692
ឡ	-9.77692
អមនុស្សធម៌	-9.77702
១៥០០	-9.77707
ជំរុំ	-9.77715
ទំនើង	-9.77722
ឃំុ	-9.77723
ផ្ទាល់ខ្លួ	-9.77723
អង់គ្លេស	-9.77724
ខ្វល់ខ្វាយ	-9.77724
ការវះកាត់	-9.77725
ទណ្ឌកម្ម	-9.77726
ទាញដំបង	-9.77729
ទូរទស្ស	-9.77729
បន្ថៃម	-9.77729
ម៉ល	-9.77729
អេនដ្រយ	-9.77729
ត្រេឌីង	-9.77729
ផូស	-9.77729
ស្អិត	-9.77729
អារ៉ាប៊ី	-9.77729
ចាក់ឫស	-9.77736
កុងត្រា	-9.77737
ប្រដូច	-9.77737
ទ្រោម	-9.77737
ខិតប្រឹងប្រែង	-9.77738
ផ្លូវកាយ	-9.77738
ហ៊ីតូ	-9.77738
ចុងផ្លាស់	-9.77738
សាលាដំបូង	-9.77738
អំពើចិត្ត	-9.77738
ហើយបញ្ចូល	-9.77739
ស្តង់ដារ	-9.7774
មែនទែន	-9.7774
អហិង្សា	-9.77742
វឌ្ឍនភាពជាតិ	-9.77744
ចង់អោយ	-9.77744
៥១៣	-9.77744
សេក	-9.7775
ស៊ើបអង្កេត	-9.7775
សុទិដ្ឋិនិយម	-9.77751
អំណះអំណាង	-9.77751
អ្នករាយការណ៍	-9.77753
គណៈកម្មាធិការសភា	-9.77755
សេចក្ដីសញ្ញា	-9.77764
ចំណី	-9.77764
អ្នកចែក	-9.77765
លើកទឹកចិត្ដ	-9.77768
សាហ៊ីត	-9.77775
ក្រមសីលធម៌	-9.77775
ទស្សនីយភាព	-9.77786
ឆន្ទានុសិទ្ធ	-9.77805
ប្រជធិបតេយ្យ	-9.77805
រោគរាតត្បាត	-9.77805
ការលើ	-9.77808
វិទ្យុសកម្ម	-9.77814
១៧៣	-9.77826
ការបំផ្ទុះ	-9.77832
មនុស្សលោក	-9.77834
ប្រទេសជាតិ	-9.77839
ដំណើរការបើក	-9.7784
សម្បូរបែប	-9.77845
ចុះសិក្សា	-9.77845
អ៊ូឡង់បាទ័រ	-9.77846
អ្នកចូលរួមទាំង	-9.77848
ក្លាហាន	-9.77853
ហាត់បន្ថែម	-9.77854
បឹងកេងកង	-9.77869
គំរោងការណ៍	-9.77886
ឧតុនិយម	-9.77893
អធិកអធម	-9.77893
សម្ព័ន្ធភាព	-9.77897
រៀបរៀង	-9.77899
មានអាជ្ញាប័ណ្ណ	-9.779
បណ្ដាលឲ	-9.77901
ដំណើរកម្សាន្ត	-9.77904
នំម៉ាណា	-9.77918
លើកតម្កើង	-9.77918
ការទទួលទាន	-9.77921
ការអញ្ជើញ	-9.77922
សក្តិសម	-9.77925
កំណែប្រែ	-9.77927
ជួបជុំគ្នា	-9.7793
ដីការសំអាត	-9.77935
មេឧក្រិដ្ឋកម្ម	-9.77939
ស៊ីអេធល	-9.77946
ការហ្វឹកហ្វឺន	-9.77946
វឌ្ឍនភាពល្អ	-9.77953
ពិការចិញ្ចឹម	-9.77955
ការពិសោធន៍	-9.77965
ធ្លោយការណ៍	-9.77975
យកអាសា	-9.77975
ដោយសារតែ	-9.77981
កន្លែងណា	-9.77983
ត្រជាក់កក	-9.77984
ប្រព្រឹត្ដទៅ	-9.77984
ឈឺ	-9.77998
អ៊ីនធើណិត	-9.78007
សម្ថភាព	-9.78007
ចុងក្រោយ	-9.78008
ការចង្អុល	-9.78012
យ៉ា	-9.78014
ពេញលេញ៖	-9.78015
ដាក់បាំង	-9.78016
ជាស្រឡាញ់	-9.78022
ចេញដំណើរ	-9.78026
ចម្លែក	-9.78034
ឆ្លុះបញ្ចាំង	-9.78041
សង្ហាម្លឹង	-9.78041
ការខ្វល់ខ្វាយ	-9.78042
ភាពស្មោះត្រង់	-9.78047
សំពៅលូន	-9.78049
បទបង្ហាញ	-9.78049
ទាហាន	-9.78049
ប្រក្រតី	-9.78061
លក្ខណ	-9.78064
ប្រគុំតន្ត្រី	-9.78077
គ្រឿងចក្រ	-9.78077
ការហាមឃាត់	-9.78083
អាំស៊ាន	-9.78085
ប្រយ័ត្ន៖	-9.78085
កំពង់សៀម	-9.78087
ការប្រគំ	-9.78088
ការពិភាក្សា	-9.78088
រួបរួម	-9.78096
អ្នកធ្វើឲ្យ	-9.78111
ការកិបកេង	-9.78113
របាយការ	-9.78144
ការខុសប្លែង	-9.78152
ការបង្កើន	-9.78156
គេង	-9.78182
១៩៦៦	-9.78205
ការទទួលបាន	-9.78243
ភាពហាប់	-9.78272
រៀប	-9.78286
ភាពយុត្តិធម៌	-9.7829
ឯករាជភាព	-9.78296
ចុះបង្ក្រាប	-9.78306
ការខូចខាត	-9.78324
គណៈកម្មាធិកា	-9.78355
ស្នាមញញឹម	-9.78373
ការព្រមាន	-9.78375
ប្រយោជន៍	-9.78388
ការសិក្សា	-9.78394
ផ្តន្ទាទោស	-9.784
យកការណ៍	-9.78404
រកឃើញ	-9.78406
ទទួលទាន	-9.78411
អតីតភាព	-9.78422
ពិភាក្សា	-9.7844
ប្រសិនជា	-9.78451
ផលិតភាពជាតិ	-9.78484
លទ្ធភាព	-9.78485
អ៉ីនធើណេត	-9.78493
ទាក់	-9.78502
បិតា	-9.78509
ពណ៍	-9.78516
ប្រធាន	-9.78516
ទិវង្គត	-9.78516
កំហែង	-9.78516
សម្បូរ	-9.78518
កប្បាស	-9.78523
ចង្កាក់	-9.78523
ឆ្នា	-9.78523
ដ្ឋារចនាសម្ពន័្ធ	-9.78523
ភាពស្មោះស្ម័គ្រ	-9.78523
យ៉ូសេ	-9.78523
សេក្តីថ្លែងការណ៍	-9.78523
ហាឡូវីន	-9.78523
អាដហុក	-9.78523
ឯសារស្រប	-9.78523
ចំណាប់ខ្មាំង	-9.78523
ទស្សនិកជន	-9.78523
ប៉ូលិស	-9.78523
មើស៊ីន	-9.78523
ម៉ង	-9.78523
វ្ល៉ាឌីមៀ	-9.78523
សម្ភស្ស	-9.78523
ហ្សុិក	-9.78523
អ័ព្ទ	-9.78523
អ្នកឌីហ្សាញ	-9.78523
ការសែត	-9.78523
តំណែល	-9.78525
ឈ្លានពាន	-9.78525
ជាបន្ត	-9.78528
ឌីណែត	-9.78529
កូនស្រី	-9.78529
រួចទោស	-9.7853
អាស្រូវ	-9.7853
ប៉េតុង	-9.7853
គូរស់	-9.78531
កំរោល	-9.78532
ដើមទ្រូង	-9.78532
អូបែប	-9.78532
បរិយាកាសហប់	-9.78532
រយះពេល	-9.78536
ប្រទេសជា	-9.78537
យោង៖	-9.7854
ឯកឧត្ដម	-9.7854
យ៉ាងណាមិញ	-9.78557
ការវិលត្រឡប់	-9.78563
កិច្ចអភិរក្ស	-9.78565
លោកយាយ	-9.78571
អ៊ុយរ៉ាហ្គាយ	-9.7859
ការលាយ	-9.78613
អាណិតអាសូរ	-9.78614
សាធារណៈ	-9.78615
គ្រឿងស្រវឹង	-9.78615
នីតិប្បញ្ញត្តិ	-9.78621
បំពេញតួនាទី	-9.78622
ការរកឃើញ	-9.78625
អ្នកជ្រោមជ្រែង	-9.78627
ព្រះអាទិទេព	-9.78631
ការគួរសម	-9.78634
សេចក្ដីជំនឿ	-9.78635
សុភមករា	-9.78638
ស្នងការសហ	-9.78646
ភាពប្រេះឆា	-9.78653
បង់ក្លាដែស	-9.78655
ការអម	-9.78657
ដាក់ឈ្មោះ	-9.78663
សេការអភិវឌ្ឍន៍	-9.78669
ណាហ្គាវើលដ៍	-9.78674
សម្ដេតេជោ	-9.78674
នគរចម្ប៉ា	-9.78682
ចំណងជើង	-9.78683
ការជួបជុំគ្នា	-9.7869
ការសន្តោស	-9.78694
មេតាបូលីស	-9.78694
មនុស្សចាស់	-9.78702
វិញទៅមក	-9.78714
ចិញាច	-9.78715
ចក្រវាល	-9.78715
សាធារណមតិ	-9.78722
ព្រះមហាក្សត្រ	-9.78723
ធម្មនុញ្ញ	-9.78727
ផ្ដន្ទាទោស	-9.78737
បារាយណ៍	-9.78737
សាស្ត្រាចារ្យ	-9.78737
ការជួបប្រជុំ	-9.78741
អស់កល្ប	-9.78744
កីឡាការិនី	-9.78745
អិនធឺណែត	-9.78745
វៀតណាយ	-9.78754
ប្រេងឥន្ទន	-9.78761
ឧត្តមសេនីត្រី	-9.78761
រឡេះរលួយ	-9.78761
ហោយីន	-9.78761
គណៈប្រតិភូសភា	-9.78766
ការព្រមព្រៀង	-9.78769
ហេតុការ	-9.7878
ជម្រុញ	-9.78785
ភូមិសាស្ដ្រ	-9.78786
យានយក្ស	-9.78794
បទសម្ភាសន៍	-9.78794
បទសរសើរ	-9.78795
គ្រប់គ្រាន់	-9.78795
ធ្វើជាមួយ	-9.78805
ការប្រើប្រាស់	-9.78809
តំលើ់ង	-9.78813
ស្ថាបនា	-9.78818
សាឡឹម	-9.7882
លំនៅដ្ឋាន៖	-9.78821
សាលារៀន	-9.78825
គ្រឿងញៀន	-9.78829
កាណាដា	-9.78836
ការរាយការណ៍	-9.78838
ក្រឡហោម	-9.78842
សម្រាត	-9.78842
ដំណើរការបឺត	-9.7885
ពិការរិះគន់	-9.7885
ប្រាក់កាស	-9.7885
ប្រវត្តិសាស្រ្ត	-9.78851
ងាយស្រួល	-9.7886
ដំណើរការវា	-9.78861
ចំណាត់ថា្នក់	-9.7888
រដ្ឋសភាពហុ	-9.78881
បាក់បែក	-9.78884
ខុសពីមុន	-9.78892
អ្នកចូលរួម	-9.78904
វិបារូបន៍	-9.78907
អាក្រាន្ត	-9.78907
ឥណ្ឌូណេសុី	-9.78907
ឧកញ៉ាតី	-9.78907
ស្រេចចិត្ត	-9.78907
៩០	-9.78937
អ្នកគ្រូពេទ្យ	-9.78938
ក្លឿ	-9.7894
ការសម្លុត	-9.78943
អសុរកាយ	-9.78943
អូស្ត្រាលី	-9.78943
ភូមុអន្លង់	-9.78943
ចេញផ្សារ	-9.7895
ដូទាញយក	-9.78951
ស៊ីឈ្នួល	-9.78952
អុីនធើណេត	-9.78953
ការចូលរួមចំណែក	-9.78953
ពរ	-9.78956
បកតាម	-9.78969
រូបលោក	-9.78972
១៧៩៥	-9.78973
ការស៊ីជម្រៅ	-9.78986
អ្នកទិញ	-9.78986
ការធ្វើបាប	-9.7902
ការសម	-9.79037
១៩៥៣	-9.79048
ការទប់ស្កាត់	-9.79089
ការកែលម្អ	-9.79093
ស្ថានភាពច្បាស់	-9.79097
ព្រួយបារម្ភ	-9.79113
កាត់ដេ	-9.79135
▁យុទ្ធនាការ	-9.79141
អាសយដ្ឋាន	-9.79177
ការពេញចិត្ត	-9.79184
ដាក់ទណ្ឌកម្ម	-9.79223
▁ប្រតិបត្តិការ	-9.79244
ការធ្វើតេស្ត	-9.79294
ការតម្លើង	-9.79305
ឆែកឆេរ	-9.79315
ភិរម្យ	-9.79317
សរសៃ	-9.7932
រណ្តៅ	-9.79323
ឈ្មោល	-9.79323
តាដង្ហក់	-9.79323
ផ្គត់ផ្គង	-9.79323
ស្តូមី	-9.79323
ជា្វ	-9.79323
ធីងធោង	-9.79323
ម្នាស់	-9.79323
វីឌិអូ	-9.79323
សឺហ្សែក	-9.79323
បូណា	-9.79323
កោង	-9.79325
យល់ព្រមព្រៀង	-9.79329
គួតែ	-9.7933
ព្យួរ	-9.7933
ភាពហិង្សា	-9.7933
ស៊ីយ៉ា	-9.79331
កាលព្រឹក	-9.79332
ត្រីបញ្ចូល	-9.79332
ហ៊ីចិន៖	-9.79333
១៤៦០០០០០	-9.79334
អេប៊ីស៊ី	-9.79335
ម៉ានីល	-9.79341
ដាក់ពាក្យ	-9.79354
ការកម្សាន្ដ	-9.79362
ខ្សែ	-9.79394
ជំនួយការរដ្ឋា	-9.79412
អភិបាលកិច្ច	-9.79413
▁ទទួលខុសត្រូវ	-9.79421
ការនាំចូល	-9.79425
បើសិន	-9.79441
រាជាធិបតេយ្យ	-9.79441
គណះលេខា	-9.79451
សេចក្តីរាយការណ៍	-9.79451
អធិកានគរបាល	-9.79468
ប្រណិបត្តិន៍	-9.79483
ការទាល់ច្រក	-9.79483
ពិធីសាសនា	-9.79489
គរុកោសល្យ	-9.79498
ផលិតកម្មវិញ	-9.79506
តំណាងរាស្រ្ដ	-9.79515
មហាវិទ្យាល័យ	-9.7953
ភាគីនីយកម្ម	-9.79532
អបដោយ	-9.79532
គូសបញ្ជាក់	-9.7956
សេចក្ដីសុខ	-9.79568
ជីវភាពធូរ	-9.7957
សេណារីយ៉ូនេះ	-9.7957
ប្រលានយន្តហោះ	-9.79577
សេពសន្ថវៈ	-9.7958
ការកាត់បន្ថយ	-9.7958
ថ្ងៃត្រង់នេះ	-9.79587
អ្នកតាក់តែង	-9.79589
ពពាក់ពពូន	-9.79591
សន្សល់ទុក	-9.79591
ព្រះត្រៃឯក	-9.79591
អាណាគត	-9.79591
អ្នកទេសចរណ៍	-9.79591
ប្រាក់	-9.79595
បទវិភាគ	-9.79599
ចៅសង្កាត់	-9.79599
ខុទ្ទកាល័យ	-9.79613
ព្រះបដិមា	-9.79613
កល	-9.79617
សោយ	-9.79624
កក់	-9.79624
ការនេសាទ	-9.79635
កត់សម្គាស់	-9.79636
អត្តឃាត	-9.79636
អ្នកសារព័ត៌មាន	-9.79638
ការសម្រេច	-9.79638
សារាយ	-9.79644
លោកគ្រូបង្វឹក	-9.79652
កំណាព្យ	-9.79661
ចំជនសង្គម	-9.79661
រឹងមាំ	-9.79661
ហ្គីណេសប៊ុក	-9.79662
ព្រះអម្ចាស់	-9.79669
ការដោះលែង	-9.79682
បុព្វហេតុ	-9.79688
ក្បោះក្បាយ	-9.79688
មហោឡារឹក	-9.79688
នគរស្ថានសួគ៌	-9.79696
ការអនុគ្រោះ	-9.79701
ចូលកាន់កាប់	-9.79704
អ្នកប្រឈម	-9.79711
កាលីឡេ	-9.79717
ឈៀងរ៉ាយ	-9.79717
យុគសម័យ	-9.79717
ទ្រព្យសម្បត្ដិ	-9.79717
បង្គ្រប់កិច្ច	-9.79717
សាខារ៉ានីត	-9.79717
ប៉ាន់ប្រមាណ	-9.79723
កំណែទម្រង	-9.79725
សុវត្ថិភាព	-9.79726
បំពេញចិត្ត	-9.79726
កែវភ្នែក	-9.79726
យូណាស់	-9.79726
បណ្ដោះអាសន្ន	-9.79727
ការឆ្លងកាត់	-9.79727
ពន្យា	-9.79741
ជា៖	-9.79747
ខ្ជះខ្ជាយ	-9.79747
ឧបសម្ព័ន្ធ៖	-9.79754
ភាពម្ចាស់	-9.79755
ដូច្នេះហើយ	-9.79757
ប្រសិនបើក	-9.79762
មករាយការណ៍	-9.79763
មឃាត់ខ្លួន	-9.7977
អ្នកថែម	-9.79771
នាឡេ	-9.79774
ការសំរាប់	-9.79778
ញូវយ៉ក	-9.7978
រដ្ឋប្បវេណី	-9.79781
ត្រៀមសង្គ្រោះ	-9.79781
ភាពសាហាវ	-9.79783
រតនឧត្តម	-9.79788
លើសម្បទា	-9.79789
អូរឫស្សី	-9.7979
គោលជំហរ	-9.7979
អ្នកទស្សនា	-9.79802
ការលិចលង់	-9.79816
កេសរកូល	-9.79816
ប្រៃសនីយ៍	-9.79816
លោកអ្នក	-9.79818
រដ្ឋាករ	-9.79825
សង្កត់ធ្ងន់	-9.79825
បៀគីណាហ្វា	-9.79825
អ្នកបើក	-9.79832
បណ្តាលឲ្យ	-9.79854
ធារាសាស្ត្រ	-9.79855
វិក្កយប័ត្រ	-9.79855
ពោធិវង្ស	-9.79855
ការស្រេក	-9.79859
ត្រៀមខ្លួន	-9.79862
រំលោភបំពាន	-9.79949
ការផ្សងព្រេង	-9.79974
ស្ដាប់	-9.79988
ដាក់ទង់ជាតិ	-9.79997
ផ្ទៀងផ្ទាត់	-9.79998
ការឃោសនា	-9.8
ពពោះ	-9.80019
រៀនសូត្រ	-9.8002
១៩៤	-9.80022
នយោបាយ	-9.80027
សហប្រតិបត្តិ	-9.80035
ប្រសើ	-9.80092
ហិង្សា	-9.80101
ធាតុ	-9.80105
តប់ប្រមល់	-9.80122
ចង្អៀត	-9.80129
វិធាការ	-9.80129
គៀប	-9.80129
ហ្គូឡិន	-9.80129
កញ្ជក់	-9.80129
ជេអីុន	-9.80129
ប្រយ័ត្នប្រយែង	-9.80129
ប្រអប់	-9.80129
ប្រកែកគ្នា	-9.8013
និទ្ទេសប៊ី	-9.80136
ពូន	-9.80137
សាន់ដេ	-9.80138
ស្រួលខ្លួន	-9.80138
ទុកចិត្ដ	-9.80138
ទៅក្នុង	-9.8014
រដ្ឋមន្ដ្រី	-9.80142
អូឡាំពិក	-9.80147
ជាពិសេស	-9.80149
ពីរង្វាន់	-9.8015
ការតាមដាន	-9.80169
ការបន្ទោស	-9.80174
ការទាក់ទាញ	-9.80177
ក្លាយជាជា	-9.80199
ការជំរុញ	-9.80234
ការដាក់កំហិត	-9.80241
ការបារម្ភ	-9.80241
ការរលាក	-9.80262
អ៊ុយរ៉ានីញ៉ូម	-9.8027
ស្នងការបដិសេធ	-9.80276
ការចែកជូន	-9.80286
ដំណើរការពាក់	-9.80287
គំរាមកំហែង	-9.8029
ភាពស្រស់ស្អាត	-9.80307
៤២	-9.80307
បច្ចុប្បន្ន	-9.80325
បច្ចេកទេស	-9.80325
ការព្យាករ	-9.80328
ការប្រព្រឹត្ដ	-9.80329
១១៥	-9.8034
២០០០០	-9.80345
ស្រោមដៃ	-9.8035
ឡេក្លែងក្លាយ	-9.80352
ការចាត់តាំង	-9.80361
ពាណិជ្ចករ	-9.80369
មនុស្សសាស្ត្រ	-9.80379
វិចិត្រករសញ្ជាត	-9.80384
ប្រឈមមុខ	-9.80391
ស្ថាបនាទីក្រុង	-9.80391
ការចាប់ឆ្នោត	-9.80394
អាម៉ាហ្សូន	-9.804
បទឧក្រិដ្ឋកម្ម	-9.80401
ត្រូវការបំពេញ	-9.80403
ត្រូវការស្ថិត	-9.80408
ការបែកធ្លាយ	-9.80409
ការខាតបង	-9.80417
ការទូរស័ព្ទម្តង	-9.80425
បារម្ភ	-9.80426
ប្រជាកសករ	-9.80432
ចល័តភ្ជាប់	-9.80444
ចចាមអារ៉ាម	-9.80455
បទពិសោធន៍	-9.80462
ខ្មាសអៀន	-9.80464
ភាពអសកម្ម	-9.80465
ហរិហល័យ	-9.80475
មេមញ្ជាការតំរួត	-9.80475
ការដាក់ញត្ដិ	-9.80475
ញូវហ្ស៊ីឡែន	-9.80475
ការតភ្ជាប់	-9.80494
លក្ខិណា	-9.80497
សោមនស្សន៍	-9.80497
បន្ទោរបង់ចោល	-9.80505
បន្ទាយកងពល	-9.80505
ាព	-9.80513
ការីកចម្រើន	-9.80515
កិច្ចការពារ	-9.80515
ស្ទឹងត្រែង	-9.80517
មួយវិញទៀត	-9.8052
អភ័យទោស	-9.8052
រេាគវិនិច្ឆ័យ	-9.80528
យុទ្ធសាស្ត្រ	-9.80529
ការកែតម្រូវ	-9.80531
ជីវវិទូឯកទេស	-9.80545
វិញ្ញាណក្ខ័	-9.80545
អាកប្បកិរិយា	-9.80545
បំរើសង្គមជាតិ	-9.80552
ហក់	-9.80556
ការប្រឹងប្រែង	-9.80577
ភូមិសានគរ	-9.8058
ចាក់ប្រហារ	-9.80583
ចូលរួមរស់	-9.80592
កំដាប់ថ្នាក់	-9.80599
ម៉ូណាកូ	-9.80599
ការទប់ទល់	-9.80601
ចុះឈ្មោះ	-9.80605
ពេលណា	-9.80606
សម្រស់	-9.80608
ជានិច្ច	-9.80623
ការចោល	-9.80625
អគ្គាធិការ	-9.8063
ជ្រោយមល	-9.8063
លើល័ក្ខខ័ណ្ឌ	-9.8063
វិញ្ញាណក្ខ័ន្ធ	-9.8063
បង្គាប់ឱ្យ	-9.80636
ការកែសំរួល	-9.80637
ចំរថយន្ត	-9.80637
ត្រីកោណ	-9.80638
បេក្ខជនរត់	-9.8064
▁ស	-9.80661
ក្រហល់	-9.80662
សង្ក្រាន	-9.80662
រងៀង	-9.80662
អូសេអានី	-9.80662
ការផ្សាភ្ជាប់	-9.80663
ធ្វើអន្ដរាគមន៍	-9.80663
មកទល់	-9.80666
ព្រឹទ្ធបុរស	-9.8067
បង្ករបង្កើន	-9.80671
គរដូវកាល	-9.80672
ដេញដោល	-9.80678
ទុកឲ្យបាន	-9.8068
ការត្រៀមសង្គ្រោះ	-9.80684
មោទនភាព	-9.8069
សន្និបាត	-9.80691
ដំណោះស្រាយ	-9.80697
ការផ្សះផ្សារ	-9.80697
ភោជនីយ៍ដ្ឋាន	-9.80697
មុនពេែល	-9.80697
ស្រុបាណន់	-9.80705
ទេវលោក	-9.80705
សុធារិទ្ធ	-9.80707
គ្រឿងញន	-9.80735
មេសេអី	-9.80735
ខេមរភាសា	-9.80736
ធ្វើជាធម្មតា	-9.8074
យ៉ាងដូចម្តេច	-9.80743
កូនកំលោះ	-9.80744
ប្រឡង៖	-9.80745
ការបង្រ្កាប	-9.80795
សុខភាពល្អ	-9.80797
ការស្រែក	-9.80816
ការកៀប	-9.80828
ដោះស្រាយ	-9.80847
រហូតដល់ទៅ	-9.80898
ប្រទេស	-9.8091
ក្រឡាហោម	-9.80912
បង្ហោះ	-9.8092
ផ្ទុះឡើង	-9.80929
ប្រតិបត្ដិ	-9.80934
ចាន់	-9.80935
ឧទ្ធរណ៍	-9.80935
ពិសិដ្ឋ	-9.80942
អនុស្សាវរី	-9.80942
ឯកច្ឆន្ទ	-9.80942
តឹកតាង	-9.80942
សំបុក្រ	-9.80942
ស្វរបព៌ត	-9.80942
អុិច	-9.80942
ឈ្លានពានបញ្ចូល	-9.80943
ចំរូង	-9.80949
ណូបែល	-9.8095
អ្នកទិញ៖	-9.8095
ដេាយសារ	-9.8095
មុនពេល	-9.8095
ទៅរក	-9.80952
ទៅអោយ	-9.80952
បតុង	-9.8096
ថ្លែងអំណរគុណ	-9.80968
ផ្សងព្រេង	-9.80987
ស្រលាញ់	-9.81024
ការស្វែងយល់	-9.81045
ការបក	-9.81068
ប្រសាទ	-9.81098
ការរំភើប	-9.81108
មេសាខា	-9.81144
▁ឧទ្ធម្ភាគចក្រ	-9.81167
ភាពយឺត	-9.81168
ក្រោយមកក៍	-9.81196
សំយោគ	-9.81202
ជំនុំជារៀងរាល់	-9.81206
សេនាធិការដ្ឋាន	-9.8121
ភាពសម	-9.81211
លេខាធិកាដ្ឋាន	-9.81248
ប្រកាន់ខ្ជាប់	-9.81248
ការកែលំអរ	-9.8125
កាស៊ីណូសន្យា	-9.81255
ផែនការគ្រប់គ្រង	-9.81261
រាជាណាចក្រ	-9.81287
ចូលរួមមាន	-9.81292
ចង្អុលបង្ហា្ដញ	-9.81294
ព្រះតេជគុណ	-9.81294
សារៈសំខាន់	-9.81294
ដំណើរការបាន	-9.81307
អ៊ីស្រាអែល	-9.8131
មុទុមវតីយ	-9.81311
ហុីយ៉ាន់ដាយ	-9.81311
ដំណាក់កាល	-9.81319
ភាពជាដៃគូរ	-9.81319
ឧត្ថម្ភាគចក្រ	-9.81328
ទេចរបរទេស	-9.81329
សិស្សានុសិស្ស	-9.81337
ថ្កោលទោស	-9.81337
ការយន្តកាផាក	-9.81347
អ្នកជាតិនិយម	-9.81347
ដំណើរការលក់	-9.81349
មេឌីទែរ៉ាណេ	-9.81361
ក្តីសុខ	-9.81366
ការចុះឈ្មោះ	-9.81368
កូនហ្គោល	-9.81374
ផ្ទះសំណាក់	-9.81375
កំពង់សោម	-9.81378
បរិយាកាស	-9.81382
ការវិវឌ្ឍន៍	-9.81389
ស្នាម	-9.81395
ជួបប្រទះនៅលើ	-9.81396
ជាប់រវល់	-9.814
ការជ្រើសតាំង	-9.81408
ការខំប្រឹងប្រែង	-9.8141
ការបើកចំហ	-9.81412
សុខារ៉ាណារិទ្វ	-9.81412
ជាសះស្បើយ	-9.81412
បរិបូរណ៍	-9.81412
បំពារបំពាន	-9.81412
វិសេសវិសាល	-9.81412
សៀអាថុល	-9.81412
ក្តីស្រឡាញ់	-9.8142
ដំណើរការវារ	-9.81426
អ្នកស្រឡាញ់	-9.81433
អាថ៍កំបាំង	-9.81436
ស្មុគ្រស្មាញ	-9.81436
អង់គ្លេសរយៈ	-9.81443
ជាមួយគ្នា	-9.81445
អាកាសធាតុ	-9.81461
ទន្ទឹងរង់ចាំ	-9.81462
បរាជ័យ	-9.81464
ការរើសអើង	-9.81468
ខ្សែភាពយន្ត	-9.81469
បោករាស្រ្ត	-9.81469
ចំណេះវិជ្ជា	-9.8147
អង្គស្នួល	-9.81471
យល់ស្រប	-9.81474
អនុលោម	-9.81476
កាយវិការ	-9.8149
ដាណឺម៉ាក	-9.8149
ធម្មបញ្ញោ	-9.8149
សុន្ទរកថា	-9.8149
ស្នហាជាតិ	-9.8149
និទ្ទេសស៊ី	-9.815
ការិយាល័យ៖	-9.81506
ដង្ហោយ	-9.8152
ថ្វើឡើង	-9.8152
ឌីជីថល	-9.81528
ដឹកជញ្ជូន	-9.81532
ការកៀក	-9.8154
១០០៣	-9.81546
ចំណោម	-9.81552
ព្រឹត្តិប័ត្រ	-9.81552
បាក់ទូក	-9.8156
អនុបណ្ឌិត	-9.8156
ភាពចាំបាច់	-9.81561
រហូតមកដល់	-9.81564
ប្រសាសន៍	-9.81565
ការសង្ស័យ	-9.81586
ប្រតតបត្តិ	-9.81587
សចសអ	-9.81587
ចាត់ចែង	-9.81594
អាប៉ោង	-9.81594
សីហាក់	-9.81595
ពិតប្រាកដ	-9.81596
ការញុះញង់	-9.81597
ស៉ីម៉ង់ត៍	-9.81598
អាកាស	-9.81601
លេខាធិការ	-9.81607
កិច្ចសហការ	-9.81608
ភាពយូរអង្វែង	-9.81618
ក្រោកឈរ	-9.81631
លេចចេញ	-9.81632
ព្រះវិញ	-9.81633
ការរំលែក	-9.8164
រូបរាងកាយ	-9.81641
ការដេញ	-9.81661
ការបញ្ឆេះ	-9.81703
ប្រត្តិបត្តិការ	-9.81704
ទទួលរង្វាន់	-9.81748
ខាងត្បូ	-9.81754
ចក្ខុវិស័យ	-9.81755
គ្រា	-9.81755
តំលែ	-9.81762
និយោជិត	-9.81762
មេម៉ូរី	-9.81762
តូរ្យ	-9.81762
ល្អិតល្អន់	-9.81762
សុមេធ	-9.81762
ឥទ្ធិល	-9.81762
កន្ទួល	-9.81762
ក្រអូប	-9.81762
គណ	-9.81762
ដោះសោ	-9.81762
ប្រជាប្រិយ៍	-9.81762
រម្លឹក	-9.81762
អាល់កុល	-9.81763
សួង	-9.81764
ការផ្តន្ទាទោស	-9.81764
អនុវត្ដ	-9.8177
គួង	-9.8177
ទូរស័ព្ទៈ	-9.81771
អក្សរសាស្ត្រ	-9.81771
ផ្ញើរ	-9.81773
១៥១០០០	-9.81778
សាមគ្គីភាព	-9.8179
មានប្រសាទ	-9.81836
ការលើកឡើង	-9.81841
ម្ចាស់	-9.81845
បច្ចុប្បន្នភាព	-9.81849
ពិនិត្យមើល	-9.81909
ការតក់ស្លុត	-9.81929
ការជ្រើសរើស	-9.81934
សាកល្បង	-9.81981
ការរំលោភបំពាន	-9.81997
សង់ត្រាល់	-9.82023
ការចាប់ដៃ	-9.82032
សាធារការណការ	-9.82059
សមាហរណកម្ម	-9.82061
សក្តានុ	-9.82098
ប្រសិន	-9.82111
គណៈកម្មកាធិការ	-9.82124
អ្នកដំណើរចលាចល	-9.82132
ការពិសោធ	-9.82137
បង់ក្លាដេស	-9.82137
ការធ្វើចរាចរ	-9.82164
រដ្ឋាករតន់ហន់	-9.82164
ភាពអន្ទះសា	-9.82172
មើលស្រាយ	-9.82173
អនុញ្ញាតឲ្យ	-9.82174
អាហារូបករណ៍	-9.82179
ប្រកបដោយ	-9.82187
វឌ្ឍនភាពសង្គម	-9.82189
ការកើនឡើង	-9.82189
ព្យុះហយាត្រា	-9.82195
អាស្រ័យ	-9.82197
ឆ្កួតលីលាឡប់	-9.82212
អូសទាញយក	-9.82213
កសិណមក	-9.8222
រមណីយដ្ឋា	-9.82224
ការចាប់ផ្តើម	-9.8223
និយាយប្រាប់	-9.8223
សមាគមន៍	-9.82238
ការប្រហារជីវិត	-9.82241
កោសល្យវិច័យ	-9.82248
ពួកសាសន៍	-9.82255
ចំណងប្រាថ្នា	-9.82258
អុីដ្រូហ្សែន	-9.82268
បេសកជន	-9.82268
អ្នកខាតបង់	-9.82271
ហុងដាឌ្រីម	-9.82276
ទារកកើត	-9.82287
យូម៉ាន់រ៉ាយ	-9.82289
ញាតិសន្តាន	-9.82289
សោះកក្រោះ	-9.82289
សិនណល	-9.82289
នាវិទ្យាល័យ	-9.82298
ការទុកដា	-9.82315
បំរើមហិច្ឆិតា	-9.82319
កាវាស់វែង	-9.82322
ប្រកូកប្រកាស	-9.82336
ម៉ូហ្គាឌីស៊ូ	-9.82336
អ៊ីនធើណែត	-9.82336
ពីសំណាក	-9.82344
ការការគ្រប់គ្រង	-9.82348
យន្តហោះ	-9.82355
អ្នកវិនិច្ឆ័យ	-9.82359
អាជា្ញធរជាតិ	-9.82361
កីឡាកអាល់	-9.82362
ការចែករំលែក	-9.82376
អ្នកកាសែត៖	-9.82376
វ៉ាស៊ីនតោន	-9.82396
ស្វាយរៀង៖	-9.82397
រដ្ឋាភិបាល	-9.82416
ការសម្រេចចិត្ត	-9.82418
ឃាតកម្ម	-9.82418
បណ្ណាធិការ	-9.82418
មេហ្គាវ៉ាត់	-9.82418
ហ្វាំងឡង់	-9.82418
កាំជណ្តើរ	-9.82426
សាកមើល	-9.82427
ការចុះអនុវត្ត	-9.82434
ត្រូវការការមើល	-9.8244
ជាបន្តបន្ទាប់	-9.82446
ការបែងចែង	-9.8245
ជាធរមាន	-9.8245
បាលីស្ទិក	-9.8245
ជ្រាលជ្រៅ	-9.8245
បោកគក់	-9.8245
ការខកចិត្ត	-9.82456
ចាត់ថ្នាក់	-9.82458
ហេតុកាប់	-9.82458
មន្ទីរឃុំឃាំង	-9.82459
ច្បាស់ជា	-9.82469
វិធានការរុះរើ	-9.82471
បម្រែបម្រួល	-9.82484
វចនានុក្រម	-9.82484
ទាក់ទំនង	-9.82492
ហាក់ដូចជា	-9.82493
ការរំពឹងទុក	-9.82501
អ្នកគ្រប់គ្រង	-9.82503
ការស្និដ្ឋាន	-9.82521
ទាន់សង្ឃឹម	-9.82529
ព្រះនរោត្តម	-9.8253
ស្មើនឹង	-9.82532
សាច់	-9.82554
ការផ្លាស់ប្ដូរ	-9.82575
ការសួរសុខទុក្ខ	-9.82586
ពិបាក	-9.82588
របារ	-9.82588
ហិស	-9.82588
ឡាន់	-9.82588
កូនចៅ	-9.82595
ការស្រមៃ	-9.82597
ក្តោបក្តាប់	-9.82599
កាស៊ីណូ	-9.826
ខែកុម្ភៈ	-9.82608
១៧៨៦	-9.82615
ការឃាត់ខ្លួន	-9.82693
ប្រព្រឹត្តទៅ	-9.82867
៣០៥២	-9.8287
ការព្រួយបារម្ភ	-9.82882
ការប្រឈមមុខ	-9.82904
ការសហការ	-9.82965
គុយបារ	-9.83004
កិច្ចព្រមព្រៀង	-9.83007
ការផឹក	-9.83022
ការពាំនាំយក	-9.83023
សេចក្តីចៅរ៉ៅ	-9.83027
សំណុំបែបបទ	-9.83032
ត្របាក់	-9.83046
ការសម្រុះសម្រួល	-9.83047
អេតាស៊ីវិល	-9.83048
ភាពអឆ្ឆរិយ	-9.83061
ត្រឹមកំភួនជើង	-9.83061
លើភាពអាច	-9.83067
ជាតិទឹក	-9.83073
ឯកភាពបើក	-9.83098
សេចក្តីសប្បុរស	-9.83104
ទទួលយកមក	-9.83105
សេចក្តីបង្គាប់	-9.83114
ខាងក្រោម	-9.83124
ស្នងការបញ្ជាក់	-9.8313
អ្នកគ្រូបង្រៀន	-9.83134
អ្នកចម្រៀង	-9.83138
រត់គេចខ្លួន	-9.83155
ពេលល្ងាច	-9.83167
កុងត្រូល	-9.83169
កូឡេស្តេរ៉ុល	-9.83177
វេយ្យាករណ៍	-9.83177
មក៖	-9.83188
អាគតដ្ឋាន	-9.83198
ភាពស្រប	-9.83209
ធ្វើការប្រមាញ់	-9.8321
ការទទួលយក	-9.83216
អ្នកប្រព្រឹត្ត	-9.8322
សច្ចាប្រណិធាន	-9.8322
សីតុណ្ហភាព	-9.8322
សុខដុមនីយកម្ម	-9.8322
ផែនការជំនួញ	-9.83231
ការបង្ខាំង	-9.83244
សញ្ញាបង្ហាញ	-9.83252
ឡាអេចេញ	-9.83277
ចំណាត់	-9.83281
សញ្ញាណ	-9.83304
លើកម្មសិទ្ធិ	-9.83304
កិច្ចអភិវឌ្ឍ	-9.83304
ផាសុខភាព	-9.83306
ធ្វើការកន្លែង	-9.83308
ការតម្បាញ	-9.83313
ការធ្វើដំណើរ	-9.8332
សិប្បនិម្មិត	-9.83325
កិត្តិបណ្ឌិត	-9.83331
ស្រោមជើង	-9.83333
ផ្តាច់ការគ្រប់	-9.83344
ចាប់ជំទាវ	-9.83356
ផលិកម្ម	-9.83356
ដាច់ស្រឡះ	-9.83364
បាត់បង់ជីវិត	-9.83364
ចៅអធិការ	-9.83365
ធានាគារ	-9.83376
ទាំងអស់	-9.83385
បៀរវត្សរ៍	-9.8339
ឧត្តមសេណីយ៍	-9.8339
ភាពសម្បូរបែប	-9.83398
បេសកម្ម	-9.83399
អ្នកស្រាវជ្រាវ	-9.83414
ជប់	-9.83414
អួត	-9.83415
កិច្ចសម្រួល	-9.83418
ស្រេស្ថ	-9.83422
ការកកផ្តុំ	-9.83427
សញ្ញាប័ត្រ	-9.83427
កម្រោល	-9.83427
កិត្យានុភាព	-9.83427
បរិដ្ឋាន	-9.83427
ក្មេងណា	-9.83429
មហាផ្ទៃ	-9.83429
ដាក់បញ្ចូល	-9.83429
ព្រេងនិទាន	-9.8343
ម៉ាល់ត៍	-9.8343
ការអន្តរាគមន៍	-9.83431
ផែង	-9.83431
អេហ្ស៊ីប៖	-9.83435
ភូមិសាមគ្គី	-9.83436
ខាងក្រោយ	-9.83436
១៩៥០	-9.83438
ការយល់ដឹង	-9.83441
សេរឿង	-9.83445
អ្នកវិនិយោគ	-9.83448
ចូលទៅក្នុង	-9.83451
កង្វះខាតប	-9.8346
ការប្រតិបត្តិ	-9.83546
រមណីយដ្ឋាន	-9.83551
ជឿនលឿន	-9.83573
ការស្តាប់	-9.83608
ចង្អុលបង្ហាញ	-9.83632
១៥០០០០	-9.83675
ការបោកប្រាស់	-9.83681
ការបញ្ជាទិញ	-9.83725
ការបកស្រាយ	-9.83751
១២០០០	-9.83759
ការរក	-9.83791
ការអនុញ្ញាត	-9.83821
ការរហ័ស	-9.83821
ផាសុកភាព	-9.8392
អ្នកនយោបាយ	-9.8394
ការប្រមូល	-9.83956
ការសម្រេចបាន	-9.83961
ចាត់ការជំនាញ	-9.83976
កំពង់បំផ្លាញ	-9.83977
អ្នកស្រស់ស្អាត	-9.83978
ផលប្រយោជន៌	-9.8398
ការវិលត្រឡប់មក	-9.84001
ជាសាលារៀន	-9.84034
ទៅដណ្តើម	-9.84034
ស្ទាត់ជំនាញ	-9.8404
ទទួលមរណភាព	-9.84046
សម្បូរវោហារ	-9.84048
ខែស្រាបណ៍	-9.84057
អ្នកជំនាញ៖	-9.84064
អេឡិចត្រូនិច	-9.84066
វិនិយោគិន	-9.84075
សណ្ឋាគាកាំ	-9.84075
ត្រូវការយកឈ្នះ	-9.84091
រៀបការប្រកួត	-9.84092
ហាក់បីដូចជា	-9.84092
ព្រះស៊ីហនុ៖	-9.84095
កងយោធពល	-9.84095
មីយ៉ាន់ម៉ា	-9.84095
គ្រូបង្រៀន	-9.84098
ប្រតិបត្តិការណ៍	-9.84101
បន្តបង្ហើប	-9.84102
បើសិនជាដាក់	-9.84103
រៀបការខាង	-9.84104
រ៉ាណារិត	-9.84115
សេចក្តីស្រឡាញ់	-9.84122
ស្វះស្វែងរក	-9.84123
ត្រូពិចក្រោម	-9.84124
តម្រូវការជូន	-9.84124
បញ្ចៀស	-9.84132
ពោធិសែន	-9.84137
ការភ័យខ្លាច	-9.84162
រោងចក្រវារី	-9.84166
ចូលរួមចំនួន	-9.84185
យានជំនិះ	-9.84185
រាជាភិសេក	-9.84185
ចុះខ្សោយ	-9.84196
ចូលមនុស្ស	-9.84196
ពស២៥៦២	-9.84202
ផ្លាស់ប្តូ	-9.84205
សមាមាត្រ	-9.84212
ជារៀងរហូត	-9.84221
ជនសង្ស័យ	-9.84221
ការចាំបាច់	-9.84234
គណនេយ្យ	-9.84237
ម្ល៉ោះហើយ	-9.8424
ការអភរិក្ស	-9.84241
វេជ្ជសាស្ត្រ	-9.84241
ហិមាល័យ	-9.84241
ការបញ្ចេញមតិ	-9.84243
សារលិខិត	-9.84248
ចាប់តាំងពីរដ្ឋ	-9.84258
មិទ្ទិញ	-9.84262
ដួលរម	-9.84262
ធូថ្លៃ	-9.84262
ប៉ុស្ដិ៍	-9.84262
ប្រកបរបរ	-9.84268
បេក្ខភាព	-9.84272
រូបិយវត្ថុ	-9.84277
ព្យុងយ៉ាង	-9.84282
អវិជ្ជមាន	-9.84286
ប្រជាជនរស់	-9.84288
ការរីក	-9.84304
ប៉ិនប្រសប់	-9.84304
ផលិផល	-9.84305
លោកតា	-9.84313
មណ្ឌលគីរី	-9.84314
អ្នកទោស	-9.84328
ការលើក	-9.84329
ជ្រើសរើសយក	-9.84336
ភាពពេញនិយម	-9.84338
អធិការកិច្ច	-9.84339
អាណាទៅ	-9.8434
មនុស្សឃាត	-9.84341
ការត្រេកអរ	-9.84402
ឈានឡើង	-9.84514
ភាពតានតឹង	-9.84527
សំណូមពរ	-9.84562
បំបែក	-9.84623
ការសរសេរ	-9.84641
ការលាក់បាំង	-9.84698
ធ្វេសប្រហែស	-9.84707
យូរអង្វែង	-9.84739
ចាកចេញពី	-9.84743
ភាពស្រស់	-9.84743
ការពិចារណា	-9.84747
ការចម្អិន	-9.84752
អន្ទះសា	-9.84755
សហការ	-9.84756
កំណែទម្រង់បែបបទ	-9.84785
បទបញ្ចាដោយឡែក	-9.84786
អការស្លេកស្លាំង	-9.8482
ប្រើប្រាស	-9.84821
ភាពខុសគ្នា	-9.84838
ដាច់ស្រយាល	-9.8486
ការស្រេកឃ្លាន	-9.84873
ចន្លោះប្រហោង	-9.84878
សេចក្តីប្រកាស	-9.84882
អ្នកសម្ភាសន៍	-9.84885
ព្រះវត្តមាន	-9.84892
មូលប្បទានបត្រ័	-9.84908
ការស្មោះស្ម័គ្រ	-9.84936
ត្រឈឹងត្រឈៃ	-9.84936
សេចក្តីទុកចិត្ត	-9.84939
អាកាសយាន្ត	-9.84943
សារពតិមាន	-9.84951
ស្នាក់ការច្រក	-9.84964
ឧទ្យានុរក្ស	-9.84967
សមាសភាព	-9.84968
ជនជាប់ចោទប្រចាំ	-9.84973
ជ្រុងជ្រោយ	-9.84974
បណ្តាលឱ្យ	-9.84974
ទំនៀមទំលាប់	-9.84984
ពោធិតាហោ	-9.84984
អានព្យញ្ជនៈ	-9.84984
ផលចំណេញ	-9.84992
ជាប់ទាក់ទង	-9.84992
បាល់ទាត់៖	-9.84993
អ៊ីប្រាហ៊ិម	-9.85002
ការជំនុំជម្រះ	-9.85002
ការទាក់ទង	-9.8501
សព្វប្រាណ	-9.85021
ហៅទូរស័ឮ	-9.85041
វេជ្ជបណ្ឌិត	-9.85041
តាក់តែង	-9.85046
ការលំបាក	-9.85048
ព្រៃសអស់	-9.85048
ការដកស្រង់	-9.85049
កំពង់ស្វាយ	-9.85052
រាងចាល	-9.85062
អ៊ីនធើរណែត	-9.85062
ពត៌មានវិទ្យា	-9.85073
សហសម័យ	-9.85073
សើយលលា	-9.85085
គណៈកម្មការរៀប	-9.8509
ណែត	-9.85095
រួចរាល់ហើយ	-9.85096
ផ្តាច់ការមែន	-9.85097
៣៤០០០	-9.85109
កាញារិទ្ធ	-9.85109
បោន	-9.85109
ទំនាប	-9.85109
ហ្គីស្សេ	-9.85109
សភាចារ្យ	-9.8511
សាច់ញាត្តិ	-9.8511
ការប៉ះពាល់	-9.85127
ខណលឌ	-9.85136
ការដកដង្ហើម	-9.85145
អសេវនាច	-9.85164
ថ្ងៃព្រហស្បត្ត៏	-9.85165
បង្កើតឡើង	-9.85172
សម្លឹងមើល	-9.85173
មុខជំនួញ	-9.85175
អ្នកប្រឆាំង	-9.85186
អ្នកសង្ឃឹម	-9.85187
តែជា	-9.8519
អ្នកធ្វើឱ្យ	-9.85197
កាត់សេចក្តីឲ្យ	-9.85215
ការចូលកាន់	-9.85218
ឡិចស៊ីស	-9.85228
ក្រដាស	-9.85228
អចិន្រៃ្តយ៍	-9.85228
អាហ្កោស្ទីន	-9.85228
ឧស្សាហផល	-9.85228
ឥរិយ៉ាបថ	-9.85228
ជាមួយនិង	-9.85236
ជំរើសបង្កើត	-9.85237
ធានារ៉ាប់រង	-9.85242
ស្តង់ប៊ុល	-9.8525
ការពិនិត្យមើល	-9.85259
កត់សំគាល់	-9.85263
ព្រឹត្តការណ៍	-9.85263
ក្រេវក្រោធ	-9.85263
ថ្នាក់ដឹកនាំ	-9.85273
ការឡោមព័ទ្ធ	-9.85292
ការឆាបឆេះ	-9.8538
ការរៀនសូត្រ	-9.85416
ក្រោយពេល	-9.85416
សារព័ត៌មាន	-9.85488
លើកឡើង	-9.85544
ស្លៀកពាក់	-9.85569
ការរឹតត្បិត	-9.85616
របៀបរក្សា	-9.85618
ការអរគុណ	-9.8564
ការជោគជ័យ	-9.85661
ព្យាបាល	-9.85676
កិច្ចចរចារ	-9.8572
ការសាមគ្គីភាព	-9.85728
អន្តោប្រវេសន៍	-9.85767
ធ្វើការបោះឆ្នោត	-9.85779
អាពាហ៍ពិពាហ៍	-9.8578
គណៈកម្មការសភា	-9.8579
បណ្តុះបណ្តាលឲ្យ	-9.85811
សង្កេតការណ៍	-9.85816
អនាគតកាល	-9.85839
សូមកត់សម្គាល់	-9.85841
ការងឿងឆ្ងល់	-9.85844
ប្រជាពលដ្ឋ	-9.85844
សោភណភាព	-9.85844
ការលើកស្ទួយ	-9.8585
ប្រហាក់ប្រហែល	-9.85852
រថយន្ដសង្គ្រោះ	-9.85853
សវនកម្ម	-9.85858
ស្តាយក្រោយ	-9.85867
កិច្ចសហបរតិ	-9.85887
ទូរគមនាគមន៍	-9.85894
ចំណាកការធ្វើ	-9.85902
ចំណីអាហារ	-9.85911
ការប៉ាន់ប្រមាណ	-9.85928
កាយសម្បទា	-9.85928
ខាងនីហរណកម្ម	-9.85937
ទៅដរាបដល់	-9.85937
តាមរណភាព	-9.85943
ការីកលូតលាស់	-9.85944
កត់ស្គាល់	-9.85947
រហស្សនាម	-9.85956
ការដំឡើង	-9.85958
កង្កែប	-9.85964
ត្រូវការអគារ	-9.85965
បាបាន	-9.85975
វិញ្ញាបនប័ត្រ	-9.85976
អ្នកនាំពាក្យ	-9.85978
ដំណើរការរៀបចំ	-9.85981
ជម្រុញអោយ	-9.85983
អំពើហិង្សារ	-9.85984
និតិប្រតិបត្តិ	-9.8599
អ្នកការពារ	-9.86015
សក្តារនុពល	-9.86019
សារពត៌មាន	-9.86025
វិចិត្រករវ័យ	-9.86044
បំរើរាជានិយម	-9.86052
សុពលភាព	-9.86062
កិត្តិបរិរក្ស	-9.86069
បេតិកភណ្ឌ	-9.86069
សង់ទីម៉ែត្រ	-9.86069
អាណោច	-9.86069
មន្ត្រីគរបាល	-9.8607
សារធារណៈ	-9.8607
លូតលាស់	-9.8607
ខែកត្តិក	-9.86097
ការលបឆ្មក់	-9.86106
ស្រស់ស្រាយ	-9.86106
សេចក្ដីស្លាប់	-9.86112
ដើម្បីឲ្យដឹង	-9.86115
បច្ចេកវិទ្យា	-9.86127
ប្រជាក់ត្រជុំ	-9.86127
ភាពលំបាក	-9.86136
ក្រុមគ្រួសារ	-9.86141
ស៊ូណាត្រា	-9.86195
លដឹង	-9.86195
ពួកម៉ាឡេ	-9.86204
ទ្រព្យធន	-9.86205
ការយក	-9.86256
ក្បាលថ្នល់	-9.86297
ការដំលើង	-9.86304
ទៅការប្រើប្រាស់	-9.86304
ផលប្រយោជន៍	-9.86342
ការពញ្ញាក់	-9.86366
ការស៊ើបការណ៍	-9.86369
ជនជាប់ចោទ	-9.86428
▁សហប្រតិបត្តិការ	-9.86431
កន្លងទៅ	-9.86453
ការរកស៊ី	-9.86519
ត្រូវការទទួល	-9.86534
ការឆ្លើយតប	-9.86592
គមនាគមន៍	-9.86603
ដោយសារ	-9.86611
ការស្វែងរក	-9.86618
ការអាន	-9.86649
គណបក្សជាតិនិយម	-9.86687
ការចែក	-9.86692
ទង់ជាតិ	-9.8671
ការចុះសិក្សា	-9.86723
គណនេយ្យភាព	-9.86739
ការផាកពិន័យ	-9.86743
វិធានការចាំបាច់	-9.86753
បោះបង់ចោល	-9.8677
សំរាប់អាទិត្យ	-9.86786
សង្គមសាស្ត្រ	-9.86789
ចាប់បដិសន្ធិ	-9.8679
ការបរទេស	-9.86812
បដិសេធន៍	-9.86817
ធ្វេសប្រហែល	-9.86817
ទស្សនាទីលាន	-9.86824
ប្រហោង	-9.86827
គណៈប្រតិភូ	-9.86831
ពីន	-9.86835
ថ្ងៃច័ន្ទ	-9.86835
សូលីកា	-9.86836
រៀបចំឡើង	-9.8684
នីត្យានុកូលភាព	-9.86847
បោះជំហាន	-9.86848
អ្នកជំនាញ	-9.86848
មរណភាព	-9.8685
កេងប្រយោជន៍	-9.86855
ជាលាយល័ក្ខ	-9.86867
ឥរិយាបទចម្លែក	-9.86869
ចោរប្រដាប់អាវុធ	-9.86873
ត្រូវការពារ	-9.86877
មង្គលការរៀបចំ	-9.86883
នៅក្នុបណ្ដា	-9.8689
ផែនការការពារ	-9.86894
ជនភៀសខ្លួន	-9.86908
ភាពមមាញឹក	-9.8691
រាងកាយ	-9.86913
ជាមួលដ្ឋាន	-9.86919
ពួករ៉ូហ៊ីងយ៉ា	-9.86931
សមហរណកម្ម	-9.8694
ឧប្បតិហេតុ	-9.8694
ភាពហ៊ឺហា	-9.86955
ទេពកោសល្យ	-9.86962
មូលដ្ឋានគ្រឹះ	-9.8697
ត្រូវការយក	-9.86973
អសន្តិសុខ	-9.86983
អ្នកទទួល	-9.8699
តារាច្រើន	-9.86994
ឧត្តមសេនីយ៍	-9.86994
ការផ្ទុះឡើង	-9.87005
ការស្អប់ខ្ពើម	-9.87011
អាសអាភាស	-9.87012
ទស្សនាវត្ដី	-9.87033
ការបញ្ចូល	-9.87034
ការត្រួតពិន	-9.87039
មត្តេយ្យ	-9.87039
សេណេហ្គាល់	-9.87039
អនុត្តរភាព	-9.87039
ទឹកប្រាកដ	-9.8704
អ្នកជំនួយការ	-9.87062
ព្រះយស៊ូវ	-9.87069
កាលៈទេសៈ	-9.87069
ប្រណិត	-9.87069
សម្ព័ន្ធជាតិ	-9.87078
អស្ថិរភាព	-9.87084
ពីព្រោះតែ	-9.87087
កងយោពល	-9.87101
បសុព្យាបាល	-9.87101
ធាតុអាកាស	-9.87107
អាណាចក្រ	-9.87109
រាប់បន្ថែម	-9.87109
បណ្តាក់ទុន	-9.87119
ការឆ្លាក់	-9.87128
រា៉ប់រង	-9.87135
បណ្ដាលឲ្យ	-9.87144
សំណព្វចិត្ត	-9.87145
ធ្វើអន្តរាគមន៍	-9.87167
បាញ់ប្រហារ	-9.87243
ហូប	-9.87255
រាយការណ៍	-9.87268
ក្តីលើកលែង	-9.8732
ហ៊ីណូ	-9.87335
ការដាក់ទណ្ឌកម្ម	-9.87338
វិភាគទាន	-9.87388
ការសាកសួរ	-9.87396
ការយូណេស្កូ	-9.87422
បែងចែកចេញ	-9.87444
ការពិពណ៌នា	-9.87467
ការត្រួតត្រា	-9.87481
ប្រែក្លាយជា	-9.87499
១៧០០០០	-9.87547
ភាពសម័យ	-9.87551
បង្គាប់	-9.87555
ជាប្រក្រតី	-9.87558
សេចក្តីណែនាំ	-9.87599
ឧបសម្ព័ន្ធ	-9.87634
អ្នកទទួលបន្ទុក	-9.87656
អ៊ូសបេគីស្ថាន	-9.87669
សង្កេតមើលឃើញ	-9.87688
ការថប់បារម្ភ	-9.87688
ក្រិល	-9.87696
អចលន	-9.87696
ស្រាល	-9.87698
សណ្ដាប់ធ្នាប់	-9.87699
ផ្ទុយទៅនឹង	-9.87699
សួស្តីបង	-9.87712
កោតសរសើដល់	-9.8772
សេចក្តីព្រមាន	-9.87739
ឧត្ដមសេនីយ៍	-9.87742
មហាសន្និបាត	-9.87751
ស្រោចស្រព	-9.87753
ប្រាកដប្រជា	-9.87761
អ្នកវិនិយោគទុន	-9.87764
ប្រទេវៀតណាម	-9.87771
ដំណើរការគេហទំព័រ	-9.87773
ព្រះអាទិទេពម	-9.87779
សាបរលាប	-9.87786
ការចាប់អារម្មណ	-9.87786
ជ័យតដាក	-9.87786
ថាសចម្រៀង	-9.87794
ការលូតលាស់	-9.878
ឡើងគ្រងរាជ្យ	-9.87801
ពាក្យបណ្តឹង	-9.87803
ជាប់ពាក់ព័ន្ធ	-9.87812
សាបរលាស	-9.87817
អាស្រយ័ហេតុ	-9.87817
ព្រឹត្ដិកាណ៍	-9.87817
ការជួយគ្នា	-9.87826
ព្រះឡើងវិញ	-9.87843
ជាដើមហេតុ	-9.87847
អាលុយមីញ៉ូម	-9.87853
ការដណ្តើម	-9.87857
ទូរស័ព្ទហៅ	-9.87864
រថយន្តក្រុង	-9.87865
ឧត្តរមានជ័យ	-9.87865
ការអធិស្ឋាន	-9.87867
អនុស្សារីយ៍	-9.87872
ការថតចម្លង	-9.87881
សូមអញ្ជើញ	-9.87881
លក្ខខណ្ឌ	-9.87893
ផែនកាជាតិ	-9.87915
អនុញាតឲ្យ	-9.87915
ស្ថានកុងស៊ុល	-9.87926
ខួបកំណើត	-9.87927
ទស្សវត្សន៍	-9.87938
សុខសប្បាយ	-9.87946
ហួសហេតុ	-9.87947
លីត្រច្របល់	-9.87948
ប្រហែលជា	-9.87952
[...]
